{
  "version": "1.0",
  "truncation": null,
  "padding": null,
  "added_tokens": [
    {
      "id": 0,
      "content": "[UNK]",
      "single_word": false,
      "lstrip": false,
      "rstrip": false,
      "normalized": false,
      "special": true
    },
    {
      "id": 1,
      "content": "[PAD]",
      "single_word": false,
      "lstrip": false,
      "rstrip": false,
      "normalized": false,
      "special": true
    },
    {
      "id": 2,
      "content": "[CLS]",
      "single_word": false,
      "lstrip": false,
      "rstrip": false,
      "normalized": false,
      "special": true
    },
    {
      "id": 3,
      "content": "[SEP]",
      "single_word": false,
      "lstrip": false,
      "rstrip": false,
      "normalized": false,
      "special": true
    },
    {
      "id": 4,
      "content": "[MASK]",
      "single_word": false,
      "lstrip": false,
      "rstrip": false,
      "normalized": false,
      "special": true
    }
  ],
  "normalizer": {
    "type": "Sequence",
    "normalizers": [
      {
        "type": "NFKC"
      },
      {
        "type": "Lowercase"
      }
    ]
  },
  "pre_tokenizer": {
    "type": "Sequence",
    "pretokenizers": [
      {
        "type": "WhitespaceSplit"
      },
      {
        "type": "Digits",
        "individual_digits": true
      },
      {
        "type": "Punctuation",
        "behavior": "Isolated"
      }
    ]
  },
  "post_processor": null,
  "decoder": {
    "type": "WordPiece",
    "prefix": "##",
    "cleanup": true
  },
  "model": {
    "type": "WordPiece",
    "unk_token": "[UNK]",
    "continuing_subword_prefix": "##",
    "max_input_chars_per_word": 100,
    "vocab": {
      "[UNK]": 0,
      "[PAD]": 1,
      "[CLS]": 2,
      "[SEP]": 3,
      "[MASK]": 4,
      "!": 5,
      "\"": 6,
      "#": 7,
      "$": 8,
      "%": 9,
      "&": 10,
      "'": 11,
      "(": 12,
      ")": 13,
      "*": 14,
      "+": 15,
      ",": 16,
      "-": 17,
      ".": 18,
      "/": 19,
      "0": 20,
      "1": 21,
      "2": 22,
      "3": 23,
      "4": 24,
      "5": 25,
      "6": 26,
      "7": 27,
      "8": 28,
      "9": 29,
      ":": 30,
      ";": 31,
      "=": 32,
      "?": 33,
      "@": 34,
      "[": 35,
      "\\": 36,
      "]": 37,
      "^": 38,
      "_": 39,
      "`": 40,
      "a": 41,
      "b": 42,
      "c": 43,
      "d": 44,
      "e": 45,
      "f": 46,
      "g": 47,
      "h": 48,
      "i": 49,
      "j": 50,
      "k": 51,
      "l": 52,
      "m": 53,
      "n": 54,
      "o": 55,
      "p": 56,
      "q": 57,
      "r": 58,
      "s": 59,
      "t": 60,
      "u": 61,
      "v": 62,
      "w": 63,
      "x": 64,
      "y": 65,
      "z": 66,
      "{": 67,
      "|": 68,
      "}": 69,
      "~": 70,
      "": 71,
      "¡": 72,
      "¢": 73,
      "£": 74,
      "¥": 75,
      "§": 76,
      "«": 77,
      "¬": 78,
      "­": 79,
      "®": 80,
      "°": 81,
      "±": 82,
      "·": 83,
      "»": 84,
      "¿": 85,
      "×": 86,
      "ß": 87,
      "à": 88,
      "á": 89,
      "â": 90,
      "ã": 91,
      "ä": 92,
      "å": 93,
      "æ": 94,
      "ç": 95,
      "è": 96,
      "é": 97,
      "ê": 98,
      "ë": 99,
      "ì": 100,
      "í": 101,
      "î": 102,
      "ï": 103,
      "ð": 104,
      "ñ": 105,
      "ò": 106,
      "ó": 107,
      "ô": 108,
      "õ": 109,
      "ö": 110,
      "ø": 111,
      "ù": 112,
      "ú": 113,
      "û": 114,
      "ü": 115,
      "ý": 116,
      "þ": 117,
      "ÿ": 118,
      "ā": 119,
      "ă": 120,
      "ą": 121,
      "ć": 122,
      "ĉ": 123,
      "č": 124,
      "ď": 125,
      "đ": 126,
      "ē": 127,
      "ĕ": 128,
      "ė": 129,
      "ę": 130,
      "ě": 131,
      "ĝ": 132,
      "ğ": 133,
      "ġ": 134,
      "ģ": 135,
      "ĥ": 136,
      "ħ": 137,
      "ĩ": 138,
      "ī": 139,
      "ĭ": 140,
      "į": 141,
      "ı": 142,
      "ķ": 143,
      "ļ": 144,
      "ľ": 145,
      "ł": 146,
      "ń": 147,
      "ņ": 148,
      "ň": 149,
      "ŋ": 150,
      "ō": 151,
      "ŏ": 152,
      "ő": 153,
      "œ": 154,
      "ř": 155,
      "ś": 156,
      "ŝ": 157,
      "ş": 158,
      "š": 159,
      "ţ": 160,
      "ť": 161,
      "ũ": 162,
      "ū": 163,
      "ŭ": 164,
      "ů": 165,
      "ű": 166,
      "ų": 167,
      "ź": 168,
      "ż": 169,
      "ž": 170,
      "ƒ": 171,
      "ơ": 172,
      "ƣ": 173,
      "ư": 174,
      "ǎ": 175,
      "ǐ": 176,
      "ǒ": 177,
      "ǔ": 178,
      "ǧ": 179,
      "ǫ": 180,
      "ș": 181,
      "ț": 182,
      "ȟ": 183,
      "ɐ": 184,
      "ɑ": 185,
      "ɒ": 186,
      "ɔ": 187,
      "ɕ": 188,
      "ə": 189,
      "ɛ": 190,
      "ɡ": 191,
      "ɣ": 192,
      "ɨ": 193,
      "ɪ": 194,
      "ɾ": 195,
      "ʁ": 196,
      "ʃ": 197,
      "ʉ": 198,
      "ʊ": 199,
      "ʒ": 200,
      "ʔ": 201,
      "ʕ": 202,
      "ʙ": 203,
      "ʻ": 204,
      "ʼ": 205,
      "ʾ": 206,
      "ʿ": 207,
      "ˈ": 208,
      "ˌ": 209,
      "ː": 210,
      "˥": 211,
      "̀": 212,
      "́": 213,
      "̂": 214,
      "̃": 215,
      "̆": 216,
      "̇": 217,
      "̈": 218,
      "̊": 219,
      "̌": 220,
      "̗": 221,
      "̡": 222,
      "̣": 223,
      "̧": 224,
      "̨": 225,
      "̯": 226,
      "͡": 227,
      "ά": 228,
      "έ": 229,
      "ή": 230,
      "ί": 231,
      "α": 232,
      "β": 233,
      "γ": 234,
      "δ": 235,
      "ε": 236,
      "ζ": 237,
      "η": 238,
      "θ": 239,
      "ι": 240,
      "κ": 241,
      "λ": 242,
      "μ": 243,
      "ν": 244,
      "ξ": 245,
      "ο": 246,
      "π": 247,
      "ρ": 248,
      "ς": 249,
      "σ": 250,
      "τ": 251,
      "υ": 252,
      "φ": 253,
      "χ": 254,
      "ψ": 255,
      "ω": 256,
      "ϊ": 257,
      "ό": 258,
      "ύ": 259,
      "ώ": 260,
      "а": 261,
      "б": 262,
      "в": 263,
      "г": 264,
      "д": 265,
      "е": 266,
      "ж": 267,
      "з": 268,
      "и": 269,
      "й": 270,
      "к": 271,
      "л": 272,
      "м": 273,
      "н": 274,
      "о": 275,
      "п": 276,
      "р": 277,
      "с": 278,
      "т": 279,
      "у": 280,
      "ф": 281,
      "х": 282,
      "ц": 283,
      "ч": 284,
      "ш": 285,
      "щ": 286,
      "ъ": 287,
      "ы": 288,
      "ь": 289,
      "э": 290,
      "ю": 291,
      "я": 292,
      "ё": 293,
      "ђ": 294,
      "є": 295,
      "і": 296,
      "ї": 297,
      "ј": 298,
      "љ": 299,
      "њ": 300,
      "ћ": 301,
      "ў": 302,
      "џ": 303,
      "ѣ": 304,
      "ғ": 305,
      "җ": 306,
      "қ": 307,
      "ҡ": 308,
      "ң": 309,
      "ү": 310,
      "ұ": 311,
      "ҳ": 312,
      "һ": 313,
      "ӏ": 314,
      "ә": 315,
      "ӧ": 316,
      "ө": 317,
      "ӱ": 318,
      "ա": 319,
      "բ": 320,
      "գ": 321,
      "դ": 322,
      "ե": 323,
      "զ": 324,
      "է": 325,
      "թ": 326,
      "ի": 327,
      "լ": 328,
      "խ": 329,
      "ծ": 330,
      "կ": 331,
      "հ": 332,
      "ղ": 333,
      "մ": 334,
      "յ": 335,
      "ն": 336,
      "շ": 337,
      "ո": 338,
      "չ": 339,
      "պ": 340,
      "ջ": 341,
      "ռ": 342,
      "ս": 343,
      "վ": 344,
      "տ": 345,
      "ր": 346,
      "ց": 347,
      "ւ": 348,
      "փ": 349,
      "ք": 350,
      "ְ": 351,
      "ֲ": 352,
      "ִ": 353,
      "ֵ": 354,
      "ֶ": 355,
      "ַ": 356,
      "ָ": 357,
      "ֹ": 358,
      "ּ": 359,
      "ׁ": 360,
      "א": 361,
      "ב": 362,
      "ג": 363,
      "ד": 364,
      "ה": 365,
      "ו": 366,
      "ז": 367,
      "ח": 368,
      "ט": 369,
      "י": 370,
      "ך": 371,
      "כ": 372,
      "ל": 373,
      "ם": 374,
      "מ": 375,
      "ן": 376,
      "נ": 377,
      "ס": 378,
      "ע": 379,
      "פ": 380,
      "ץ": 381,
      "צ": 382,
      "ק": 383,
      "ר": 384,
      "ש": 385,
      "ת": 386,
      "،": 387,
      "ء": 388,
      "آ": 389,
      "أ": 390,
      "ؤ": 391,
      "إ": 392,
      "ئ": 393,
      "ا": 394,
      "ب": 395,
      "ة": 396,
      "ت": 397,
      "ث": 398,
      "ج": 399,
      "ح": 400,
      "خ": 401,
      "د": 402,
      "ذ": 403,
      "ر": 404,
      "ز": 405,
      "س": 406,
      "ش": 407,
      "ص": 408,
      "ض": 409,
      "ط": 410,
      "ظ": 411,
      "ع": 412,
      "غ": 413,
      "ـ": 414,
      "ف": 415,
      "ق": 416,
      "ك": 417,
      "ل": 418,
      "م": 419,
      "ن": 420,
      "ه": 421,
      "و": 422,
      "ى": 423,
      "ي": 424,
      "َ": 425,
      "ُ": 426,
      "ِ": 427,
      "ّ": 428,
      "ْ": 429,
      "پ": 430,
      "چ": 431,
      "ژ": 432,
      "ک": 433,
      "ڭ": 434,
      "گ": 435,
      "ھ": 436,
      "ہ": 437,
      "ۆ": 438,
      "ۇ": 439,
      "ی": 440,
      "ۍ": 441,
      "ە": 442,
      "ܐ": 443,
      "ܕ": 444,
      "ܘ": 445,
      "ܝ": 446,
      "ܡ": 447,
      "ܢ": 448,
      "ܪ": 449,
      "ܬ": 450,
      "އ": 451,
      "ަ": 452,
      "ް": 453,
      "ं": 454,
      "क": 455,
      "ग": 456,
      "ज": 457,
      "ण": 458,
      "त": 459,
      "द": 460,
      "ध": 461,
      "न": 462,
      "प": 463,
      "ब": 464,
      "भ": 465,
      "म": 466,
      "य": 467,
      "र": 468,
      "ल": 469,
      "व": 470,
      "श": 471,
      "स": 472,
      "ह": 473,
      "़": 474,
      "ा": 475,
      "ि": 476,
      "ी": 477,
      "ु": 478,
      "े": 479,
      "ो": 480,
      "्": 481,
      "দ": 482,
      "ন": 483,
      "ব": 484,
      "ম": 485,
      "র": 486,
      "া": 487,
      "ি": 488,
      "্": 489,
      "ક": 490,
      "ા": 491,
      "ી": 492,
      "க": 493,
      "த": 494,
      "ப": 495,
      "ம": 496,
      "ர": 497,
      "ல": 498,
      "ா": 499,
      "ி": 500,
      "ு": 501,
      "்": 502,
      "್": 503,
      "ර": 504,
      "්": 505,
      "ก": 506,
      "ง": 507,
      "ต": 508,
      "ท": 509,
      "น": 510,
      "ม": 511,
      "ย": 512,
      "ร": 513,
      "ล": 514,
      "ว": 515,
      "ส": 516,
      "อ": 517,
      "ั": 518,
      "า": 519,
      "ิ": 520,
      "ี": 521,
      "ุ": 522,
      "เ": 523,
      "་": 524,
      "ས": 525,
      "ོ": 526,
      "်": 527,
      "ა": 528,
      "ბ": 529,
      "გ": 530,
      "დ": 531,
      "ე": 532,
      "ვ": 533,
      "ზ": 534,
      "თ": 535,
      "ი": 536,
      "კ": 537,
      "ლ": 538,
      "მ": 539,
      "ნ": 540,
      "ო": 541,
      "პ": 542,
      "რ": 543,
      "ს": 544,
      "ტ": 545,
      "უ": 546,
      "ფ": 547,
      "ქ": 548,
      "ღ": 549,
      "ყ": 550,
      "შ": 551,
      "ჩ": 552,
      "ც": 553,
      "ძ": 554,
      "წ": 555,
      "ჭ": 556,
      "ხ": 557,
      "ჯ": 558,
      "ር": 559,
      "ብ": 560,
      "ት": 561,
      "ን": 562,
      "አ": 563,
      "፡": 564,
      "ᐃ": 565,
      "ᐅ": 566,
      "ᐊ": 567,
      "ᑦ": 568,
      "ᒃ": 569,
      "ᕐ": 570,
      "ᖅ": 571,
      "ក": 572,
      "ន": 573,
      "ម": 574,
      "រ": 575,
      "ស": 576,
      "ា": 577,
      "្": 578,
      "ᴀ": 579,
      "ḍ": 580,
      "ḏ": 581,
      "ḗ": 582,
      "ḡ": 583,
      "ḥ": 584,
      "ḫ": 585,
      "ḳ": 586,
      "ḵ": 587,
      "ḷ": 588,
      "ṇ": 589,
      "ṣ": 590,
      "ṫ": 591,
      "ṭ": 592,
      "ṯ": 593,
      "ẓ": 594,
      "ạ": 595,
      "ả": 596,
      "ầ": 597,
      "ậ": 598,
      "ắ": 599,
      "ế": 600,
      "ễ": 601,
      "ệ": 602,
      "ỉ": 603,
      "ị": 604,
      "ọ": 605,
      "ố": 606,
      "ồ": 607,
      "ộ": 608,
      "ự": 609,
      "ἀ": 610,
      "ἄ": 611,
      "ἐ": 612,
      "ἔ": 613,
      "ἡ": 614,
      "ἰ": 615,
      "ἱ": 616,
      "ὀ": 617,
      "ὁ": 618,
      "ὐ": 619,
      "ὶ": 620,
      "ῆ": 621,
      "ῖ": 622,
      "ῦ": 623,
      "ῶ": 624,
      "​": 625,
      "‌": 626,
      "‎": 627,
      "‏": 628,
      "‐": 629,
      "–": 630,
      "—": 631,
      "‘": 632,
      "’": 633,
      "‚": 634,
      "“": 635,
      "”": 636,
      "„": 637,
      "‟": 638,
      "†": 639,
      "‡": 640,
      "•": 641,
      "‬": 642,
      "‭": 643,
      "‰": 644,
      "′": 645,
      "›": 646,
      "⁄": 647,
      "€": 648,
      "₺": 649,
      "←": 650,
      "↑": 651,
      "→": 652,
      "↔": 653,
      "∂": 654,
      "∆": 655,
      "∇": 656,
      "∈": 657,
      "−": 658,
      "√": 659,
      "∞": 660,
      "∥": 661,
      "∧": 662,
      "≈": 663,
      "≠": 664,
      "≡": 665,
      "≤": 666,
      "≥": 667,
      "⊕": 668,
      "⊙": 669,
      "⋅": 670,
      "─": 671,
      "│": 672,
      "└": 673,
      "├": 674,
      "●": 675,
      "☉": 676,
      "♦": 677,
      "♭": 678,
      "♯": 679,
      "⟨": 680,
      "⟩": 681,
      "ⴰ": 682,
      "ⵏ": 683,
      "あ": 684,
      "い": 685,
      "う": 686,
      "か": 687,
      "き": 688,
      "さ": 689,
      "し": 690,
      "た": 691,
      "て": 692,
      "と": 693,
      "な": 694,
      "に": 695,
      "の": 696,
      "ま": 697,
      "も": 698,
      "ら": 699,
      "り": 700,
      "ん": 701,
      "ア": 702,
      "ィ": 703,
      "イ": 704,
      "ウ": 705,
      "ェ": 706,
      "エ": 707,
      "オ": 708,
      "カ": 709,
      "ガ": 710,
      "キ": 711,
      "ク": 712,
      "グ": 713,
      "ケ": 714,
      "コ": 715,
      "サ": 716,
      "シ": 717,
      "ジ": 718,
      "ス": 719,
      "ズ": 720,
      "ソ": 721,
      "タ": 722,
      "ダ": 723,
      "チ": 724,
      "ッ": 725,
      "テ": 726,
      "デ": 727,
      "ト": 728,
      "ド": 729,
      "ナ": 730,
      "ニ": 731,
      "バ": 732,
      "パ": 733,
      "ビ": 734,
      "フ": 735,
      "ブ": 736,
      "プ": 737,
      "マ": 738,
      "ミ": 739,
      "ム": 740,
      "メ": 741,
      "モ": 742,
      "ャ": 743,
      "ュ": 744,
      "ョ": 745,
      "ラ": 746,
      "リ": 747,
      "ル": 748,
      "レ": 749,
      "ロ": 750,
      "ン": 751,
      "・": 752,
      "ー": 753,
      "一": 754,
      "三": 755,
      "上": 756,
      "世": 757,
      "中": 758,
      "主": 759,
      "之": 760,
      "九": 761,
      "乡": 762,
      "事": 763,
      "二": 764,
      "于": 765,
      "五": 766,
      "京": 767,
      "人": 768,
      "代": 769,
      "伊": 770,
      "会": 771,
      "元": 772,
      "光": 773,
      "克": 774,
      "党": 775,
      "八": 776,
      "公": 777,
      "六": 778,
      "共": 779,
      "兵": 780,
      "利": 781,
      "勒": 782,
      "北": 783,
      "区": 784,
      "區": 785,
      "十": 786,
      "华": 787,
      "南": 788,
      "原": 789,
      "县": 790,
      "古": 791,
      "可": 792,
      "台": 793,
      "史": 794,
      "司": 795,
      "合": 796,
      "吉": 797,
      "和": 798,
      "單": 799,
      "四": 800,
      "回": 801,
      "国": 802,
      "國": 803,
      "地": 804,
      "城": 805,
      "塔": 806,
      "士": 807,
      "大": 808,
      "天": 809,
      "太": 810,
      "女": 811,
      "奴": 812,
      "子": 813,
      "学": 814,
      "學": 815,
      "安": 816,
      "宗": 817,
      "家": 818,
      "寺": 819,
      "小": 820,
      "尔": 821,
      "居": 822,
      "山": 823,
      "島": 824,
      "川": 825,
      "州": 826,
      "市": 827,
      "帝": 828,
      "師": 829,
      "平": 830,
      "年": 831,
      "府": 832,
      "建": 833,
      "式": 834,
      "後": 835,
      "徳": 836,
      "戦": 837,
      "手": 838,
      "拉": 839,
      "拟": 840,
      "摩": 841,
      "政": 842,
      "教": 843,
      "文": 844,
      "斯": 845,
      "新": 846,
      "方": 847,
      "族": 848,
      "日": 849,
      "明": 850,
      "春": 851,
      "月": 852,
      "有": 853,
      "朝": 854,
      "木": 855,
      "本": 856,
      "李": 857,
      "村": 858,
      "東": 859,
      "松": 860,
      "林": 861,
      "校": 862,
      "株": 863,
      "正": 864,
      "武": 865,
      "民": 866,
      "水": 867,
      "汗": 868,
      "江": 869,
      "沙": 870,
      "河": 871,
      "治": 872,
      "法": 873,
      "海": 874,
      "清": 875,
      "湖": 876,
      "漢": 877,
      "烏": 878,
      "特": 879,
      "玉": 880,
      "王": 881,
      "生": 882,
      "田": 883,
      "疆": 884,
      "白": 885,
      "皇": 886,
      "真": 887,
      "石": 888,
      "社": 889,
      "神": 890,
      "空": 891,
      "立": 892,
      "第": 893,
      "組": 894,
      "經": 895,
      "縣": 896,
      "羅": 897,
      "美": 898,
      "義": 899,
      "自": 900,
      "若": 901,
      "英": 902,
      "草": 903,
      "華": 904,
      "虚": 905,
      "行": 906,
      "西": 907,
      "記": 908,
      "語": 909,
      "軍": 910,
      "通": 911,
      "道": 912,
      "那": 913,
      "郎": 914,
      "部": 915,
      "都": 916,
      "里": 917,
      "野": 918,
      "金": 919,
      "镇": 920,
      "長": 921,
      "門": 922,
      "阿": 923,
      "院": 924,
      "陸": 925,
      "隊": 926,
      "韓": 927,
      "馬": 928,
      "高": 929,
      "鳥": 930,
      "黄": 931,
      "龍": 932,
      "가": 933,
      "고": 934,
      "공": 935,
      "구": 936,
      "국": 937,
      "그": 938,
      "기": 939,
      "김": 940,
      "나": 941,
      "니": 942,
      "다": 943,
      "당": 944,
      "대": 945,
      "도": 946,
      "동": 947,
      "라": 948,
      "랑": 949,
      "로": 950,
      "리": 951,
      "마": 952,
      "무": 953,
      "미": 954,
      "민": 955,
      "박": 956,
      "보": 957,
      "부": 958,
      "비": 959,
      "사": 960,
      "상": 961,
      "서": 962,
      "선": 963,
      "성": 964,
      "세": 965,
      "소": 966,
      "수": 967,
      "스": 968,
      "시": 969,
      "신": 970,
      "아": 971,
      "어": 972,
      "에": 973,
      "여": 974,
      "연": 975,
      "영": 976,
      "오": 977,
      "우": 978,
      "원": 979,
      "유": 980,
      "은": 981,
      "의": 982,
      "이": 983,
      "인": 984,
      "일": 985,
      "자": 986,
      "재": 987,
      "전": 988,
      "정": 989,
      "제": 990,
      "조": 991,
      "주": 992,
      "지": 993,
      "진": 994,
      "최": 995,
      "터": 996,
      "트": 997,
      "하": 998,
      "한": 999,
      "해": 1000,
      "현": 1001,
      "호": 1002,
      "화": 1003,
      "﻿": 1004,
      "##l": 1005,
      "##g": 1006,
      "##i": 1007,
      "##e": 1008,
      "##n": 1009,
      "##r": 1010,
      "##d": 1011,
      "##y": 1012,
      "##t": 1013,
      "##h": 1014,
      "##s": 1015,
      "##u": 1016,
      "##ğ": 1017,
      "##a": 1018,
      "##m": 1019,
      "##c": 1020,
      "##b": 1021,
      "##o": 1022,
      "##ö": 1023,
      "##z": 1024,
      "##k": 1025,
      "##v": 1026,
      "##ş": 1027,
      "##x": 1028,
      "##f": 1029,
      "##ü": 1030,
      "##ı": 1031,
      "##w": 1032,
      "##ç": 1033,
      "##j": 1034,
      "##p": 1035,
      "##̇": 1036,
      "##­": 1037,
      "##д": 1038,
      "##е": 1039,
      "##т": 1040,
      "##а": 1041,
      "##ј": 1042,
      "##м": 1043,
      "##к": 1044,
      "##о": 1045,
      "##с": 1046,
      "##и": 1047,
      "##û": 1048,
      "##ר": 1049,
      "##ד": 1050,
      "##道": 1051,
      "##주": 1052,
      "##é": 1053,
      "##á": 1054,
      "##ि": 1055,
      "##न": 1056,
      "##ो": 1057,
      "##ब": 1058,
      "##ा": 1059,
      "##ì": 1060,
      "##α": 1061,
      "##λ": 1062,
      "##υ": 1063,
      "##β": 1064,
      "##ά": 1065,
      "##κ": 1066,
      "##ι": 1067,
      "##â": 1068,
      "##î": 1069,
      "##ل": 1070,
      "##م": 1071,
      "##ق": 1072,
      "##ا": 1073,
      "##ب": 1074,
      "##ة": 1075,
      "##н": 1076,
      "##́": 1077,
      "##ф": 1078,
      "##й": 1079,
      "##س": 1080,
      "##ج": 1081,
      "##ي": 1082,
      "##ت": 1083,
      "##ä": 1084,
      "##ø": 1085,
      "##г": 1086,
      "##р": 1087,
      "##п": 1088,
      "##ō": 1089,
      "##х": 1090,
      "##в": 1091,
      "##ܡ": 1092,
      "##ܪ": 1093,
      "##ܝ": 1094,
      "##ы": 1095,
      "##έ": 1096,
      "##ο": 1097,
      "##ς": 1098,
      "##ó": 1099,
      "##ł": 1100,
      "##ī": 1101,
      "##q": 1102,
      "##로": 1103,
      "##인": 1104,
      "##민": 1105,
      "##당": 1106,
      "##♯": 1107,
      "##я": 1108,
      "##í": 1109,
      "##õ": 1110,
      "##ა": 1111,
      "##ღ": 1112,
      "##მ": 1113,
      "##ი": 1114,
      "##": 1115,
      "##ო": 1116,
      "##ლ": 1117,
      "##ნ": 1118,
      "##ს": 1119,
      "##è": 1120,
      "##은": 1121,
      "##š": 1122,
      "##ჩ": 1123,
      "##კ": 1124,
      "##ზ": 1125,
      "##ე": 1126,
      "##و": 1127,
      "##ك": 1128,
      "##ر": 1129,
      "##أ": 1130,
      "##ġ": 1131,
      "##լ": 1132,
      "##բ": 1133,
      "##ե": 1134,
      "##ր": 1135,
      "##տ": 1136,
      "##ъ": 1137,
      "##ë": 1138,
      "##რ": 1139,
      "##ბ": 1140,
      "##ш": 1141,
      "##ν": 1142,
      "##ί": 1143,
      "##ω": 1144,
      "##ž": 1145,
      "##л": 1146,
      "##ă": 1147,
      "##ի": 1148,
      "##ո": 1149,
      "##վ": 1150,
      "##ô": 1151,
      "##ū": 1152,
      "##若": 1153,
      "##羅": 1154,
      "##經": 1155,
      "##თ": 1156,
      "##י": 1157,
      "##כ": 1158,
      "##א": 1159,
      "##ל": 1160,
      "##γ": 1161,
      "##ρ": 1162,
      "##π": 1163,
      "##у": 1164,
      "##پ": 1165,
      "##خ": 1166,
      "##ن": 1167,
      "##ვ": 1168,
      "##ტ": 1169,
      "##ც": 1170,
      "##ხ": 1171,
      "##县": 1172,
      "##з": 1173,
      "##ک": 1174,
      "##à": 1175,
      "##і": 1176,
      "##六": 1177,
      "##்": 1178,
      "##க": 1179,
      "##ή": 1180,
      "##ε": 1181,
      "##δ": 1182,
      "##ï": 1183,
      "##ყ": 1184,
      "##э": 1185,
      "##č": 1186,
      "##ь": 1187,
      "##ɔ": 1188,
      "##ĝ": 1189,
      "##ж": 1190,
      "##ě": 1191,
      "##џ": 1192,
      "##ћ": 1193,
      "##ە": 1194,
      "##─": 1195,
      "##ù": 1196,
      "##ñ": 1197,
      "##우": 1198,
      "##ć": 1199,
      "##ռ": 1200,
      "##ա": 1201,
      "##ւ": 1202,
      "##μ": 1203,
      "##ύ": 1204,
      "##σ": 1205,
      "##å": 1206,
      "##θ": 1207,
      "##η": 1208,
      "##ম": 1209,
      "##দ": 1210,
      "##コ": 1211,
      "##ý": 1212,
      "##َ": 1213,
      "##د": 1214,
      "##ّ": 1215,
      "##ى": 1216,
      "##ā": 1217,
      "##φ": 1218,
      "##آ": 1219,
      "##手": 1220,
      "##ξ": 1221,
      "##ŏ": 1222,
      "##ə": 1223,
      "##ß": 1224,
      "##þ": 1225,
      "##њ": 1226,
      "##̌": 1227,
      "##ַ": 1228,
      "##ּ": 1229,
      "##ְ": 1230,
      "##ָ": 1231,
      "##ה": 1232,
      "##დ": 1233,
      "##‎": 1234,
      "##ذ": 1235,
      "##ی": 1236,
      "##ώ": 1237,
      "##ע": 1238,
      "##צ": 1239,
      "##מ": 1240,
      "##ו": 1241,
      "##ת": 1242,
      "##‭": 1243,
      "##大": 1244,
      "##͡": 1245,
      "##ʼ": 1246,
      "##ч": 1247,
      "##ð": 1248,
      "##ú": 1249,
      "##本": 1250,
      "##光": 1251,
      "##学": 1252,
      "##ắ": 1253,
      "##б": 1254,
      "##ڭ": 1255,
      "##기": 1256,
      "##τ": 1257,
      "##ē": 1258,
      "##ŭ": 1259,
      "##̈": 1260,
      "##̂": 1261,
      "##州": 1262,
      "##ő": 1263,
      "##林": 1264,
      "##ã": 1265,
      "##ź": 1266,
      "##ό": 1267,
      "##ʻ": 1268,
      "##ė": 1269,
      "##χ": 1270,
      "##ê": 1271,
      "##क": 1272,
      "##ु": 1273,
      "##्": 1274,
      "##ज": 1275,
      "##ю": 1276,
      "##ز": 1277,
      "##​": 1278,
      "##қ": 1279,
      "##ș": 1280,
      "##ش": 1281,
      "##ә": 1282,
      "##چ": 1283,
      "##گ": 1284,
      "##ْ": 1285,
      "##ف": 1286,
      "##ִ": 1287,
      "##פ": 1288,
      "##ט": 1289,
      "##ֵ": 1290,
      "##ם": 1291,
      "##ө": 1292,
      "##ү": 1293,
      "##ع": 1294,
      "##克": 1295,
      "##ń": 1296,
      "##ř": 1297,
      "##̀": 1298,
      "##щ": 1299,
      "##ֹ": 1300,
      "##ه": 1301,
      "##ś": 1302,
      "##ʾ": 1303,
      "##թ": 1304,
      "##ն": 1305,
      "##ջ": 1306,
      "##յ": 1307,
      "##ჭ": 1308,
      "##ĭ": 1309,
      "##部": 1310,
      "##ˈ": 1311,
      "##奴": 1312,
      "##æ": 1313,
      "##一": 1314,
      "##ས": 1315,
      "##ქ": 1316,
      "##ɪ": 1317,
      "##ɾ": 1318,
      "##ː": 1319,
      "##ש": 1320,
      "##ׁ": 1321,
      "##ב": 1322,
      "##ӏ": 1323,
      "##ビ": 1324,
      "##ー": 1325,
      "##ジ": 1326,
      "##ャ": 1327,
      "##パ": 1328,
      "##ン": 1329,
      "##ц": 1330,
      "##ط": 1331,
      "##ǔ": 1332,
      "##ò": 1333,
      "##ṇ": 1334,
      "##մ": 1335,
      "##高": 1336,
      "##җ": 1337,
      "##국": 1338,
      "##ح": 1339,
      "##ą": 1340,
      "##스": 1341,
      "##ս": 1342,
      "##ḥ": 1343,
      "##동": 1344,
      "##ث": 1345,
      "##之": 1346,
      "##해": 1347,
      "##영": 1348,
      "##ғ": 1349,
      "##ަ": 1350,
      "##އ": 1351,
      "##ް": 1352,
      "##ך": 1353,
      "##진": 1354,
      "##선": 1355,
      "##비": 1356,
      "##ُ": 1357,
      "##キ": 1358,
      "##ダ": 1359,
      "##ル": 1360,
      "##ग": 1361,
      "##े": 1362,
      "##द": 1363,
      "##र": 1364,
      "##隊": 1365,
      "##ह": 1366,
      "##ध": 1367,
      "##נ": 1368,
      "##գ": 1369,
      "##시": 1370,
      "##ң": 1371,
      "##龍": 1372,
      "##ζ": 1373,
      "##♭": 1374,
      "##į": 1375,
      "##ص": 1376,
      "##გ": 1377,
      "##ű": 1378,
      "##‌": 1379,
      "##水": 1380,
      "##海": 1381,
      "##中": 1382,
      "##川": 1383,
      "##三": 1384,
      "##ց": 1385,
      "##ţ": 1386,
      "##フ": 1387,
      "##ェ": 1388,
      "##ク": 1389,
      "##ト": 1390,
      "##®": 1391,
      "##կ": 1392,
      "##ղ": 1393,
      "##ء": 1394,
      "##ˌ": 1395,
      "##터": 1396,
      "##리": 1397,
      "##可": 1398,
      "##汗": 1399,
      "##ჯ": 1400,
      "##ὐ": 1401,
      "##ῖ": 1402,
      "##트": 1403,
      "##≠": 1404,
      "##غ": 1405,
      "##უ": 1406,
      "##ِ": 1407,
      "##ئ": 1408,
      "##ण": 1409,
      "##स": 1410,
      "##ी": 1411,
      "##ʁ": 1412,
      "##ʒ": 1413,
      "##̣": 1414,
      "##ị": 1415,
      "##尔": 1416,
      "##ơ": 1417,
      "##ض": 1418,
      "##明": 1419,
      "##王": 1420,
      "##英": 1421,
      "##ț": 1422,
      "##ǐ": 1423,
      "##ё": 1424,
      "##ு": 1425,
      "##ா": 1426,
      "##த": 1427,
      "##ர": 1428,
      "##天": 1429,
      "##の": 1430,
      "##ム": 1431,
      "##イ": 1432,
      "##ア": 1433,
      "##ド": 1434,
      "##バ": 1435,
      "##ス": 1436,
      "##東": 1437,
      "##軍": 1438,
      "##ძ": 1439,
      "##라": 1440,
      "##성": 1441,
      "##拉": 1442,
      "##和": 1443,
      "##台": 1444,
      "##һ": 1445,
      "##縣": 1446,
      "##신": 1447,
      "##다": 1448,
      "##美": 1449,
      "##त": 1450,
      "##إ": 1451,
      "##ܐ": 1452,
      "##会": 1453,
      "##党": 1454,
      "##族": 1455,
      "##հ": 1456,
      "##պ": 1457,
      "##ร": 1458,
      "##เ": 1459,
      "##ท": 1460,
      "##ย": 1461,
      "##̃": 1462,
      "##შ": 1463,
      "##ʿ": 1464,
      "##野": 1465,
      "##≡": 1466,
      "##ח": 1467,
      "##戦": 1468,
      "##ῦ": 1469,
      "##ǒ": 1470,
      "##ǎ": 1471,
      "##ფ": 1472,
      "##ᕐ": 1473,
      "##ᒃ": 1474,
      "##ɐ": 1475,
      "##̯": 1476,
      "##չ": 1477,
      "##ἰ": 1478,
      "##ラ": 1479,
      "##特": 1480,
      "##單": 1481,
      "##于": 1482,
      "##ї": 1483,
      "##하": 1484,
      "##‏": 1485,
      "##−": 1486,
      "##原": 1487,
      "##ھ": 1488,
      "##北": 1489,
      "##ـ": 1490,
      "##ן": 1491,
      "##연": 1492,
      "##가": 1493,
      "##ŋ": 1494,
      "##ả": 1495,
      "##利": 1496,
      "##ウ": 1497,
      "##エ": 1498,
      "##수": 1499,
      "##ג": 1500,
      "##春": 1501,
      "##ḫ": 1502,
      "##ę": 1503,
      "##호": 1504,
      "##ᖅ": 1505,
      "##サ": 1506,
      "##リ": 1507,
      "##ɛ": 1508,
      "##ɒ": 1509,
      "##의": 1510,
      "##ɨ": 1511,
      "##ケ": 1512,
      "##都": 1513,
      "##ṭ": 1514,
      "##ṣ": 1515,
      "##소": 1516,
      "##ḗ": 1517,
      "##×": 1518,
      "##ק": 1519,
      "##전": 1520,
      "##자": 1521,
      "##부": 1522,
      "##山": 1523,
      "##사": 1524,
      "##đ": 1525,
      "##마": 1526,
      "##ḏ": 1527,
      "##⋅": 1528,
      "##ን": 1529,
      "##ʔ": 1530,
      "##니": 1531,
      "##ẓ": 1532,
      "##白": 1533,
      "##า": 1534,
      "##ี": 1535,
      "##ք": 1536,
      "##ӧ": 1537,
      "##摩": 1538,
      "##շ": 1539,
      "##ガ": 1540,
      "##ミ": 1541,
      "##ۆ": 1542,
      "##म": 1543,
      "##ҡ": 1544,
      "##រ": 1545,
      "##្": 1546,
      "##ម": 1547,
      "##史": 1548,
      "##那": 1549,
      "##し": 1550,
      "##ů": 1551,
      "##式": 1552,
      "##社": 1553,
      "##ソ": 1554,
      "##ニ": 1555,
      "##ल": 1556,
      "##य": 1557,
      "##œ": 1558,
      "##国": 1559,
      "##島": 1560,
      "##地": 1561,
      "##ļ": 1562,
      "##भ": 1563,
      "##ⴰ": 1564,
      "##ų": 1565,
      "##ョ": 1566,
      "##株": 1567,
      "##한": 1568,
      "##ɕ": 1569,
      "##ђ": 1570,
      "##有": 1571,
      "##公": 1572,
      "##司": 1573,
      "##ֲ": 1574,
      "##帝": 1575,
      "##ộ": 1576,
      "##チ": 1577,
      "##ュ": 1578,
      "##대": 1579,
      "##ッ": 1580,
      "##դ": 1581,
      "##タ": 1582,
      "##ܘ": 1583,
      "##ܬ": 1584,
      "##ż": 1585,
      "##ា": 1586,
      "##이": 1587,
      "##神": 1588,
      "##語": 1589,
      "##զ": 1590,
      "##田": 1591,
      "##河": 1592,
      "##ல": 1593,
      "##→": 1594,
      "##±": 1595,
      "##ψ": 1596,
      "##상": 1597,
      "##日": 1598,
      "##子": 1599,
      "##村": 1600,
      "##श": 1601,
      "##व": 1602,
      "##ϊ": 1603,
      "##ħ": 1604,
      "##ư": 1605,
      "##カ": 1606,
      "##ұ": 1607,
      "##ĥ": 1608,
      "##미": 1609,
      "##ḡ": 1610,
      "##法": 1611,
      "##朝": 1612,
      "##ہ": 1613,
      "##ў": 1614,
      "##テ": 1615,
      "##門": 1616,
      "##에": 1617,
      "##오": 1618,
      "##공": 1619,
      "##일": 1620,
      "##金": 1621,
      "##太": 1622,
      "##郎": 1623,
      "##ņ": 1624,
      "##人": 1625,
      "##合": 1626,
      "##代": 1627,
      "##家": 1628,
      "##세": 1629,
      "##̗": 1630,
      "##є": 1631,
      "##ľ": 1632,
      "##區": 1633,
      "##な": 1634,
      "##ʃ": 1635,
      "##წ": 1636,
      "##い": 1637,
      "##塔": 1638,
      "##ظ": 1639,
      "##ӱ": 1640,
      "##지": 1641,
      "##ň": 1642,
      "##木": 1643,
      "##國": 1644,
      "##র": 1645,
      "##ố": 1646,
      "##ナ": 1647,
      "##斯": 1648,
      "##ȟ": 1649,
      "##ɣ": 1650,
      "##ῆ": 1651,
      "##古": 1652,
      "##民": 1653,
      "##寺": 1654,
      "##ṯ": 1655,
      "##り": 1656,
      "##ۇ": 1657,
      "##ḵ": 1658,
      "##재": 1659,
      "##マ": 1660,
      "##モ": 1661,
      "##ế": 1662,
      "##湖": 1663,
      "##华": 1664,
      "##沙": 1665,
      "##ั": 1666,
      "##ง": 1667,
      "##空": 1668,
      "##勒": 1669,
      "##長": 1670,
      "##ǫ": 1671,
      "##五": 1672,
      "##年": 1673,
      "##さ": 1674,
      "##̆": 1675,
      "##ס": 1676,
      "##た": 1677,
      "##්": 1678,
      "##グ": 1679,
      "##元": 1680,
      "##ᑦ": 1681,
      "##ま": 1682,
      "##პ": 1683,
      "##ィ": 1684,
      "##士": 1685,
      "##ር": 1686,
      "##ⵏ": 1687,
      "##ז": 1688,
      "##ી": 1689,
      "##제": 1690,
      "##西": 1691,
      "##府": 1692,
      "##韓": 1693,
      "##皇": 1694,
      "##女": 1695,
      "##市": 1696,
      "##ḳ": 1697,
      "##°": 1698,
      "##松": 1699,
      "##ƣ": 1700,
      "##き": 1701,
      "##院": 1702,
      "##義": 1703,
      "##居": 1704,
      "##ิ": 1705,
      "##փ": 1706,
      "##安": 1707,
      "##月": 1708,
      "##화": 1709,
      "##유": 1710,
      "##ҳ": 1711,
      "##自": 1712,
      "##治": 1713,
      "##城": 1714,
      "##文": 1715,
      "##江": 1716,
      "##新": 1717,
      "##ɑ": 1718,
      "##八": 1719,
      "##十": 1720,
      "##九": 1721,
      "##里": 1722,
      "##ť": 1723,
      "##シ": 1724,
      "##記": 1725,
      "##か": 1726,
      "##ら": 1727,
      "##と": 1728,
      "##も": 1729,
      "##あ": 1730,
      "##て": 1731,
      "##镇": 1732,
      "##正": 1733,
      "##ズ": 1734,
      "##武": 1735,
      "##ロ": 1736,
      "##아": 1737,
      "##に": 1738,
      "##ʕ": 1739,
      "##方": 1740,
      "##草": 1741,
      "##ầ": 1742,
      "##্": 1743,
      "##া": 1744,
      "##レ": 1745,
      "##南": 1746,
      "##小": 1747,
      "##黄": 1748,
      "##ܢ": 1749,
      "##ؤ": 1750,
      "##˥": 1751,
      "##ন": 1752,
      "##ব": 1753,
      "##兵": 1754,
      "##ḷ": 1755,
      "##ѣ": 1756,
      "##ት": 1757,
      "##華": 1758,
      "##第": 1759,
      "##二": 1760,
      "##¬": 1761,
      "##ʉ": 1762,
      "##ા": 1763,
      "##̧": 1764,
      "##나": 1765,
      "##ŝ": 1766,
      "##√": 1767,
      "##ɡ": 1768,
      "##정": 1769,
      "##建": 1770,
      "##ֶ": 1771,
      "##ծ": 1772,
      "##ブ": 1773,
      "##平": 1774,
      "##ÿ": 1775,
      "##်": 1776,
      "##ĕ": 1777,
      "##學": 1778,
      "##ብ": 1779,
      "##ி": 1780,
      "##行": 1781,
      "##ོ": 1782,
      "##़": 1783,
      "##⊕": 1784,
      "##ệ": 1785,
      "##吉": 1786,
      "##խ": 1787,
      "##ん": 1788,
      "##ต": 1789,
      "##น": 1790,
      "##ว": 1791,
      "##疆": 1792,
      "##љ": 1793,
      "##区": 1794,
      "##구": 1795,
      "##∞": 1796,
      "##ம": 1797,
      "##教": 1798,
      "##メ": 1799,
      "##ક": 1800,
      "##ก": 1801,
      "##∧": 1802,
      "##生": 1803,
      "##ự": 1804,
      "##조": 1805,
      "##政": 1806,
      "##ồ": 1807,
      "##ล": 1808,
      "##ุ": 1809,
      "##್": 1810,
      "##師": 1811,
      "##う": 1812,
      "##﻿": 1813,
      "##ப": 1814,
      "##ῶ": 1815,
      "##도": 1816,
      "##ḍ": 1817,
      "##ǧ": 1818,
      "##ර": 1819,
      "##ễ": 1820,
      "##デ": 1821,
      "##ậ": 1822,
      "##ץ": 1823,
      "##ʊ": 1824,
      "##ạ": 1825,
      "##世": 1826,
      "##清": 1827,
      "##共": 1828,
      "##ม": 1829,
      "##宗": 1830,
      "##ģ": 1831,
      "##立": 1832,
      "##ស": 1833,
      "##ក": 1834,
      "##ᐊ": 1835,
      "##प": 1836,
      "##ὶ": 1837,
      "##ṫ": 1838,
      "##☉": 1839,
      "##ܕ": 1840,
      "##陸": 1841,
      "##校": 1842,
      "##‬": 1843,
      "##어": 1844,
      "##組": 1845,
      "##石": 1846,
      "##현": 1847,
      "##四": 1848,
      "##プ": 1849,
      "##랑": 1850,
      "##ি": 1851,
      "##원": 1852,
      "##馬": 1853,
      "##ं": 1854,
      "##漢": 1855,
      "##乡": 1856,
      "##ۍ": 1857,
      "##อ": 1858,
      "##徳": 1859,
      "##主": 1860,
      "##ũ": 1861,
      "##է": 1862,
      "##€": 1863,
      "##̡": 1864,
      "##事": 1865,
      "##무": 1866,
      "##ᐃ": 1867,
      "##≤": 1868,
      "##¥": 1869,
      "##ĩ": 1870,
      "##鳥": 1871,
      "##真": 1872,
      "##ន": 1873,
      "##ĉ": 1874,
      "##京": 1875,
      "##고": 1876,
      "##ἱ": 1877,
      "##ķ": 1878,
      "##虚": 1879,
      "##通": 1880,
      "##서": 1881,
      "##∆": 1882,
      "##↑": 1883,
      "##←": 1884,
      "##オ": 1885,
      "##回": 1886,
      "##보": 1887,
      "##上": 1888,
      "##阿": 1889,
      "##烏": 1890,
      "##≈": 1891,
      "##≥": 1892,
      "##여": 1893,
      "##ọ": 1894,
      "##伊": 1895,
      "##ส": 1896,
      "##∈": 1897,
      "##̨": 1898,
      "##後": 1899,
      "##박": 1900,
      "##↔": 1901,
      "##최": 1902,
      "##ď": 1903,
      "##⊙": 1904,
      "##玉": 1905,
      "##ὀ": 1906,
      "##ỉ": 1907,
      "##¢": 1908,
      "##ᐅ": 1909,
      "##አ": 1910,
      "##£": 1911,
      "##그": 1912,
      "##ƒ": 1913,
      "##ژ": 1914,
      "##拟": 1915,
      "##ʙ": 1916,
      "##̊": 1917,
      "##李": 1918,
      "##└": 1919,
      "##ar": 1920,
      "##an": 1921,
      "##er": 1922,
      "##in": 1923,
      "##ın": 1924,
      "##ir": 1925,
      "##en": 1926,
      "##lar": 1927,
      "##ak": 1928,
      "##il": 1929,
      "##le": 1930,
      "##da": 1931,
      "##al": 1932,
      "ve": 1933,
      "##de": 1934,
      "##as": 1935,
      "##on": 1936,
      "##ler": 1937,
      "##un": 1938,
      "##ır": 1939,
      "##la": 1940,
      "bir": 1941,
      "##ek": 1942,
      "##es": 1943,
      "##li": 1944,
      "##ıl": 1945,
      "##ay": 1946,
      "##at": 1947,
      "##et": 1948,
      "##ur": 1949,
      "##lan": 1950,
      "##is": 1951,
      "##şt": 1952,
      "##el": 1953,
      "##am": 1954,
      "##iy": 1955,
      "##or": 1956,
      "##ik": 1957,
      "##ul": 1958,
      "##dı": 1959,
      "de": 1960,
      "##ında": 1961,
      "ya": 1962,
      "##ün": 1963,
      "da": 1964,
      "##ür": 1965,
      "##lı": 1966,
      "##im": 1967,
      "##em": 1968,
      "ba": 1969,
      "##di": 1970,
      "##dan": 1971,
      "ol": 1972,
      "##it": 1973,
      "##inde": 1974,
      "##ya": 1975,
      "##ma": 1976,
      "##ol": 1977,
      "##ra": 1978,
      "##den": 1979,
      "##ey": 1980,
      "i̇": 1981,
      "##us": 1982,
      "ka": 1983,
      "##dır": 1984,
      "gö": 1985,
      "al": 1986,
      "##ine": 1987,
      "bu": 1988,
      "##ta": 1989,
      "##dir": 1990,
      "##ları": 1991,
      "##ış": 1992,
      "##ası": 1993,
      "##ık": 1994,
      "##du": 1995,
      "##iz": 1996,
      "yıl": 1997,
      "tar": 1998,
      "an": 1999,
      "##ların": 2000,
      "sa": 2001,
      "##te": 2002,
      "##ım": 2003,
      "##larak": 2004,
      "##mi": 2005,
      "##ük": 2006,
      "iç": 2007,
      "##ti": 2008,
      "ar": 2009,
      "son": 2010,
      "##leri": 2011,
      "olarak": 2012,
      "##ini": 2013,
      "##esi": 2014,
      "baş": 2015,
      "kar": 2016,
      "##üm": 2017,
      "yap": 2018,
      "##ğı": 2019,
      "ile": 2020,
      "##ki": 2021,
      "##st": 2022,
      "##um": 2023,
      "il": 2024,
      "##ok": 2025,
      "##ği": 2026,
      "in": 2027,
      "##re": 2028,
      "##inin": 2029,
      "##ından": 2030,
      "##ez": 2031,
      "##ıs": 2032,
      "##üz": 2033,
      "##ştir": 2034,
      "##lik": 2035,
      "##ce": 2036,
      "##mak": 2037,
      "##oğ": 2038,
      "##om": 2039,
      "ay": 2040,
      "##af": 2041,
      "##ştır": 2042,
      "##ön": 2043,
      "##ül": 2044,
      "##os": 2045,
      "et": 2046,
      "##ca": 2047,
      "##iler": 2048,
      "##az": 2049,
      "##mı": 2050,
      "için": 2051,
      "##ını": 2052,
      "##ut": 2053,
      "ma": 2054,
      "yer": 2055,
      "##me": 2056,
      "ge": 2057,
      "or": 2058,
      "##ına": 2059,
      "##ist": 2060,
      "en": 2061,
      "##ha": 2062,
      "olan": 2063,
      "##op": 2064,
      "##lu": 2065,
      "##mek": 2066,
      "##aki": 2067,
      "##ab": 2068,
      "##ih": 2069,
      "bul": 2070,
      "##man": 2071,
      "te": 2072,
      "is": 2073,
      "oldu": 2074,
      "##tı": 2075,
      "tür": 2076,
      "##iş": 2077,
      "##len": 2078,
      "taraf": 2079,
      "ed": 2080,
      "##aş": 2081,
      "ön": 2082,
      "##mıştır": 2083,
      "##ro": 2084,
      "kur": 2085,
      "##ru": 2086,
      "##eri": 2087,
      "kul": 2088,
      "##aya": 2089,
      "yılında": 2090,
      "bö": 2091,
      "kon": 2092,
      "##ark": 2093,
      "##asında": 2094,
      "##uş": 2095,
      "tarafından": 2096,
      "bulun": 2097,
      "ver": 2098,
      "##ev": 2099,
      "sonra": 2100,
      "##isi": 2101,
      "##yon": 2102,
      "bil": 2103,
      "##ız": 2104,
      "tarih": 2105,
      "##cak": 2106,
      "##ib": 2107,
      "##ip": 2108,
      "##miştir": 2109,
      "oy": 2110,
      "ne": 2111,
      "##iye": 2112,
      "##üy": 2113,
      "##lık": 2114,
      "##ci": 2115,
      "##ans": 2116,
      "##tadır": 2117,
      "##ması": 2118,
      "##zer": 2119,
      "##cu": 2120,
      "##alı": 2121,
      "##ının": 2122,
      "##ğu": 2123,
      "##yla": 2124,
      "daha": 2125,
      "böl": 2126,
      "yar": 2127,
      "göre": 2128,
      "##ah": 2129,
      "gen": 2130,
      "##dar": 2131,
      "##ap": 2132,
      "##let": 2133,
      "##bil": 2134,
      "gün": 2135,
      "##lerin": 2136,
      "##eh": 2137,
      "türk": 2138,
      "kullan": 2139,
      "##cı": 2140,
      "##eş": 2141,
      "##ör": 2142,
      "nin": 2143,
      "##anı": 2144,
      "par": 2145,
      "dev": 2146,
      "##uşt": 2147,
      "se": 2148,
      "##ic": 2149,
      "nın": 2150,
      "##ken": 2151,
      "##uz": 2152,
      "bağ": 2153,
      "sür": 2154,
      "ilk": 2155,
      "dön": 2156,
      "kö": 2157,
      "edil": 2158,
      "##üş": 2159,
      "##unda": 2160,
      "doğ": 2161,
      "##tan": 2162,
      "##eni": 2163,
      "büy": 2164,
      "##lay": 2165,
      "##daki": 2166,
      "ken": 2167,
      "ın": 2168,
      "den": 2169,
      "gel": 2170,
      "##uk": 2171,
      "geç": 2172,
      "##ers": 2173,
      "##ed": 2174,
      "es": 2175,
      "kal": 2176,
      "çık": 2177,
      "##laş": 2178,
      "##uştur": 2179,
      "ad": 2180,
      "##unu": 2181,
      "yön": 2182,
      "yaz": 2183,
      "yaş": 2184,
      "ak": 2185,
      "##maktadır": 2186,
      "tak": 2187,
      "tek": 2188,
      "ger": 2189,
      "yay": 2190,
      "üzer": 2191,
      "on": 2192,
      "top": 2193,
      "öz": 2194,
      "kat": 2195,
      "##mekte": 2196,
      "##ov": 2197,
      "##lam": 2198,
      "##ot": 2199,
      "##ılan": 2200,
      "kay": 2201,
      "##ibi": 2202,
      "as": 2203,
      "büyük": 2204,
      "##iv": 2205,
      "er": 2206,
      "gör": 2207,
      "##ilm": 2208,
      "un": 2209,
      "##oy": 2210,
      "##ge": 2211,
      "sah": 2212,
      "aç": 2213,
      "##iyle": 2214,
      "##miş": 2215,
      "ise": 2216,
      "uz": 2217,
      "am": 2218,
      "alan": 2219,
      "##ili": 2220,
      "##ladı": 2221,
      "##ig": 2222,
      "##ğer": 2223,
      "##mektedir": 2224,
      "##id": 2225,
      "ayr": 2226,
      "##ka": 2227,
      "ara": 2228,
      "pro": 2229,
      "##ter": 2230,
      "##mış": 2231,
      "sav": 2232,
      "çok": 2233,
      "ek": 2234,
      "##aman": 2235,
      "karş": 2236,
      "sır": 2237,
      "##ıldı": 2238,
      "gibi": 2239,
      "hal": 2240,
      "iş": 2241,
      "##av": 2242,
      "olm": 2243,
      "##ilen": 2244,
      "öl": 2245,
      "##erk": 2246,
      "##men": 2247,
      "##leş": 2248,
      "bel": 2249,
      "##inden": 2250,
      "##ec": 2251,
      "##esine": 2252,
      "çal": 2253,
      "##if": 2254,
      "mil": 2255,
      "say": 2256,
      "tan": 2257,
      "##larında": 2258,
      "##tr": 2259,
      "##sel": 2260,
      "##ret": 2261,
      "şeh": 2262,
      "##unun": 2263,
      "##arı": 2264,
      "tem": 2265,
      "yak": 2266,
      "takım": 2267,
      "##ısı": 2268,
      "##ch": 2269,
      "arasında": 2270,
      "var": 2271,
      "yeni": 2272,
      "di": 2273,
      "##eye": 2274,
      "##dür": 2275,
      "av": 2276,
      "san": 2277,
      "mar": 2278,
      "##dü": 2279,
      "##up": 2280,
      "##lü": 2281,
      "##çe": 2282,
      "##iyet": 2283,
      "##ad": 2284,
      "sö": 2285,
      "kadar": 2286,
      "ün": 2287,
      "ev": 2288,
      "kaz": 2289,
      "##lk": 2290,
      "zaman": 2291,
      "mü": 2292,
      "i̇s": 2293,
      "##rup": 2294,
      "çalış": 2295,
      "at": 2296,
      "##usu": 2297,
      "dün": 2298,
      "yüz": 2299,
      "##esinde": 2300,
      "##larda": 2301,
      "##he": 2302,
      "har": 2303,
      "uy": 2304,
      "yük": 2305,
      "##si": 2306,
      "##kin": 2307,
      "##liği": 2308,
      "##ildi": 2309,
      "##bul": 2310,
      "veya": 2311,
      "##ster": 2312,
      "her": 2313,
      "iki": 2314,
      "##ılı": 2315,
      "##ika": 2316,
      "alt": 2317,
      "ağ": 2318,
      "##ri": 2319,
      "şark": 2320,
      "##üt": 2321,
      "be": 2322,
      "##larını": 2323,
      "oyun": 2324,
      "özel": 2325,
      "dönem": 2326,
      "##lara": 2327,
      "##iyon": 2328,
      "##ran": 2329,
      "##mas": 2330,
      "merk": 2331,
      "##est": 2332,
      "##dığı": 2333,
      "genel": 2334,
      "el": 2335,
      "##ing": 2336,
      "merkez": 2337,
      "i̇n": 2338,
      "görev": 2339,
      "köy": 2340,
      "kom": 2341,
      "##dur": 2342,
      "ele": 2343,
      "##der": 2344,
      "gir": 2345,
      "##ub": 2346,
      "##ada": 2347,
      "ayn": 2348,
      "kr": 2349,
      "karşı": 2350,
      "film": 2351,
      "##eler": 2352,
      "##zı": 2353,
      "ko": 2354,
      "##bol": 2355,
      "birlik": 2356,
      "savaş": 2357,
      "yönet": 2358,
      "##anlı": 2359,
      "hay": 2360,
      "bağlı": 2361,
      "##imi": 2362,
      "##ça": 2363,
      "##uy": 2364,
      "gü": 2365,
      "##raf": 2366,
      "##gu": 2367,
      "ort": 2368,
      "##uv": 2369,
      "düz": 2370,
      "der": 2371,
      "diğer": 2372,
      "kap": 2373,
      "##asyon": 2374,
      "alb": 2375,
      "##ley": 2376,
      "sağ": 2377,
      "adı": 2378,
      "##bilir": 2379,
      "göster": 2380,
      "seç": 2381,
      "##arak": 2382,
      "düş": 2383,
      "##ayan": 2384,
      "##atı": 2385,
      "ser": 2386,
      "şek": 2387,
      "##tir": 2388,
      "ancak": 2389,
      "##gi": 2390,
      "##lerini": 2391,
      "ayrı": 2392,
      "##ne": 2393,
      "##lem": 2394,
      "##ünde": 2395,
      "##lama": 2396,
      "sez": 2397,
      "mo": 2398,
      "##olo": 2399,
      "##na": 2400,
      "ada": 2401,
      "dur": 2402,
      "##met": 2403,
      "##ren": 2404,
      "##larının": 2405,
      "nü": 2406,
      "kiş": 2407,
      "##una": 2408,
      "aynı": 2409,
      "##fa": 2410,
      "##ayı": 2411,
      "olduğu": 2412,
      "##rans": 2413,
      "##çek": 2414,
      "ab": 2415,
      "##ğini": 2416,
      "##amp": 2417,
      "##ındaki": 2418,
      "sahip": 2419,
      "dan": 2420,
      "##alık": 2421,
      "##por": 2422,
      "tarihinde": 2423,
      "kazan": 2424,
      "kurul": 2425,
      "##eli": 2426,
      "müz": 2427,
      "##diği": 2428,
      "amer": 2429,
      "üç": 2430,
      "sezon": 2431,
      "ilç": 2432,
      "ok": 2433,
      "st": 2434,
      "##lerinde": 2435,
      "for": 2436,
      "kan": 2437,
      "##ram": 2438,
      "km": 2439,
      "##gil": 2440,
      "po": 2441,
      "mah": 2442,
      "türkiye": 2443,
      "##ağ": 2444,
      "##istan": 2445,
      "kıs": 2446,
      "##üs": 2447,
      "##maya": 2448,
      "##larına": 2449,
      "hak": 2450,
      "##han": 2451,
      "yan": 2452,
      "nüf": 2453,
      "nde": 2454,
      "yayın": 2455,
      "etti": 2456,
      "##erek": 2457,
      "albüm": 2458,
      "kor": 2459,
      "tam": 2460,
      "##san": 2461,
      "do": 2462,
      "maç": 2463,
      "haz": 2464,
      "geli": 2465,
      "çek": 2466,
      "dünya": 2467,
      "bas": 2468,
      "deği": 2469,
      "##ğını": 2470,
      "bak": 2471,
      "##ara": 2472,
      "bulunan": 2473,
      "neden": 2474,
      "ta": 2475,
      "##tır": 2476,
      "##se": 2477,
      "ro": 2478,
      "birlikte": 2479,
      "şarkı": 2480,
      "su": 2481,
      "belir": 2482,
      "##mesi": 2483,
      "devlet": 2484,
      "mu": 2485,
      "the": 2486,
      "yol": 2487,
      "##yan": 2488,
      "kend": 2489,
      "##ivers": 2490,
      "önem": 2491,
      "bo": 2492,
      "##ede": 2493,
      "##ştı": 2494,
      "yaptı": 2495,
      "##iç": 2496,
      "eski": 2497,
      "boy": 2498,
      "##stan": 2499,
      "öğ": 2500,
      "##lus": 2501,
      "eğ": 2502,
      "sonu": 2503,
      "##lerde": 2504,
      "ülk": 2505,
      "bölüm": 2506,
      "gerçek": 2507,
      "başk": 2508,
      "##ten": 2509,
      "##sa": 2510,
      "##lerinin": 2511,
      "ör": 2512,
      "ayrıca": 2513,
      "##likle": 2514,
      "sal": 2515,
      "aş": 2516,
      "##iversit": 2517,
      "önce": 2518,
      "taş": 2519,
      "##tik": 2520,
      "ama": 2521,
      "bur": 2522,
      "##cü": 2523,
      "met": 2524,
      "tur": 2525,
      "üniversit": 2526,
      "açık": 2527,
      "##mp": 2528,
      "yüks": 2529,
      "ye": 2530,
      "##oloj": 2531,
      "alman": 2532,
      "fut": 2533,
      "kad": 2534,
      "ch": 2535,
      "lig": 2536,
      "##enin": 2537,
      "##ılır": 2538,
      "az": 2539,
      "aldı": 2540,
      "bölg": 2541,
      "##ust": 2542,
      "##ama": 2543,
      "başladı": 2544,
      "##üp": 2545,
      "gelen": 2546,
      "##eti": 2547,
      "os": 2548,
      "dış": 2549,
      "oluş": 2550,
      "##dül": 2551,
      "##ımı": 2552,
      "i̇ngil": 2553,
      "ulus": 2554,
      "olduğ": 2555,
      "##ck": 2556,
      "yüksek": 2557,
      "##yle": 2558,
      "fark": 2559,
      "##istem": 2560,
      "hem": 2561,
      "##eyi": 2562,
      "##ep": 2563,
      "man": 2564,
      "##eb": 2565,
      "kuz": 2566,
      "##og": 2567,
      "dir": 2568,
      "futbol": 2569,
      "nda": 2570,
      "ben": 2571,
      "##ile": 2572,
      "sistem": 2573,
      "önemli": 2574,
      "üret": 2575,
      "##ordu": 2576,
      "##ba": 2577,
      "adlı": 2578,
      "##lardan": 2579,
      "##eki": 2580,
      "##ilmiştir": 2581,
      "##lerinden": 2582,
      "##ünü": 2583,
      "bazı": 2584,
      "tüm": 2585,
      "söz": 2586,
      "##tal": 2587,
      "res": 2588,
      "##luk": 2589,
      "düzen": 2590,
      "bilin": 2591,
      "##lere": 2592,
      "##ilir": 2593,
      "fak": 2594,
      "##ileri": 2595,
      "kit": 2596,
      "şekil": 2597,
      "##leştir": 2598,
      "üy": 2599,
      "diz": 2600,
      "ilçesine": 2601,
      "has": 2602,
      "etk": 2603,
      "içer": 2604,
      "##iyat": 2605,
      "frans": 2606,
      "##stanbul": 2607,
      "##ılmıştır": 2608,
      "##hur": 2609,
      "##lat": 2610,
      "fin": 2611,
      "i̇stanbul": 2612,
      "re": 2613,
      "##larından": 2614,
      "şehir": 2615,
      "##lerine": 2616,
      "##fer": 2617,
      "##ıy": 2618,
      "içinde": 2619,
      "##yi": 2620,
      "##tür": 2621,
      "##landı": 2622,
      "rus": 2623,
      "kuzey": 2624,
      "##iyas": 2625,
      "güney": 2626,
      "##rak": 2627,
      "gerek": 2628,
      "avrup": 2629,
      "kü": 2630,
      "yapılan": 2631,
      "ödül": 2632,
      "ey": 2633,
      "##üşt": 2634,
      "##kinci": 2635,
      "sanat": 2636,
      "##liğ": 2637,
      "##lanan": 2638,
      "oluştur": 2639,
      "grup": 2640,
      "sen": 2641,
      "##landır": 2642,
      "eğit": 2643,
      "nun": 2644,
      "##mes": 2645,
      "hav": 2646,
      "birç": 2647,
      "##ıt": 2648,
      "cum": 2649,
      "ço": 2650,
      "kız": 2651,
      "ot": 2652,
      "may": 2653,
      "##les": 2654,
      "na": 2655,
      "eş": 2656,
      "##van": 2657,
      "##led": 2658,
      "biri": 2659,
      "bölge": 2660,
      "şamp": 2661,
      "gru": 2662,
      "ha": 2663,
      "ter": 2664,
      "yarış": 2665,
      "üst": 2666,
      "ask": 2667,
      "mart": 2668,
      "şampiyon": 2669,
      "avrupa": 2670,
      "ist": 2671,
      "##ilik": 2672,
      "çeş": 2673,
      "orta": 2674,
      "get": 2675,
      "kariy": 2676,
      "birçok": 2677,
      "gaz": 2678,
      "tamam": 2679,
      "osman": 2680,
      "çev": 2681,
      "gal": 2682,
      "cumhur": 2683,
      "daki": 2684,
      "değiş": 2685,
      "##bir": 2686,
      "mahal": 2687,
      "bit": 2688,
      "olmuştur": 2689,
      "çocu": 2690,
      "kral": 2691,
      "durum": 2692,
      "çıkar": 2693,
      "##lek": 2694,
      "oyn": 2695,
      "##lığı": 2696,
      "ola": 2697,
      "faz": 2698,
      "##tib": 2699,
      "##çi": 2700,
      "##lendir": 2701,
      "halk": 2702,
      "ber": 2703,
      "uzak": 2704,
      "getir": 2705,
      "çalışma": 2706,
      "bar": 2707,
      "birleş": 2708,
      "şekilde": 2709,
      "yaşam": 2710,
      "hük": 2711,
      "muh": 2712,
      "üzerinde": 2713,
      "süre": 2714,
      "sat": 2715,
      "devam": 2716,
      "##leme": 2717,
      "##ide": 2718,
      "##arat": 2719,
      "vardır": 2720,
      "uzun": 2721,
      "üzerine": 2722,
      "##tar": 2723,
      "fil": 2724,
      "##od": 2725,
      "harek": 2726,
      "bun": 2727,
      "##gan": 2728,
      "##ia": 2729,
      "grub": 2730,
      "##tör": 2731,
      "##ılık": 2732,
      "##oğraf": 2733,
      "##sız": 2734,
      "göz": 2735,
      "sor": 2736,
      "##muştur": 2737,
      "küç": 2738,
      "itib": 2739,
      "sonr": 2740,
      "yet": 2741,
      "##meye": 2742,
      "hat": 2743,
      "ard": 2744,
      "##mir": 2745,
      "olduğunu": 2746,
      "bin": 2747,
      "üniversitesi": 2748,
      "çeşit": 2749,
      "iz": 2750,
      "üzere": 2751,
      "le": 2752,
      "##ket": 2753,
      "insan": 2754,
      "ik": 2755,
      "mal": 2756,
      "##asına": 2757,
      "##üne": 2758,
      "sin": 2759,
      "##isinde": 2760,
      "kez": 2761,
      "##ent": 2762,
      "##vet": 2763,
      "##ınır": 2764,
      "amerik": 2765,
      "han": 2766,
      "kır": 2767,
      "tut": 2768,
      "##for": 2769,
      "olmak": 2770,
      "yüzy": 2771,
      "dil": 2772,
      "art": 2773,
      "kabul": 2774,
      "##olu": 2775,
      "küçük": 2776,
      "##iya": 2777,
      "##ulu": 2778,
      "tekn": 2779,
      "ili": 2780,
      "##ow": 2781,
      "abd": 2782,
      "yaklaş": 2783,
      "lis": 2784,
      "nis": 2785,
      "of": 2786,
      "müzik": 2787,
      "yardı": 2788,
      "deniz": 2789,
      "i̇ngiliz": 2790,
      "uygu": 2791,
      "##şk": 2792,
      "başar": 2793,
      "##yet": 2794,
      "kası": 2795,
      "ardından": 2796,
      "ocak": 2797,
      "##ard": 2798,
      "çoğ": 2799,
      "##ber": 2800,
      "##ecek": 2801,
      "mayıs": 2802,
      "nüfus": 2803,
      "osmanlı": 2804,
      "##alan": 2805,
      "##lis": 2806,
      "##siyon": 2807,
      "güç": 2808,
      "dör": 2809,
      "mak": 2810,
      "kadın": 2811,
      "şir": 2812,
      "ilg": 2813,
      "değ": 2814,
      "farklı": 2815,
      "##ıla": 2816,
      "##layan": 2817,
      "fazla": 2818,
      "##luğu": 2819,
      "##det": 2820,
      "##iran": 2821,
      "yüzyıl": 2822,
      "ikinci": 2823,
      "oyuncu": 2824,
      "##ılmış": 2825,
      "kendi": 2826,
      "im": 2827,
      "doğru": 2828,
      "tah": 2829,
      "##arator": 2830,
      "##ve": 2831,
      "##lül": 2832,
      "##mparator": 2833,
      "##esinin": 2834,
      "##okt": 2835,
      "isim": 2836,
      "kasım": 2837,
      "şehr": 2838,
      "##ga": 2839,
      "##ğü": 2840,
      "bunun": 2841,
      "##ıp": 2842,
      "eden": 2843,
      "öğren": 2844,
      "aralık": 2845,
      "eğitim": 2846,
      "beled": 2847,
      "##asar": 2848,
      "##nak": 2849,
      "i̇lk": 2850,
      "rom": 2851,
      "ilinin": 2852,
      "##üştür": 2853,
      "##aret": 2854,
      "sev": 2855,
      "mez": 2856,
      "hakk": 2857,
      "##muz": 2858,
      "alın": 2859,
      "##duğu": 2860,
      "sı": 2861,
      "##yal": 2862,
      "per": 2863,
      "şub": 2864,
      "##las": 2865,
      "ii": 2866,
      "ekim": 2867,
      "sar": 2868,
      "mahalle": 2869,
      "eylül": 2870,
      "tab": 2871,
      "##ton": 2872,
      "yen": 2873,
      "yakın": 2874,
      "##şti": 2875,
      "##ece": 2876,
      "geçir": 2877,
      "haziran": 2878,
      "siyas": 2879,
      "kül": 2880,
      "tes": 2881,
      "##larla": 2882,
      "rol": 2883,
      "##sal": 2884,
      "nisan": 2885,
      "##hil": 2886,
      "bab": 2887,
      "##daş": 2888,
      "##oz": 2889,
      "pr": 2890,
      "##bi": 2891,
      "temmuz": 2892,
      "bilim": 2893,
      "##ustos": 2894,
      "##arası": 2895,
      "iyi": 2896,
      "##anlığı": 2897,
      "ağustos": 2898,
      "yardım": 2899,
      "la": 2900,
      "af": 2901,
      "kes": 2902,
      "##lerden": 2903,
      "yas": 2904,
      "çocuk": 2905,
      "olup": 2906,
      "geri": 2907,
      "##dece": 2908,
      "çeşitli": 2909,
      "dağ": 2910,
      "##ünün": 2911,
      "bey": 2912,
      "##aber": 2913,
      "kil": 2914,
      "cumhuriyet": 2915,
      "##deki": 2916,
      "sınır": 2917,
      "##çı": 2918,
      "zor": 2919,
      "part": 2920,
      "ölüm": 2921,
      "##gram": 2922,
      "##ali": 2923,
      "kuru": 2924,
      "mek": 2925,
      "##lo": 2926,
      "düşün": 2927,
      "##sil": 2928,
      "amerika": 2929,
      "##unca": 2930,
      "eser": 2931,
      "merkezi": 2932,
      "savaşı": 2933,
      "##rar": 2934,
      "##lev": 2935,
      "##ort": 2936,
      "##atik": 2937,
      "kişi": 2938,
      "coğraf": 2939,
      "kuv": 2940,
      "sırasında": 2941,
      "##ısında": 2942,
      "kısa": 2943,
      "##ant": 2944,
      "kaynak": 2945,
      "dav": 2946,
      "##ion": 2947,
      "bulunmaktadır": 2948,
      "beş": 2949,
      "##ilerin": 2950,
      "##dik": 2951,
      "bilg": 2952,
      "br": 2953,
      "eya": 2954,
      "##elen": 2955,
      "duy": 2956,
      "ortaya": 2957,
      "yılları": 2958,
      "##ade": 2959,
      "##ağı": 2960,
      "##fes": 2961,
      "sadece": 2962,
      "karak": 2963,
      "olma": 2964,
      "sil": 2965,
      "sp": 2966,
      "form": 2967,
      "##ğin": 2968,
      "araştır": 2969,
      "##dy": 2970,
      "hayat": 2971,
      "##emi": 2972,
      "karar": 2973,
      "geliş": 2974,
      "şubat": 2975,
      "hiz": 2976,
      "##unan": 2977,
      "##tü": 2978,
      "mill": 2979,
      "birleşik": 2980,
      "geliştir": 2981,
      "görül": 2982,
      "program": 2983,
      "##ven": 2984,
      "hareket": 2985,
      "##can": 2986,
      "nüfusu": 2987,
      "mes": 2988,
      "##muş": 2989,
      "##onya": 2990,
      "ses": 2991,
      "dest": 2992,
      "##siz": 2993,
      "##art": 2994,
      "fa": 2995,
      "yaklaşık": 2996,
      "ede": 2997,
      "sos": 2998,
      "em": 2999,
      "doğu": 3000,
      "kültür": 3001,
      "topl": 3002,
      "##ğında": 3003,
      "görün": 3004,
      "co": 3005,
      "##ht": 3006,
      "eder": 3007,
      "genç": 3008,
      "sayı": 3009,
      "mev": 3010,
      "##layı": 3011,
      "##ud": 3012,
      "plan": 3013,
      "i̇tal": 3014,
      "##lenen": 3015,
      "saldır": 3016,
      "##ümüz": 3017,
      "millî": 3018,
      "##indeki": 3019,
      "hız": 3020,
      "git": 3021,
      "boyunca": 3022,
      "so": 3023,
      "erk": 3024,
      "yılı": 3025,
      "mad": 3026,
      "##ast": 3027,
      "##sı": 3028,
      "gol": 3029,
      "yeniden": 3030,
      "##onom": 3031,
      "fakat": 3032,
      "##lararası": 3033,
      "seçim": 3034,
      "hizmet": 3035,
      "##inci": 3036,
      "##ilmiş": 3037,
      "değer": 3038,
      "önc": 3039,
      "can": 3040,
      "yerleş": 3041,
      "gön": 3042,
      "##müştür": 3043,
      "zamanda": 3044,
      "##lardır": 3045,
      "##ros": 3046,
      "kup": 3047,
      "##masına": 3048,
      "nedeniyle": 3049,
      "jo": 3050,
      "haf": 3051,
      "arka": 3052,
      "##lak": 3053,
      "##asının": 3054,
      "final": 3055,
      "çö": 3056,
      "##lin": 3057,
      "##üb": 3058,
      "##masını": 3059,
      "sh": 3060,
      "##tif": 3061,
      "kim": 3062,
      "##eg": 3063,
      "tanım": 3064,
      "##asındaki": 3065,
      "##ılması": 3066,
      "##esini": 3067,
      "##eleri": 3068,
      "günümüz": 3069,
      "##şa": 3070,
      "##lerle": 3071,
      "anlam": 3072,
      "##anın": 3073,
      "##üncü": 3074,
      "ana": 3075,
      "uzaklık": 3076,
      "tarihi": 3077,
      "destek": 3078,
      "##lük": 3079,
      "##iyor": 3080,
      "##pan": 3081,
      "yayım": 3082,
      "ren": 3083,
      "geniş": 3084,
      "##son": 3085,
      "kuvvet": 3086,
      "elek": 3087,
      "##ina": 3088,
      "yor": 3089,
      "uluslararası": 3090,
      "asker": 3091,
      "toplam": 3092,
      "##gı": 3093,
      "##ırak": 3094,
      "##ly": 3095,
      "din": 3096,
      "edildi": 3097,
      "dört": 3098,
      "ord": 3099,
      "##lanmıştır": 3100,
      "oğ": 3101,
      "özellikle": 3102,
      "sek": 3103,
      "##ula": 3104,
      "uç": 3105,
      "##asını": 3106,
      "onun": 3107,
      "temsil": 3108,
      "tip": 3109,
      "##lamıştır": 3110,
      "gür": 3111,
      "batı": 3112,
      "sık": 3113,
      "sonuç": 3114,
      "coğrafya": 3115,
      "hazır": 3116,
      "bırak": 3117,
      "##üc": 3118,
      "ah": 3119,
      "dik": 3120,
      "##deş": 3121,
      "and": 3122,
      "##isinin": 3123,
      "çağ": 3124,
      "genellikle": 3125,
      "kent": 3126,
      "profes": 3127,
      "deki": 3128,
      "##ünden": 3129,
      "##ich": 3130,
      "dal": 3131,
      "bulunur": 3132,
      "fransız": 3133,
      "i̇mparator": 3134,
      "kara": 3135,
      "op": 3136,
      "konu": 3137,
      "ank": 3138,
      "##cek": 3139,
      "kons": 3140,
      "##amı": 3141,
      "erkek": 3142,
      "ait": 3143,
      "##dık": 3144,
      "poli": 3145,
      "altında": 3146,
      "##undan": 3147,
      "##üsü": 3148,
      "spor": 3149,
      "yerine": 3150,
      "##isini": 3151,
      "##kü": 3152,
      "tasar": 3153,
      "giy": 3154,
      "eyalet": 3155,
      "ulaş": 3156,
      "yunan": 3157,
      "edilen": 3158,
      "##bo": 3159,
      "başka": 3160,
      "i̇l": 3161,
      "##eme": 3162,
      "##fi": 3163,
      "değil": 3164,
      "yazar": 3165,
      "##be": 3166,
      "sosyal": 3167,
      "##ban": 3168,
      "söy": 3169,
      "yı": 3170,
      "##ova": 3171,
      "mat": 3172,
      "almanya": 3173,
      "pat": 3174,
      "rağ": 3175,
      "anlaş": 3176,
      "mer": 3177,
      "bah": 3178,
      "sıra": 3179,
      "yarı": 3180,
      "##ug": 3181,
      "şirket": 3182,
      "yaptığı": 3183,
      "yönetim": 3184,
      "ilgili": 3185,
      "seb": 3186,
      "bay": 3187,
      "dahil": 3188,
      "##ğa": 3189,
      "rağmen": 3190,
      "me": 3191,
      "th": 3192,
      "kol": 3193,
      "gazet": 3194,
      "araştırma": 3195,
      "sun": 3196,
      "mode": 3197,
      "mey": 3198,
      "yür": 3199,
      "##usunda": 3200,
      "don": 3201,
      "gerçekleştir": 3202,
      "##co": 3203,
      "##gün": 3204,
      "ban": 3205,
      "sov": 3206,
      "ankara": 3207,
      "tekrar": 3208,
      "hava": 3209,
      "kas": 3210,
      "kam": 3211,
      "jap": 3212,
      "fransa": 3213,
      "##isyon": 3214,
      "##of": 3215,
      "çıktı": 3216,
      "mus": 3217,
      "kav": 3218,
      "ten": 3219,
      "bal": 3220,
      "elektr": 3221,
      "pa": 3222,
      "bat": 3223,
      "##izm": 3224,
      "öldür": 3225,
      "sını": 3226,
      "olması": 3227,
      "yapı": 3228,
      "olduk": 3229,
      "##kan": 3230,
      "ulusal": 3231,
      "çalı": 3232,
      "##ye": 3233,
      "nor": 3234,
      "sovyet": 3235,
      "kuş": 3236,
      "##mayı": 3237,
      "ilişk": 3238,
      "new": 3239,
      "##str": 3240,
      "olur": 3241,
      "##aşa": 3242,
      "trans": 3243,
      "tr": 3244,
      "milyon": 3245,
      "çin": 3246,
      "kem": 3247,
      "cin": 3248,
      "çevr": 3249,
      "##isine": 3250,
      "ür": 3251,
      "uzaklıktadır": 3252,
      "gönder": 3253,
      "büt": 3254,
      "kitap": 3255,
      "yüksel": 3256,
      "kariyeri": 3257,
      "böyle": 3258,
      "olay": 3259,
      "tarihçe": 3260,
      "toprak": 3261,
      "##ari": 3262,
      "##ici": 3263,
      "parç": 3264,
      "##lim": 3265,
      "##eyen": 3266,
      "##leti": 3267,
      "birliği": 3268,
      "##ılmaktadır": 3269,
      "##gın": 3270,
      "almıştır": 3271,
      "karakter": 3272,
      "##kı": 3273,
      "temel": 3274,
      "##tiv": 3275,
      "##ift": 3276,
      "##vi": 3277,
      "##ğın": 3278,
      "sınıf": 3279,
      "başkanı": 3280,
      "yapım": 3281,
      "elde": 3282,
      "##elik": 3283,
      "##uluk": 3284,
      "geldi": 3285,
      "güven": 3286,
      "millet": 3287,
      "ail": 3288,
      "##ğına": 3289,
      "##cade": 3290,
      "edilmiştir": 3291,
      "##landa": 3292,
      "futbolcu": 3293,
      "belirt": 3294,
      "mik": 3295,
      "##ind": 3296,
      "sak": 3297,
      "##pr": 3298,
      "oyna": 3299,
      "kardeş": 3300,
      "inşa": 3301,
      "mon": 3302,
      "roman": 3303,
      "birka": 3304,
      "kariyer": 3305,
      "cam": 3306,
      "hiç": 3307,
      "kaç": 3308,
      "öğret": 3309,
      "keş": 3310,
      "##baş": 3311,
      "kazandı": 3312,
      "ağır": 3313,
      "ni": 3314,
      "özellik": 3315,
      "sonunda": 3316,
      "amerikan": 3317,
      "##oloji": 3318,
      "##hi": 3319,
      "##ver": 3320,
      "burada": 3321,
      "##ılım": 3322,
      "bağım": 3323,
      "şey": 3324,
      "##eral": 3325,
      "teknik": 3326,
      "şu": 3327,
      "##land": 3328,
      "##bur": 3329,
      "##din": 3330,
      "değiştir": 3331,
      "birkaç": 3332,
      "##lamak": 3333,
      "##abilir": 3334,
      "sahiptir": 3335,
      "hol": 3336,
      "pop": 3337,
      "ku": 3338,
      "komut": 3339,
      "##ğinde": 3340,
      "##gen": 3341,
      "##fade": 3342,
      "hakkında": 3343,
      "##rı": 3344,
      "bilinen": 3345,
      "kür": 3346,
      "##pe": 3347,
      "takımı": 3348,
      "hüküm": 3349,
      "##lendi": 3350,
      "##mal": 3351,
      "sur": 3352,
      "list": 3353,
      "##ji": 3354,
      "giriş": 3355,
      "itibarı": 3356,
      "ordu": 3357,
      "##nek": 3358,
      "grubu": 3359,
      "sırada": 3360,
      "##izyon": 3361,
      "##umu": 3362,
      "##ana": 3363,
      "##ider": 3364,
      "yah": 3365,
      "##luğ": 3366,
      "##gar": 3367,
      "kullanılan": 3368,
      "kontr": 3369,
      "bağlan": 3370,
      "kitab": 3371,
      "##gin": 3372,
      "altın": 3373,
      "mec": 3374,
      "to": 3375,
      "ifade": 3376,
      "yaşında": 3377,
      "bes": 3378,
      "tiyat": 3379,
      "adıyla": 3380,
      "roma": 3381,
      "tic": 3382,
      "biz": 3383,
      "mücade": 3384,
      "ler": 3385,
      "kulüp": 3386,
      "##yaz": 3387,
      "kut": 3388,
      "yıldı": 3389,
      "wil": 3390,
      "sem": 3391,
      "##maz": 3392,
      "gelir": 3393,
      "değişik": 3394,
      "id": 3395,
      "yine": 3396,
      "kı": 3397,
      "arasındaki": 3398,
      "##gun": 3399,
      "##yo": 3400,
      "aşağı": 3401,
      "i̇z": 3402,
      "katıldı": 3403,
      "##tern": 3404,
      "verdi": 3405,
      "##za": 3406,
      "##tiği": 3407,
      "babası": 3408,
      "kayb": 3409,
      "konuş": 3410,
      "tanı": 3411,
      "rusya": 3412,
      "ho": 3413,
      "belediye": 3414,
      "kulüb": 3415,
      "i̇span": 3416,
      "##amak": 3417,
      "men": 3418,
      "mac": 3419,
      "##tem": 3420,
      "yi": 3421,
      "##cısı": 3422,
      "pet": 3423,
      "kıy": 3424,
      "yapan": 3425,
      "##ke": 3426,
      "oluşan": 3427,
      "silah": 3428,
      "beraber": 3429,
      "##aren": 3430,
      "ham": 3431,
      "onu": 3432,
      "##ry": 3433,
      "mas": 3434,
      "##ond": 3435,
      "organ": 3436,
      "çiz": 3437,
      "##lerdir": 3438,
      "##cılı": 3439,
      "parça": 3440,
      "ali": 3441,
      "##larıyla": 3442,
      "çift": 3443,
      "devr": 3444,
      "cumhuriyeti": 3445,
      "bütün": 3446,
      "##leyen": 3447,
      "okul": 3448,
      "çıkan": 3449,
      "alır": 3450,
      "##tesi": 3451,
      "##asyonu": 3452,
      "##ebilir": 3453,
      "oğlu": 3454,
      "ülke": 3455,
      "yanı": 3456,
      "##osu": 3457,
      "##hn": 3458,
      "neh": 3459,
      "yal": 3460,
      "sul": 3461,
      "##cusu": 3462,
      "##to": 3463,
      "##ale": 3464,
      "car": 3465,
      "müs": 3466,
      "##gel": 3467,
      "beri": 3468,
      "##dia": 3469,
      "lar": 3470,
      "şehrin": 3471,
      "mahalledir": 3472,
      "ölç": 3473,
      "##ation": 3474,
      "sam": 3475,
      "dem": 3476,
      "##umlu": 3477,
      "eleştir": 3478,
      "##ire": 3479,
      "proj": 3480,
      "çap": 3481,
      "##mıştı": 3482,
      "sezonunda": 3483,
      "bağımsız": 3484,
      "##bak": 3485,
      "kilis": 3486,
      "kontrol": 3487,
      "##min": 3488,
      "fran": 3489,
      "telev": 3490,
      "hükû": 3491,
      "kupası": 3492,
      "rek": 3493,
      "savun": 3494,
      "üçüncü": 3495,
      "aday": 3496,
      "##ime": 3497,
      "##ıcı": 3498,
      "yapmıştır": 3499,
      "koy": 3500,
      "hükûmet": 3501,
      "##esel": 3502,
      "rad": 3503,
      "etmek": 3504,
      "##spor": 3505,
      "##end": 3506,
      "saat": 3507,
      "##br": 3508,
      "##emek": 3509,
      "biç": 3510,
      "no": 3511,
      "eki": 3512,
      "örne": 3513,
      "##manın": 3514,
      "##oğlu": 3515,
      "pek": 3516,
      "##ydı": 3517,
      "##ilmesi": 3518,
      "##tere": 3519,
      "itibaren": 3520,
      "almaktadır": 3521,
      "ant": 3522,
      "##med": 3523,
      "ligi": 3524,
      "merkezine": 3525,
      "##yor": 3526,
      "uğ": 3527,
      "görüş": 3528,
      "##anan": 3529,
      "##sik": 3530,
      "akade": 3531,
      "##urt": 3532,
      "##bah": 3533,
      "##okr": 3534,
      "num": 3535,
      "##laştır": 3536,
      "kaps": 3537,
      "adını": 3538,
      "##uma": 3539,
      "paşa": 3540,
      "val": 3541,
      "kah": 3542,
      "beyaz": 3543,
      "##orn": 3544,
      "##ou": 3545,
      "##ışma": 3546,
      "ekonom": 3547,
      "##yonel": 3548,
      "arkadaş": 3549,
      "dayan": 3550,
      "ef": 3551,
      "##iyordu": 3552,
      "mot": 3553,
      "etmiştir": 3554,
      "profesyonel": 3555,
      "ra": 3556,
      "üyesi": 3557,
      "gök": 3558,
      "döneminde": 3559,
      "adlandır": 3560,
      "bek": 3561,
      "sonucu": 3562,
      "kalan": 3563,
      "devletleri": 3564,
      "olmayan": 3565,
      "amerikalı": 3566,
      "yıldız": 3567,
      "çar": 3568,
      "ış": 3569,
      "anad": 3570,
      "afr": 3571,
      "televizyon": 3572,
      "albümü": 3573,
      "##uan": 3574,
      "##ize": 3575,
      "filmi": 3576,
      "##ema": 3577,
      "yoğ": 3578,
      "cez": 3579,
      "##leriyle": 3580,
      "turn": 3581,
      "amacı": 3582,
      "verilen": 3583,
      "kayıt": 3584,
      "ödülü": 3585,
      "##yalı": 3586,
      "sonraki": 3587,
      "parti": 3588,
      "##olojik": 3589,
      "##ince": 3590,
      "benzer": 3591,
      "##bay": 3592,
      "boz": 3593,
      "##lanır": 3594,
      "arap": 3595,
      "##int": 3596,
      "vide": 3597,
      "taşı": 3598,
      "taki": 3599,
      "dar": 3600,
      "##inc": 3601,
      "##udi": 3602,
      "yok": 3603,
      "ann": 3604,
      "söyle": 3605,
      "##go": 3606,
      "ener": 3607,
      "dolayı": 3608,
      "##era": 3609,
      "i̇talya": 3610,
      "dok": 3611,
      "li": 3612,
      "##üler": 3613,
      "partisi": 3614,
      "##ehir": 3615,
      "##ii": 3616,
      "meydan": 3617,
      "##lanmış": 3618,
      "i̇ngiltere": 3619,
      "##qu": 3620,
      "yat": 3621,
      "##asından": 3622,
      "model": 3623,
      "demir": 3624,
      "mücadele": 3625,
      "##ala": 3626,
      "##ko": 3627,
      "##laştı": 3628,
      "ilçe": 3629,
      "birbir": 3630,
      "##liğini": 3631,
      "idar": 3632,
      "##mesine": 3633,
      "sürdür": 3634,
      "##meni": 3635,
      "##cut": 3636,
      "tra": 3637,
      "##iyan": 3638,
      "ki": 3639,
      "fiz": 3640,
      "##esinden": 3641,
      "##tin": 3642,
      "dışında": 3643,
      "düny": 3644,
      "##alt": 3645,
      "port": 3646,
      "çöz": 3647,
      "edilir": 3648,
      "anadolu": 3649,
      "askeri": 3650,
      "örnek": 3651,
      "yoğun": 3652,
      "ortak": 3653,
      "##tu": 3654,
      "##iydi": 3655,
      "renk": 3656,
      "##cağı": 3657,
      "ap": 3658,
      "mem": 3659,
      "##dal": 3660,
      "john": 3661,
      "şekl": 3662,
      "##sun": 3663,
      "itibarıyla": 3664,
      "##ell": 3665,
      "mim": 3666,
      "hast": 3667,
      "madde": 3668,
      "##mesini": 3669,
      "##mişti": 3670,
      "mor": 3671,
      "bor": 3672,
      "i̇ş": 3673,
      "##ğine": 3674,
      "dönemde": 3675,
      "altı": 3676,
      "sta": 3677,
      "kaldı": 3678,
      "çoğu": 3679,
      "faal": 3680,
      "kir": 3681,
      "eur": 3682,
      "##ni": 3683,
      "fakül": 3684,
      "hayvan": 3685,
      "aldığı": 3686,
      "çalıştı": 3687,
      "##sk": 3688,
      "suç": 3689,
      "gem": 3690,
      "ünlü": 3691,
      "alı": 3692,
      "günümüzde": 3693,
      "mevcut": 3694,
      "##lüğ": 3695,
      "yerel": 3696,
      "birinci": 3697,
      "##ograf": 3698,
      "##ite": 3699,
      "yaygın": 3700,
      "##kat": 3701,
      "mark": 3702,
      "toplum": 3703,
      "başkan": 3704,
      "adam": 3705,
      "küt": 3706,
      "##ff": 3707,
      "teor": 3708,
      "des": 3709,
      "##tay": 3710,
      "##veç": 3711,
      "siv": 3712,
      "tep": 3713,
      "sim": 3714,
      "kuruluş": 3715,
      "sol": 3716,
      "hemen": 3717,
      "içerisinde": 3718,
      "##ebil": 3719,
      "yarat": 3720,
      "idi": 3721,
      "faaliyet": 3722,
      "buna": 3723,
      "inan": 3724,
      "formula": 3725,
      "mıs": 3726,
      "belediy": 3727,
      "huk": 3728,
      "##uştu": 3729,
      "imz": 3730,
      "hik": 3731,
      "kale": 3732,
      "ülkeler": 3733,
      "##tık": 3734,
      "##acak": 3735,
      "##ilere": 3736,
      "fen": 3737,
      "derg": 3738,
      "yağ": 3739,
      "##meyi": 3740,
      "##fed": 3741,
      "oli": 3742,
      "##rist": 3743,
      "biçim": 3744,
      "pol": 3745,
      "##amıştır": 3746,
      "sistemi": 3747,
      "hüc": 3748,
      "yıllarında": 3749,
      "yönetmen": 3750,
      "transfer": 3751,
      "mic": 3752,
      "tat": 3753,
      "ayak": 3754,
      "##ham": 3755,
      "öldü": 3756,
      "motor": 3757,
      "kullanılır": 3758,
      "isimli": 3759,
      "ül": 3760,
      "kab": 3761,
      "göç": 3762,
      "##ayet": 3763,
      "##öy": 3764,
      "##üman": 3765,
      "iste": 3766,
      "##vek": 3767,
      "##pit": 3768,
      "##sen": 3769,
      "şi": 3770,
      "##dığını": 3771,
      "hâ": 3772,
      "özg": 3773,
      "nden": 3774,
      "mısır": 3775,
      "meh": 3776,
      "##atör": 3777,
      "tanın": 3778,
      "##taş": 3779,
      "resmi": 3780,
      "##dern": 3781,
      "##mez": 3782,
      "siyasi": 3783,
      "##doğ": 3784,
      "##mer": 3785,
      "min": 3786,
      "##lor": 3787,
      "bölümü": 3788,
      "örneğin": 3789,
      "i̇mparatorluğu": 3790,
      "##suz": 3791,
      "sch": 3792,
      "##ars": 3793,
      "dönüş": 3794,
      "kurulan": 3795,
      "##üldü": 3796,
      "##aka": 3797,
      "he": 3798,
      "yapımı": 3799,
      "##laması": 3800,
      "direk": 3801,
      "böylece": 3802,
      "etkin": 3803,
      "atan": 3804,
      "fes": 3805,
      "başken": 3806,
      "##nız": 3807,
      "yaşa": 3808,
      "perfor": 3809,
      "bulundu": 3810,
      "geçen": 3811,
      "##tur": 3812,
      "com": 3813,
      "##ümü": 3814,
      "##cılık": 3815,
      "yalnız": 3816,
      "siyaset": 3817,
      "##müş": 3818,
      "sultan": 3819,
      "dağı": 3820,
      "hayatı": 3821,
      "##lah": 3822,
      "##lenmiştir": 3823,
      "örg": 3824,
      "hen": 3825,
      "ordusu": 3826,
      "##uh": 3827,
      "fer": 3828,
      "pan": 3829,
      "mahk": 3830,
      "başarı": 3831,
      "##uvar": 3832,
      "çoğun": 3833,
      "##mam": 3834,
      "##şta": 3835,
      "azer": 3836,
      "fır": 3837,
      "##asıyla": 3838,
      "i̇ran": 3839,
      "bulunduğu": 3840,
      "##yanın": 3841,
      "cen": 3842,
      "köydür": 3843,
      "##ris": 3844,
      "##va": 3845,
      "saldırı": 3846,
      "ağa": 3847,
      "tiyatro": 3848,
      "##teş": 3849,
      "##iliği": 3850,
      "video": 3851,
      "##lidir": 3852,
      "akadem": 3853,
      "sanatçı": 3854,
      "performan": 3855,
      "baz": 3856,
      "şehri": 3857,
      "##diler": 3858,
      "##her": 3859,
      "yolu": 3860,
      "bölgesi": 3861,
      "amaç": 3862,
      "mağ": 3863,
      "##iyi": 3864,
      "it": 3865,
      "gelenek": 3866,
      "je": 3867,
      "soy": 3868,
      "futbolcudur": 3869,
      "güz": 3870,
      "gi": 3871,
      "modern": 3872,
      "poz": 3873,
      "stan": 3874,
      "ja": 3875,
      "uygulama": 3876,
      "park": 3877,
      "##kenin": 3878,
      "hukuk": 3879,
      "piyas": 3880,
      "doğdu": 3881,
      "go": 3882,
      "edeb": 3883,
      "metre": 3884,
      "dokt": 3885,
      "yaşayan": 3886,
      "##iss": 3887,
      "dair": 3888,
      "##ledi": 3889,
      "doktor": 3890,
      "##burg": 3891,
      "ürün": 3892,
      "sonuc": 3893,
      "anla": 3894,
      "müdür": 3895,
      "dır": 3896,
      "fel": 3897,
      "hey": 3898,
      "araç": 3899,
      "dikkat": 3900,
      "##rol": 3901,
      "keli": 3902,
      "nes": 3903,
      "##lüğü": 3904,
      "çat": 3905,
      "fed": 3906,
      "yıllık": 3907,
      "müh": 3908,
      "komün": 3909,
      "parçası": 3910,
      "üye": 3911,
      "kaldır": 3912,
      "red": 3913,
      "##ong": 3914,
      "vur": 3915,
      "##tral": 3916,
      "lu": 3917,
      "biridir": 3918,
      "yılından": 3919,
      "##ışı": 3920,
      "##hangi": 3921,
      "sıcak": 3922,
      "nas": 3923,
      "##uldu": 3924,
      "##lemek": 3925,
      "sahibi": 3926,
      "##ciler": 3927,
      "tor": 3928,
      "ince": 3929,
      "herhangi": 3930,
      "milletvek": 3931,
      "ste": 3932,
      "azerbay": 3933,
      "yapıldı": 3934,
      "##tığı": 3935,
      "##ilmektedir": 3936,
      "oynadı": 3937,
      "ona": 3938,
      "günü": 3939,
      "sayım": 3940,
      "bitir": 3941,
      "başlan": 3942,
      "ayında": 3943,
      "##istik": 3944,
      "##do": 3945,
      "yıllarda": 3946,
      "i̇ngilizce": 3947,
      "##ılabilir": 3948,
      "##ansı": 3949,
      "fizik": 3950,
      "med": 3951,
      "başarılı": 3952,
      "##ho": 3953,
      "gez": 3954,
      "süp": 3955,
      "paris": 3956,
      "aile": 3957,
      "kurt": 3958,
      "hiçbir": 3959,
      "köken": 3960,
      "sezonu": 3961,
      "iht": 3962,
      "##alama": 3963,
      "mut": 3964,
      "pay": 3965,
      "afrika": 3966,
      "##one": 3967,
      "şiir": 3968,
      "ip": 3969,
      "tanrı": 3970,
      "bugün": 3971,
      "ala": 3972,
      "##cisi": 3973,
      "##rek": 3974,
      "ilan": 3975,
      "ülkenin": 3976,
      "dak": 3977,
      "turnuv": 3978,
      "##lenir": 3979,
      "##esiyle": 3980,
      "##ij": 3981,
      "kaybet": 3982,
      "örgüt": 3983,
      "##gal": 3984,
      "yürüt": 3985,
      "bilgi": 3986,
      "maçta": 3987,
      "##onu": 3988,
      "tespit": 3989,
      "##atan": 3990,
      "##yen": 3991,
      "girdi": 3992,
      "hale": 3993,
      "iddia": 3994,
      "teh": 3995,
      "york": 3996,
      "##dak": 3997,
      "##ie": 3998,
      "yanında": 3999,
      "##io": 4000,
      "i̇ç": 4001,
      "##öl": 4002,
      "##rail": 4003,
      "azerbaycan": 4004,
      "kanal": 4005,
      "alanı": 4006,
      "##mada": 4007,
      "##aba": 4008,
      "dizi": 4009,
      "olabilir": 4010,
      "##iği": 4011,
      "uygun": 4012,
      "##ere": 4013,
      "fot": 4014,
      "##isk": 4015,
      "pas": 4016,
      "ac": 4017,
      "amp": 4018,
      "düzenlenen": 4019,
      "biy": 4020,
      "yerleşim": 4021,
      "oran": 4022,
      "##lisi": 4023,
      "##rik": 4024,
      "şeklinde": 4025,
      "boş": 4026,
      "##azar": 4027,
      "pen": 4028,
      "ila": 4029,
      "mezun": 4030,
      "türü": 4031,
      "forma": 4032,
      "oldukça": 4033,
      "sey": 4034,
      "con": 4035,
      "yo": 4036,
      "kamp": 4037,
      "##madan": 4038,
      "##sin": 4039,
      "bildir": 4040,
      "şah": 4041,
      "##ate": 4042,
      "##taydı": 4043,
      "fik": 4044,
      "##kın": 4045,
      "vardı": 4046,
      "##ân": 4047,
      "sayıda": 4048,
      "##ladığı": 4049,
      "geçti": 4050,
      "##ilerek": 4051,
      "ettiği": 4052,
      "##masının": 4053,
      "##deniz": 4054,
      "üretim": 4055,
      "yani": 4056,
      "##edi": 4057,
      "hes": 4058,
      "##makta": 4059,
      "haber": 4060,
      "işlem": 4061,
      "##uyu": 4062,
      "bölgesinde": 4063,
      "##cağını": 4064,
      "##oli": 4065,
      "##omet": 4066,
      "başlayan": 4067,
      "i̇srail": 4068,
      "bizans": 4069,
      "demokr": 4070,
      "##ord": 4071,
      "derece": 4072,
      "iline": 4073,
      "hit": 4074,
      "cep": 4075,
      "##arlar": 4076,
      "konser": 4077,
      "si": 4078,
      "haline": 4079,
      "olimp": 4080,
      "sing": 4081,
      "##ktan": 4082,
      "engel": 4083,
      "benz": 4084,
      "hafta": 4085,
      "##cılığı": 4086,
      "nit": 4087,
      "dö": 4088,
      "cm": 4089,
      "gerçekleş": 4090,
      "yazı": 4091,
      "gele": 4092,
      "japon": 4093,
      "##ick": 4094,
      "##liam": 4095,
      "sonrasında": 4096,
      "hede": 4097,
      "koş": 4098,
      "##masıyla": 4099,
      "köyün": 4100,
      "##ısını": 4101,
      "i̇yi": 4102,
      "uyar": 4103,
      "tart": 4104,
      "festiv": 4105,
      "anlat": 4106,
      "başına": 4107,
      "##best": 4108,
      "güçlü": 4109,
      "hikâ": 4110,
      "yılına": 4111,
      "ismi": 4112,
      "mö": 4113,
      "deney": 4114,
      "rap": 4115,
      "güneş": 4116,
      "süper": 4117,
      "anlamına": 4118,
      "önceki": 4119,
      "para": 4120,
      "sefer": 4121,
      "kurulu": 4122,
      "##lef": 4123,
      "doğal": 4124,
      "yaşamı": 4125,
      "##ısıyla": 4126,
      "##omo": 4127,
      "başlangı": 4128,
      "kaf": 4129,
      "kızıl": 4130,
      "rah": 4131,
      "sit": 4132,
      "yüzyılda": 4133,
      "başlamıştır": 4134,
      "##ısına": 4135,
      "##meden": 4136,
      "##ilerini": 4137,
      "serbest": 4138,
      "yaban": 4139,
      "##dük": 4140,
      "balık": 4141,
      "tay": 4142,
      "lider": 4143,
      "##omb": 4144,
      "vak": 4145,
      "milli": 4146,
      "##şehir": 4147,
      "ders": 4148,
      "güzel": 4149,
      "##po": 4150,
      "##masında": 4151,
      "düşük": 4152,
      "lim": 4153,
      "##form": 4154,
      "##itan": 4155,
      "sorun": 4156,
      "i̇talyan": 4157,
      "çün": 4158,
      "ekonomik": 4159,
      "##ekli": 4160,
      "başbak": 4161,
      "türkçe": 4162,
      "diy": 4163,
      "konusunda": 4164,
      "zen": 4165,
      "pren": 4166,
      "bakanlığı": 4167,
      "karşılaş": 4168,
      "##ğının": 4169,
      "yav": 4170,
      "bre": 4171,
      "çünkü": 4172,
      "fakültesi": 4173,
      "yöntem": 4174,
      "bilgis": 4175,
      "##meleri": 4176,
      "puan": 4177,
      "çalışan": 4178,
      "##yordu": 4179,
      "##gr": 4180,
      "sinema": 4181,
      "str": 4182,
      "sü": 4183,
      "i̇slam": 4184,
      "giz": 4185,
      "etmektedir": 4186,
      "zar": 4187,
      "##ğe": 4188,
      "##und": 4189,
      "değildir": 4190,
      "muhar": 4191,
      "krallık": 4192,
      "nok": 4193,
      "galak": 4194,
      "bunu": 4195,
      "konum": 4196,
      "hane": 4197,
      "sonucunda": 4198,
      "##ian": 4199,
      "oda": 4200,
      "kurum": 4201,
      "##su": 4202,
      "##lığını": 4203,
      "sözleş": 4204,
      "ziy": 4205,
      "yık": 4206,
      "başında": 4207,
      "ticaret": 4208,
      "amacıyla": 4209,
      "##lav": 4210,
      "mit": 4211,
      "müsl": 4212,
      "yönünde": 4213,
      "##ag": 4214,
      "i̇b": 4215,
      "cumhurbaş": 4216,
      "lond": 4217,
      "##ustur": 4218,
      "veren": 4219,
      "basket": 4220,
      "bilgisay": 4221,
      "i̇spanya": 4222,
      "göl": 4223,
      "direktör": 4224,
      "van": 4225,
      "##ırı": 4226,
      "lo": 4227,
      "##medi": 4228,
      "cih": 4229,
      "katıl": 4230,
      "fir": 4231,
      "liste": 4232,
      "sab": 4233,
      "lik": 4234,
      "##imleri": 4235,
      "mühend": 4236,
      "hap": 4237,
      "##ısından": 4238,
      "dünyanın": 4239,
      "##dam": 4240,
      "##alar": 4241,
      "##ore": 4242,
      "edi": 4243,
      "##yol": 4244,
      "dr": 4245,
      "verildi": 4246,
      "##yum": 4247,
      "##stit": 4248,
      "sahne": 4249,
      "##üyle": 4250,
      "kli": 4251,
      "kuvvetleri": 4252,
      "i̇kinci": 4253,
      "##ulan": 4254,
      "filmin": 4255,
      "uzay": 4256,
      "izin": 4257,
      "iken": 4258,
      "konusu": 4259,
      "etkil": 4260,
      "##unt": 4261,
      "##sidir": 4262,
      "ism": 4263,
      "##cel": 4264,
      "japonya": 4265,
      "canlandır": 4266,
      "fon": 4267,
      "keşfed": 4268,
      "seçildi": 4269,
      "sel": 4270,
      "##lanması": 4271,
      "ven": 4272,
      "##lamış": 4273,
      "##tor": 4274,
      "adet": 4275,
      "iler": 4276,
      "mimar": 4277,
      "gar": 4278,
      "olmuş": 4279,
      "##jen": 4280,
      "##ger": 4281,
      "stü": 4282,
      "##hat": 4283,
      "elektrik": 4284,
      "geçer": 4285,
      "del": 4286,
      "##maları": 4287,
      "donan": 4288,
      "i̇zmir": 4289,
      "taşın": 4290,
      "seslendir": 4291,
      "başlar": 4292,
      "pap": 4293,
      "klas": 4294,
      "us": 4295,
      "oper": 4296,
      "meydana": 4297,
      "yardımcı": 4298,
      "ateş": 4299,
      "##mesiyle": 4300,
      "şö": 4301,
      "tamamen": 4302,
      "naz": 4303,
      "gu": 4304,
      "##fe": 4305,
      "##des": 4306,
      "##ron": 4307,
      "müslüman": 4308,
      "##ülen": 4309,
      "stüdy": 4310,
      "muhareb": 4311,
      "avustur": 4312,
      "##ğından": 4313,
      "##inal": 4314,
      "##omi": 4315,
      "mir": 4316,
      "kardeşi": 4317,
      "##culuk": 4318,
      "ndan": 4319,
      "yayınlanan": 4320,
      "ner": 4321,
      "orman": 4322,
      "verir": 4323,
      "##dın": 4324,
      "##cık": 4325,
      "kızı": 4326,
      "sağlık": 4327,
      "yalnızca": 4328,
      "kavram": 4329,
      "hrist": 4330,
      "metal": 4331,
      "başkanlığı": 4332,
      "qu": 4333,
      "##ino": 4334,
      "mekan": 4335,
      "şarkıcı": 4336,
      "çarp": 4337,
      "cumhurbaşk": 4338,
      "##ene": 4339,
      "##ision": 4340,
      "imparator": 4341,
      "edebiyat": 4342,
      "edilmiş": 4343,
      "rock": 4344,
      "soğ": 4345,
      "##ilerine": 4346,
      "olimpiyat": 4347,
      "##ste": 4348,
      "##ows": 4349,
      "yorum": 4350,
      "##masından": 4351,
      "astr": 4352,
      "##aj": 4353,
      "kanada": 4354,
      "senar": 4355,
      "kariyerine": 4356,
      "yokt": 4357,
      "döndü": 4358,
      "##mî": 4359,
      "##ray": 4360,
      "devleti": 4361,
      "plat": 4362,
      "defa": 4363,
      "şampiyonası": 4364,
      "nehri": 4365,
      "##ustral": 4366,
      "olacak": 4367,
      "ederek": 4368,
      "##lilik": 4369,
      "def": 4370,
      "yeş": 4371,
      "boyut": 4372,
      "lat": 4373,
      "##eth": 4374,
      "##ıyor": 4375,
      "##ıntı": 4376,
      "işlet": 4377,
      "char": 4378,
      "bile": 4379,
      "col": 4380,
      "##vat": 4381,
      "##ph": 4382,
      "erken": 4383,
      "sona": 4384,
      "nokt": 4385,
      "asıl": 4386,
      "##rah": 4387,
      "sebeb": 4388,
      "bulgar": 4389,
      "piyasaya": 4390,
      "vatan": 4391,
      "##ons": 4392,
      "zorunda": 4393,
      "##liğinde": 4394,
      "yarışması": 4395,
      "standar": 4396,
      "hücre": 4397,
      "tav": 4398,
      "##leşti": 4399,
      "tasarım": 4400,
      "ekip": 4401,
      "##ity": 4402,
      "basketbol": 4403,
      "##evi": 4404,
      "##zi": 4405,
      "bilinir": 4406,
      "asya": 4407,
      "tv": 4408,
      "##oks": 4409,
      "##üştü": 4410,
      "yana": 4411,
      "##ıldığı": 4412,
      "kuruldu": 4413,
      "uçak": 4414,
      "üzerinden": 4415,
      "sayısı": 4416,
      "##tika": 4417,
      "##fik": 4418,
      "gördü": 4419,
      "kendisine": 4420,
      "sebep": 4421,
      "ora": 4422,
      "çevir": 4423,
      "sc": 4424,
      "içeren": 4425,
      "##lardı": 4426,
      "kop": 4427,
      "şirk": 4428,
      "##zon": 4429,
      "##asa": 4430,
      "kısm": 4431,
      "hızlı": 4432,
      "vil": 4433,
      "kurulmuştur": 4434,
      "kullanıl": 4435,
      "hollanda": 4436,
      "nedenle": 4437,
      "kurdu": 4438,
      "##isidir": 4439,
      "##larındaki": 4440,
      "##yas": 4441,
      "özgür": 4442,
      "lit": 4443,
      "##ze": 4444,
      "londra": 4445,
      "bunlar": 4446,
      "mur": 4447,
      "##layarak": 4448,
      "diş": 4449,
      "başlat": 4450,
      "##etik": 4451,
      "avustral": 4452,
      "grubun": 4453,
      "şirketi": 4454,
      "##âr": 4455,
      "sonrası": 4456,
      "##abil": 4457,
      "popüler": 4458,
      "##dem": 4459,
      "geleneksel": 4460,
      "hedef": 4461,
      "yayınlandı": 4462,
      "##esidir": 4463,
      "##alıdır": 4464,
      "##taj": 4465,
      "##laya": 4466,
      "##üle": 4467,
      "numar": 4468,
      "felse": 4469,
      "william": 4470,
      "i̇ki": 4471,
      "##zil": 4472,
      "##cılar": 4473,
      "mi": 4474,
      "terc": 4475,
      "musta": 4476,
      "çalışmaları": 4477,
      "pers": 4478,
      "##ele": 4479,
      "kısmı": 4480,
      "i̇sveç": 4481,
      "##maktaydı": 4482,
      "##uklu": 4483,
      "ziyaret": 4484,
      "tarım": 4485,
      "oluşur": 4486,
      "##atür": 4487,
      "çevre": 4488,
      "alarak": 4489,
      "##kün": 4490,
      "nokta": 4491,
      "kullanım": 4492,
      "##amaktadır": 4493,
      "antik": 4494,
      "tas": 4495,
      "##dr": 4496,
      "pazar": 4497,
      "##yüz": 4498,
      "öner": 4499,
      "toplan": 4500,
      "anda": 4501,
      "dolay": 4502,
      "artık": 4503,
      "##atif": 4504,
      "enerji": 4505,
      "##tiler": 4506,
      "##sh": 4507,
      "##emiştir": 4508,
      "suriye": 4509,
      "galat": 4510,
      "kırmı": 4511,
      "kendisi": 4512,
      "mühendis": 4513,
      "siy": 4514,
      "prot": 4515,
      "prens": 4516,
      "aks": 4517,
      "maçı": 4518,
      "olsa": 4519,
      "day": 4520,
      "##imini": 4521,
      "radyo": 4522,
      "kış": 4523,
      "bilgisayar": 4524,
      "etmiş": 4525,
      "performans": 4526,
      "##emen": 4527,
      "çıkış": 4528,
      "fo": 4529,
      "##bert": 4530,
      "##lenmiş": 4531,
      "##res": 4532,
      "boğ": 4533,
      "enstit": 4534,
      "civ": 4535,
      "aşağıdaki": 4536,
      "##ısının": 4537,
      "tekli": 4538,
      "##nik": 4539,
      "buz": 4540,
      "##har": 4541,
      "sahn": 4542,
      "##ital": 4543,
      "##ekiz": 4544,
      "##mem": 4545,
      "kralı": 4546,
      "cihaz": 4547,
      "eyaletinde": 4548,
      "başkenti": 4549,
      "nı": 4550,
      "vol": 4551,
      "şim": 4552,
      "net": 4553,
      "versiyon": 4554,
      "yapmış": 4555,
      "bro": 4556,
      "malz": 4557,
      "##gc": 4558,
      "okulu": 4559,
      "##ment": 4560,
      "elektron": 4561,
      "##ınca": 4562,
      "resim": 4563,
      "dönemi": 4564,
      "mezar": 4565,
      "hip": 4566,
      "macar": 4567,
      "politik": 4568,
      "##bek": 4569,
      "tük": 4570,
      "##ılarak": 4571,
      "pozisyon": 4572,
      "##ğinden": 4573,
      "geçmiş": 4574,
      "##dek": 4575,
      "maçında": 4576,
      "katkı": 4577,
      "değerlendir": 4578,
      "normal": 4579,
      "intern": 4580,
      "##yken": 4581,
      "sk": 4582,
      "teda": 4583,
      "##wa": 4584,
      "olmasına": 4585,
      "düzey": 4586,
      "##olog": 4587,
      "##meyen": 4588,
      "davran": 4589,
      "yum": 4590,
      "kapsam": 4591,
      "gözlem": 4592,
      "single": 4593,
      "yuk": 4594,
      "kork": 4595,
      "##ner": 4596,
      "kötü": 4597,
      "portekiz": 4598,
      "##iyeti": 4599,
      "eşit": 4600,
      "stüdyo": 4601,
      "yeşil": 4602,
      "dörd": 4603,
      "mos": 4604,
      "yüzyılın": 4605,
      "sok": 4606,
      "gece": 4607,
      "eg": 4608,
      "eli": 4609,
      "##kları": 4610,
      "komp": 4611,
      "yu": 4612,
      "organiz": 4613,
      "tanıt": 4614,
      "##kop": 4615,
      "wind": 4616,
      "##all": 4617,
      "yahudi": 4618,
      "gran": 4619,
      "ileri": 4620,
      "##tedir": 4621,
      "dol": 4622,
      "##isel": 4623,
      "yedi": 4624,
      "yasa": 4625,
      "çan": 4626,
      "yazarı": 4627,
      "##ona": 4628,
      "##bin": 4629,
      "sunu": 4630,
      "birey": 4631,
      "işgal": 4632,
      "##nes": 4633,
      "bununla": 4634,
      "##aması": 4635,
      "anal": 4636,
      "##arında": 4637,
      "##menin": 4638,
      "##ilerinin": 4639,
      "satış": 4640,
      "verdiği": 4641,
      "adan": 4642,
      "duyur": 4643,
      "i̇lç": 4644,
      "cem": 4645,
      "##bilece": 4646,
      "takip": 4647,
      "trab": 4648,
      "canlı": 4649,
      "##ilebilir": 4650,
      "sekiz": 4651,
      "kullanıcı": 4652,
      "##eydi": 4653,
      "ih": 4654,
      "i̇k": 4655,
      "matem": 4656,
      "avusturya": 4657,
      "gr": 4658,
      "yetk": 4659,
      "fener": 4660,
      "##we": 4661,
      "kayna": 4662,
      "saf": 4663,
      "tim": 4664,
      "geor": 4665,
      "mustafa": 4666,
      "##and": 4667,
      "##anlık": 4668,
      "zir": 4669,
      "yabancı": 4670,
      "saray": 4671,
      "müm": 4672,
      "eğer": 4673,
      "bölgede": 4674,
      "resmî": 4675,
      "##are": 4676,
      "kazanan": 4677,
      "hristiyan": 4678,
      "dakika": 4679,
      "lib": 4680,
      "fotoğraf": 4681,
      "##tiş": 4682,
      "seri": 4683,
      "satın": 4684,
      "aydın": 4685,
      "veri": 4686,
      "##hane": 4687,
      "meclis": 4688,
      "##işleri": 4689,
      "##iforn": 4690,
      "dek": 4691,
      "kırmızı": 4692,
      "cor": 4693,
      "eb": 4694,
      "barış": 4695,
      "polis": 4696,
      "bağlantı": 4697,
      "vir": 4698,
      "kanı": 4699,
      "##ğunu": 4700,
      "##ith": 4701,
      "sovyetler": 4702,
      "ölçü": 4703,
      "tipi": 4704,
      "mehmet": 4705,
      "ülkede": 4706,
      "rum": 4707,
      "güvenlik": 4708,
      "kitabı": 4709,
      "güm": 4710,
      "##ob": 4711,
      "sayımına": 4712,
      "çoğunluk": 4713,
      "uk": 4714,
      "lisans": 4715,
      "pak": 4716,
      "beste": 4717,
      "##lamaya": 4718,
      "##ang": 4719,
      "sanay": 4720,
      "##th": 4721,
      "karış": 4722,
      "kum": 4723,
      "sub": 4724,
      "tok": 4725,
      "stat": 4726,
      "##undaki": 4727,
      "siyah": 4728,
      "bileş": 4729,
      "küm": 4730,
      "hastan": 4731,
      "##red": 4732,
      "##ded": 4733,
      "##bon": 4734,
      "##ac": 4735,
      "iliş": 4736,
      "##lanma": 4737,
      "hep": 4738,
      "##manı": 4739,
      "yapılmıştır": 4740,
      "şarkısı": 4741,
      "##bahçe": 4742,
      "ihtiya": 4743,
      "kore": 4744,
      "yör": 4745,
      "##yıldı": 4746,
      "hesap": 4747,
      "kamu": 4748,
      "basın": 4749,
      "##aktadır": 4750,
      "yüzey": 4751,
      "##isyen": 4752,
      "jos": 4753,
      "ngc": 4754,
      "yahud": 4755,
      "pil": 4756,
      "##fet": 4757,
      "stady": 4758,
      "play": 4759,
      "##ülü": 4760,
      "tör": 4761,
      "cev": 4762,
      "fam": 4763,
      "ruh": 4764,
      "ep": 4765,
      "psik": 4766,
      "##ily": 4767,
      "teş": 4768,
      "galaksidir": 4769,
      "kendini": 4770,
      "i̇r": 4771,
      "##dikten": 4772,
      "bakanı": 4773,
      "##asaray": 4774,
      "jam": 4775,
      "oyunu": 4776,
      "##nam": 4777,
      "yılının": 4778,
      "politika": 4779,
      "gre": 4780,
      "ıs": 4781,
      "zengin": 4782,
      "eurov": 4783,
      "galatasaray": 4784,
      "arası": 4785,
      "##ert": 4786,
      "madal": 4787,
      "köpr": 4788,
      "alanında": 4789,
      "savunma": 4790,
      "##üst": 4791,
      "##bat": 4792,
      "dam": 4793,
      "##itesi": 4794,
      "antlaş": 4795,
      "belirli": 4796,
      "içerir": 4797,
      "adına": 4798,
      "emek": 4799,
      "ton": 4800,
      "avustralya": 4801,
      "##dikleri": 4802,
      "vatandaş": 4803,
      "dördüncü": 4804,
      "ark": 4805,
      "karşısında": 4806,
      "yönelik": 4807,
      "tıp": 4808,
      "şehirdir": 4809,
      "klasik": 4810,
      "emir": 4811,
      "fab": 4812,
      "bunların": 4813,
      "ortalama": 4814,
      "##kar": 4815,
      "##alim": 4816,
      "eurovision": 4817,
      "fi": 4818,
      "##uluğu": 4819,
      "eğitimi": 4820,
      "dünyaya": 4821,
      "windows": 4822,
      "um": 4823,
      "i̇spanyol": 4824,
      "yılın": 4825,
      "sürekli": 4826,
      "yunanistan": 4827,
      "bazen": 4828,
      "meş": 4829,
      "ob": 4830,
      "i̇st": 4831,
      "erz": 4832,
      "gazete": 4833,
      "orij": 4834,
      "##kel": 4835,
      "şa": 4836,
      "milletvekili": 4837,
      "dü": 4838,
      "tarihli": 4839,
      "açı": 4840,
      "polonya": 4841,
      "ayır": 4842,
      "##meler": 4843,
      "kıbr": 4844,
      "##mon": 4845,
      "katılım": 4846,
      "söyledi": 4847,
      "öy": 4848,
      "sarı": 4849,
      "web": 4850,
      "hind": 4851,
      "annesi": 4852,
      "kıbrıs": 4853,
      "başlangıç": 4854,
      "kesin": 4855,
      "##ısız": 4856,
      "isti": 4857,
      "yoktur": 4858,
      "karşılık": 4859,
      "sayesinde": 4860,
      "mümkün": 4861,
      "##ırlar": 4862,
      "şid": 4863,
      "##iri": 4864,
      "ale": 4865,
      "pe": 4866,
      "##onomi": 4867,
      "##berg": 4868,
      "anay": 4869,
      "ayrıldı": 4870,
      "##may": 4871,
      "katal": 4872,
      "ermeni": 4873,
      "ordus": 4874,
      "hastalık": 4875,
      "##lılık": 4876,
      "vo": 4877,
      "##arken": 4878,
      "##imler": 4879,
      "##liğe": 4880,
      "##dıkları": 4881,
      "ke": 4882,
      "##ight": 4883,
      "yurt": 4884,
      "yerli": 4885,
      "hikây": 4886,
      "##altı": 4887,
      "##ung": 4888,
      "##uyor": 4889,
      "diye": 4890,
      "matematik": 4891,
      "sap": 4892,
      "serg": 4893,
      "du": 4894,
      "fenerbahçe": 4895,
      "şar": 4896,
      "edilmektedir": 4897,
      "değişiklik": 4898,
      "tale": 4899,
      "yeri": 4900,
      "##ölç": 4901,
      "##uyordu": 4902,
      "##ğinin": 4903,
      "kuşat": 4904,
      "parlam": 4905,
      "saha": 4906,
      "halinde": 4907,
      "ödülleri": 4908,
      "yazdığı": 4909,
      "bol": 4910,
      "tahmin": 4911,
      "kişinin": 4912,
      "hanedan": 4913,
      "oyuncusu": 4914,
      "##ts": 4915,
      "siyasetçi": 4916,
      "##mesinden": 4917,
      "kanun": 4918,
      "miktar": 4919,
      "korum": 4920,
      "nik": 4921,
      "hakim": 4922,
      "not": 4923,
      "iii": 4924,
      "tamamladı": 4925,
      "görüntü": 4926,
      "gösterir": 4927,
      "üzerindeki": 4928,
      "ga": 4929,
      "##lov": 4930,
      "bakım": 4931,
      "##teki": 4932,
      "##ildiği": 4933,
      "##mür": 4934,
      "##ato": 4935,
      "tap": 4936,
      "##liy": 4937,
      "standart": 4938,
      "kulübü": 4939,
      "yüzölç": 4940,
      "ışık": 4941,
      "yeti": 4942,
      "mag": 4943,
      "##şık": 4944,
      "britan": 4945,
      "##ata": 4946,
      "##diş": 4947,
      "mc": 4948,
      "takımyıldı": 4949,
      "doğum": 4950,
      "derin": 4951,
      "yapmak": 4952,
      "süreç": 4953,
      "##tion": 4954,
      "öğretmen": 4955,
      "yıllar": 4956,
      "hır": 4957,
      "sanatç": 4958,
      "trabzon": 4959,
      "belg": 4960,
      "feder": 4961,
      "kazanmıştır": 4962,
      "eriş": 4963,
      "ker": 4964,
      "brezil": 4965,
      "##ens": 4966,
      "ölümü": 4967,
      "yönetimi": 4968,
      "sava": 4969,
      "arn": 4970,
      "alındı": 4971,
      "hindistan": 4972,
      "hatta": 4973,
      "ilçesinde": 4974,
      "##ücü": 4975,
      "mahkem": 4976,
      "raki": 4977,
      "çi": 4978,
      "##endi": 4979,
      "altına": 4980,
      "oynanan": 4981,
      "yukarı": 4982,
      "test": 4983,
      "dili": 4984,
      "muham": 4985,
      "ağaç": 4986,
      "orijinal": 4987,
      "general": 4988,
      "yanlı": 4989,
      "ortam": 4990,
      "tu": 4991,
      "nerede": 4992,
      "görevi": 4993,
      "pot": 4994,
      "##viç": 4995,
      "kurtar": 4996,
      "kişilik": 4997,
      "bilimsel": 4998,
      "hid": 4999,
      "endü": 5000,
      "köyü": 5001,
      "yerleştir": 5002,
      "dağıt": 5003,
      "bölümünde": 5004,
      "kıyı": 5005,
      "kolay": 5006,
      "başlı": 5007,
      "yazdı": 5008,
      "aj": 5009,
      "kurulmuş": 5010,
      "dip": 5011,
      "ss": 5012,
      "##lesi": 5013,
      "idari": 5014,
      "cins": 5015,
      "##egor": 5016,
      "ros": 5017,
      "kadınlar": 5018,
      "taşıyan": 5019,
      "samsun": 5020,
      "##ita": 5021,
      "kaliforn": 5022,
      "durumda": 5023,
      "##fek": 5024,
      "##ografi": 5025,
      "üniversite": 5026,
      "##urum": 5027,
      "uğra": 5028,
      "özellikleri": 5029,
      "gül": 5030,
      "gelmiştir": 5031,
      "##izi": 5032,
      "çıkmıştır": 5033,
      "##alığı": 5034,
      "##per": 5035,
      "##ksiyon": 5036,
      "indir": 5037,
      "doğr": 5038,
      "##lıkla": 5039,
      "ermen": 5040,
      "##ette": 5041,
      "astronom": 5042,
      "kendisini": 5043,
      "teki": 5044,
      "pal": 5045,
      "kategor": 5046,
      "gösteren": 5047,
      "doğrudan": 5048,
      "öne": 5049,
      "##yn": 5050,
      "tarz": 5051,
      "telef": 5052,
      "sırasıyla": 5053,
      "##çiler": 5054,
      "komünist": 5055,
      "##diğini": 5056,
      "duvar": 5057,
      "##mesinin": 5058,
      "madalya": 5059,
      "yapıl": 5060,
      "teles": 5061,
      "diren": 5062,
      "etraf": 5063,
      "i̇nsan": 5064,
      "##lenme": 5065,
      "birleştir": 5066,
      "attı": 5067,
      "bahs": 5068,
      "ailesi": 5069,
      "##yse": 5070,
      "rast": 5071,
      "##iminde": 5072,
      "asl": 5073,
      "##ıyordu": 5074,
      "kaliforniya": 5075,
      "fat": 5076,
      "bis": 5077,
      "albümün": 5078,
      "eşi": 5079,
      "irak": 5080,
      "nasıl": 5081,
      "vi": 5082,
      "açıkladı": 5083,
      "ex": 5084,
      "profesör": 5085,
      "gid": 5086,
      "kabil": 5087,
      "##isinden": 5088,
      "##iyel": 5089,
      "##rad": 5090,
      "fonksiyon": 5091,
      "otomo": 5092,
      "çoğunlukla": 5093,
      "ata": 5094,
      "hor": 5095,
      "terk": 5096,
      "liv": 5097,
      "nak": 5098,
      "##edik": 5099,
      "##ırken": 5100,
      "deste": 5101,
      "gürcü": 5102,
      "azal": 5103,
      "durumu": 5104,
      "aktif": 5105,
      "berlin": 5106,
      "arkadaşı": 5107,
      "ukray": 5108,
      "##uru": 5109,
      "adında": 5110,
      "kurucu": 5111,
      "##ura": 5112,
      "tercih": 5113,
      "kısım": 5114,
      "hükümdar": 5115,
      "rapor": 5116,
      "kaya": 5117,
      "##ash": 5118,
      "kullanarak": 5119,
      "##yap": 5120,
      "meclisi": 5121,
      "##çlı": 5122,
      "doğan": 5123,
      "bundan": 5124,
      "şiddet": 5125,
      "##liğine": 5126,
      "başrol": 5127,
      "gitti": 5128,
      "##lanmaktadır": 5129,
      "yapmaktadır": 5130,
      "##uli": 5131,
      "##ifa": 5132,
      "##cistan": 5133,
      "süren": 5134,
      "##efa": 5135,
      "##dılar": 5136,
      "##ica": 5137,
      "##teydi": 5138,
      "bank": 5139,
      "tarihleri": 5140,
      "##gue": 5141,
      "##ıma": 5142,
      "takımyıldızı": 5143,
      "etkili": 5144,
      "koşul": 5145,
      "##ındır": 5146,
      "dans": 5147,
      "çocuğu": 5148,
      "dolayısıyla": 5149,
      "i̇sviç": 5150,
      "görülür": 5151,
      "etkisi": 5152,
      "##hael": 5153,
      "kanıt": 5154,
      "##usal": 5155,
      "evli": 5156,
      "korun": 5157,
      "ahmet": 5158,
      "parlament": 5159,
      "##lediği": 5160,
      "##my": 5161,
      "##uri": 5162,
      "etme": 5163,
      "geçiş": 5164,
      "iy": 5165,
      "oluştu": 5166,
      "##esindeki": 5167,
      "##isa": 5168,
      "sağlar": 5169,
      "etmeye": 5170,
      "##taki": 5171,
      "kişisel": 5172,
      "mül": 5173,
      "##ef": 5174,
      "##raman": 5175,
      "##emin": 5176,
      "tom": 5177,
      "muhammed": 5178,
      "gelmektedir": 5179,
      "ölçüde": 5180,
      "i̇sviçre": 5181,
      "gökyüz": 5182,
      "kullanılmaktadır": 5183,
      "sabit": 5184,
      "inç": 5185,
      "denk": 5186,
      "enstitüsü": 5187,
      "pi": 5188,
      "mm": 5189,
      "gürcistan": 5190,
      "kör": 5191,
      "başta": 5192,
      "devrim": 5193,
      "üs": 5194,
      "mosk": 5195,
      "mekt": 5196,
      "kasab": 5197,
      "gümüş": 5198,
      "##enek": 5199,
      "kalı": 5200,
      "yılındaki": 5201,
      "beşik": 5202,
      "ir": 5203,
      "başkanlı": 5204,
      "##okal": 5205,
      "##yı": 5206,
      "##emektedir": 5207,
      "##bilecek": 5208,
      "yazılım": 5209,
      "fc": 5210,
      "##yar": 5211,
      "ettir": 5212,
      "tun": 5213,
      "kurtul": 5214,
      "##elerinin": 5215,
      "aslında": 5216,
      "ceza": 5217,
      "yetiştir": 5218,
      "çaplı": 5219,
      "##cil": 5220,
      "verilmiştir": 5221,
      "uefa": 5222,
      "finalde": 5223,
      "yenil": 5224,
      "##sam": 5225,
      "kapat": 5226,
      "açısından": 5227,
      "count": 5228,
      "##cret": 5229,
      "derne": 5230,
      "yerini": 5231,
      "krallığı": 5232,
      "sosyalist": 5233,
      "gizli": 5234,
      "bl": 5235,
      "evren": 5236,
      "birim": 5237,
      "##eld": 5238,
      "yeter": 5239,
      "kemal": 5240,
      "##mar": 5241,
      "gider": 5242,
      "güc": 5243,
      "söyler": 5244,
      "##rosu": 5245,
      "kahraman": 5246,
      "##say": 5247,
      "almış": 5248,
      "seviy": 5249,
      "##net": 5250,
      "bet": 5251,
      "düşünül": 5252,
      "kural": 5253,
      "##lenmesi": 5254,
      "ters": 5255,
      "##ood": 5256,
      "keşfedilmiştir": 5257,
      "##şte": 5258,
      "kararı": 5259,
      "oluşturur": 5260,
      "şehrinde": 5261,
      "ticari": 5262,
      "##pa": 5263,
      "lisesi": 5264,
      "iv": 5265,
      "takımın": 5266,
      "bina": 5267,
      "tel": 5268,
      "tutuk": 5269,
      "yarar": 5270,
      "unvan": 5271,
      "##udu": 5272,
      "enerj": 5273,
      "hüs": 5274,
      "filmde": 5275,
      "##erkes": 5276,
      "etkilen": 5277,
      "##teri": 5278,
      "festivali": 5279,
      "dönemin": 5280,
      "sivil": 5281,
      "kürt": 5282,
      "bla": 5283,
      "hac": 5284,
      "kullanılmıştır": 5285,
      "benim": 5286,
      "yemek": 5287,
      "dom": 5288,
      "etkinlik": 5289,
      "dalga": 5290,
      "öncesi": 5291,
      "paul": 5292,
      "jan": 5293,
      "işaret": 5294,
      "my": 5295,
      "##nan": 5296,
      "edin": 5297,
      "yetiş": 5298,
      "##mayan": 5299,
      "eylem": 5300,
      "bulunmuştur": 5301,
      "sınırları": 5302,
      "##ess": 5303,
      "##eyn": 5304,
      "hayatını": 5305,
      "james": 5306,
      "yasak": 5307,
      "teleskop": 5308,
      "##ise": 5309,
      "kaydet": 5310,
      "adamı": 5311,
      "görevini": 5312,
      "gitar": 5313,
      "##malar": 5314,
      "çatışma": 5315,
      "michael": 5316,
      "dizisi": 5317,
      "##ılacak": 5318,
      "programı": 5319,
      "karma": 5320,
      "kök": 5321,
      "##lamaktadır": 5322,
      "müziği": 5323,
      "wor": 5324,
      "david": 5325,
      "aktar": 5326,
      "moskova": 5327,
      "##elt": 5328,
      "metin": 5329,
      "yavaş": 5330,
      "##yası": 5331,
      "yüzden": 5332,
      "##ney": 5333,
      "##ill": 5334,
      "sm": 5335,
      "dışı": 5336,
      "robert": 5337,
      "##raz": 5338,
      "süt": 5339,
      "ins": 5340,
      "hers": 5341,
      "üretilen": 5342,
      "kutsal": 5343,
      "i̇rlanda": 5344,
      "alf": 5345,
      "##lerce": 5346,
      "cer": 5347,
      "##cilik": 5348,
      "cumhurbaşkanı": 5349,
      "##bistan": 5350,
      "uzman": 5351,
      "hala": 5352,
      "far": 5353,
      "kütüp": 5354,
      "uçuş": 5355,
      "jack": 5356,
      "##lığına": 5357,
      "vermiştir": 5358,
      "##avut": 5359,
      "##antin": 5360,
      "neredeyse": 5361,
      "##ündeki": 5362,
      "lev": 5363,
      "şöyle": 5364,
      "rekor": 5365,
      "takımında": 5366,
      "##amaz": 5367,
      "##ıştır": 5368,
      "##madı": 5369,
      "arj": 5370,
      "##çisi": 5371,
      "muhaf": 5372,
      "çay": 5373,
      "belli": 5374,
      "hâl": 5375,
      "##amaya": 5376,
      "beşiktaş": 5377,
      "##rat": 5378,
      "serv": 5379,
      "şair": 5380,
      "##omatik": 5381,
      "orada": 5382,
      "##che": 5383,
      "##doğu": 5384,
      "koruma": 5385,
      "teknoloj": 5386,
      "##ny": 5387,
      "zaf": 5388,
      "##asya": 5389,
      "derec": 5390,
      "##pt": 5391,
      "##ester": 5392,
      "yayınladı": 5393,
      "##dit": 5394,
      "tehlik": 5395,
      "kapas": 5396,
      "basit": 5397,
      "##anlar": 5398,
      "rak": 5399,
      "mevcuttur": 5400,
      "özer": 5401,
      "dokuz": 5402,
      "oynan": 5403,
      "dini": 5404,
      "##no": 5405,
      "##sas": 5406,
      "üyeleri": 5407,
      "bitk": 5408,
      "##au": 5409,
      "açıklama": 5410,
      "##gor": 5411,
      "sağlayan": 5412,
      "arnavut": 5413,
      "öğretim": 5414,
      "taşım": 5415,
      "##sim": 5416,
      "yapılmış": 5417,
      "zarar": 5418,
      "giren": 5419,
      "mesaf": 5420,
      "county": 5421,
      "##tiğini": 5422,
      "düşman": 5423,
      "alınan": 5424,
      "##ling": 5425,
      "paylaş": 5426,
      "bursa": 5427,
      "denir": 5428,
      "flor": 5429,
      "dram": 5430,
      "yaşadığı": 5431,
      "günlük": 5432,
      "kültürel": 5433,
      "geçirdi": 5434,
      "yapılır": 5435,
      "##ılığı": 5436,
      "okyan": 5437,
      "##dat": 5438,
      "otomobil": 5439,
      "##üyor": 5440,
      "we": 5441,
      "kuzeyinde": 5442,
      "sert": 5443,
      "kişiler": 5444,
      "baskı": 5445,
      "niş": 5446,
      "tir": 5447,
      "rahat": 5448,
      "gelecek": 5449,
      "fiziksel": 5450,
      "lı": 5451,
      "boğaz": 5452,
      "çer": 5453,
      "los": 5454,
      "bazıları": 5455,
      "bura": 5456,
      "yönetic": 5457,
      "##tidar": 5458,
      "##bm": 5459,
      "götür": 5460,
      "hafif": 5461,
      "##pek": 5462,
      "##ati": 5463,
      "##ille": 5464,
      "oynadığı": 5465,
      "##car": 5466,
      "tal": 5467,
      "##ano": 5468,
      "sözleşme": 5469,
      "onay": 5470,
      "##başı": 5471,
      "komş": 5472,
      "nün": 5473,
      "inc": 5474,
      "##ult": 5475,
      "i̇dar": 5476,
      "şun": 5477,
      "sürüm": 5478,
      "akım": 5479,
      "##ola": 5480,
      "katalog": 5481,
      "leh": 5482,
      "fre": 5483,
      "fikir": 5484,
      "sonradan": 5485,
      "##ice": 5486,
      "antr": 5487,
      "##şı": 5488,
      "kemer": 5489,
      "akdeniz": 5490,
      "##lıdır": 5491,
      "##amış": 5492,
      "arjantin": 5493,
      "teslim": 5494,
      "fr": 5495,
      "ulaştı": 5496,
      "##ceği": 5497,
      "ray": 5498,
      "belç": 5499,
      "egemen": 5500,
      "şarkının": 5501,
      "##ruz": 5502,
      "sorumlu": 5503,
      "dep": 5504,
      "içindeki": 5505,
      "sup": 5506,
      "ölmüştür": 5507,
      "ukrayna": 5508,
      "odak": 5509,
      "wh": 5510,
      "ceph": 5511,
      "##ucu": 5512,
      "evr": 5513,
      "##ükle": 5514,
      "baba": 5515,
      "kullanımı": 5516,
      "sınıflandır": 5517,
      "almak": 5518,
      "kod": 5519,
      "onları": 5520,
      "##cının": 5521,
      "fifa": 5522,
      "içine": 5523,
      "konfer": 5524,
      "selç": 5525,
      "isyan": 5526,
      "##ld": 5527,
      "tuz": 5528,
      "##liğin": 5529,
      "teşk": 5530,
      "otur": 5531,
      "kaynağı": 5532,
      "kökenli": 5533,
      "çekir": 5534,
      "i̇lçenin": 5535,
      "kendine": 5536,
      "telefon": 5537,
      "kans": 5538,
      "##ât": 5539,
      "heykel": 5540,
      "ekonomi": 5541,
      "##imli": 5542,
      "ağırlık": 5543,
      "aracılığı": 5544,
      "seviye": 5545,
      "tartış": 5546,
      "##gre": 5547,
      "##düğü": 5548,
      "takımının": 5549,
      "oluşturul": 5550,
      "bitki": 5551,
      "ücret": 5552,
      "yarışma": 5553,
      "çalışmalar": 5554,
      "pla": 5555,
      "sağlamak": 5556,
      "ur": 5557,
      "kulübünde": 5558,
      "hükûmeti": 5559,
      "##çak": 5560,
      "yerde": 5561,
      "teşkil": 5562,
      "düşünce": 5563,
      "belediyesi": 5564,
      "cal": 5565,
      "ic": 5566,
      "genelde": 5567,
      "rec": 5568,
      "silahlı": 5569,
      "lan": 5570,
      "yayımlanan": 5571,
      "##fat": 5572,
      "bilinmektedir": 5573,
      "şampiyonu": 5574,
      "##yasal": 5575,
      "nu": 5576,
      "##oft": 5577,
      "##ştan": 5578,
      "ces": 5579,
      "##ius": 5580,
      "britanya": 5581,
      "çapında": 5582,
      "yardımcısı": 5583,
      "air": 5584,
      "muhtem": 5585,
      "##aladı": 5586,
      "##isiyle": 5587,
      "lid": 5588,
      "kilise": 5589,
      "tören": 5590,
      "işlev": 5591,
      "##ski": 5592,
      "div": 5593,
      "bölün": 5594,
      "ölümünden": 5595,
      "başlarında": 5596,
      "olmadığı": 5597,
      "altyap": 5598,
      "family": 5599,
      "kullanıldı": 5600,
      "öğrenc": 5601,
      "terim": 5602,
      "lak": 5603,
      "araya": 5604,
      "##imiz": 5605,
      "bill": 5606,
      "frank": 5607,
      "prob": 5608,
      "göstermektedir": 5609,
      "cid": 5610,
      "henüz": 5611,
      "lerin": 5612,
      "ez": 5613,
      "yaptır": 5614,
      "hakkı": 5615,
      "moğ": 5616,
      "##ford": 5617,
      "gücü": 5618,
      "wal": 5619,
      "açtı": 5620,
      "esas": 5621,
      "cas": 5622,
      "rö": 5623,
      "maden": 5624,
      "##wn": 5625,
      "atandı": 5626,
      "##isar": 5627,
      "##ife": 5628,
      "sektör": 5629,
      "topluluk": 5630,
      "##çev": 5631,
      "sebebiyle": 5632,
      "fu": 5633,
      "davranış": 5634,
      "##ınar": 5635,
      "babasının": 5636,
      "dönüştür": 5637,
      "##ington": 5638,
      "phil": 5639,
      "vokal": 5640,
      "bilgiler": 5641,
      "##daly": 5642,
      "sağladı": 5643,
      "##erler": 5644,
      "ca": 5645,
      "##rop": 5646,
      "cinsel": 5647,
      "##çu": 5648,
      "##olik": 5649,
      "antal": 5650,
      "gökyüzünde": 5651,
      "##lemi": 5652,
      "kole": 5653,
      "##ırım": 5654,
      "kanat": 5655,
      "kilisesi": 5656,
      "##bel": 5657,
      "endüstr": 5658,
      "açıl": 5659,
      "üz": 5660,
      "##ida": 5661,
      "ekran": 5662,
      "ilgi": 5663,
      "yapısı": 5664,
      "##ayıf": 5665,
      "rich": 5666,
      "##iyade": 5667,
      "sanayi": 5668,
      "araz": 5669,
      "katılan": 5670,
      "başarısız": 5671,
      "##ani": 5672,
      "iktidar": 5673,
      "derneği": 5674,
      "bos": 5675,
      "kılı": 5676,
      "vad": 5677,
      "tank": 5678,
      "birinc": 5679,
      "##tılı": 5680,
      "türkmen": 5681,
      "akıl": 5682,
      "kilomet": 5683,
      "yükseldi": 5684,
      "##cası": 5685,
      "##tte": 5686,
      "güreş": 5687,
      "özerk": 5688,
      "güncel": 5689,
      "biçimde": 5690,
      "muha": 5691,
      "akademisi": 5692,
      "##elerde": 5693,
      "alanda": 5694,
      "kazak": 5695,
      "platform": 5696,
      "ayrıl": 5697,
      "zayıf": 5698,
      "##lardaki": 5699,
      "hasta": 5700,
      "##dıktan": 5701,
      "##liler": 5702,
      "oyunları": 5703,
      "şart": 5704,
      "plak": 5705,
      "##üstü": 5706,
      "iletiş": 5707,
      "atom": 5708,
      "brezilya": 5709,
      "ilçesi": 5710,
      "insanların": 5711,
      "öde": 5712,
      "katı": 5713,
      "kâ": 5714,
      "mağlu": 5715,
      "nüfusunun": 5716,
      "##abet": 5717,
      "gezeg": 5718,
      "internet": 5719,
      "ange": 5720,
      "ır": 5721,
      "kart": 5722,
      "yayımlandı": 5723,
      "micros": 5724,
      "dis": 5725,
      "##mişlerdir": 5726,
      "##ela": 5727,
      "##malı": 5728,
      "ndeki": 5729,
      "denet": 5730,
      "dipl": 5731,
      "##asi": 5732,
      "prote": 5733,
      "pir": 5734,
      "anti": 5735,
      "##lili": 5736,
      "##don": 5737,
      "##ilerde": 5738,
      "oranı": 5739,
      "peter": 5740,
      "##mur": 5741,
      "malzem": 5742,
      "teleskopla": 5743,
      "yoluyla": 5744,
      "askerî": 5745,
      "belge": 5746,
      "##kân": 5747,
      "hükümet": 5748,
      "##leyman": 5749,
      "dük": 5750,
      "geril": 5751,
      "oluşmaktadır": 5752,
      "bara": 5753,
      "sy": 5754,
      "##lığa": 5755,
      "makine": 5756,
      "##ısal": 5757,
      "hapis": 5758,
      "fe": 5759,
      "##ğan": 5760,
      "##iro": 5761,
      "onur": 5762,
      "edilmesi": 5763,
      "##atistik": 5764,
      "##var": 5765,
      "sig": 5766,
      "ilgilen": 5767,
      "macaristan": 5768,
      "##lenin": 5769,
      "ag": 5770,
      "tane": 5771,
      "çizgi": 5772,
      "büyükel": 5773,
      "kalmıştır": 5774,
      "bomb": 5775,
      "alex": 5776,
      "##hal": 5777,
      "dos": 5778,
      "##öz": 5779,
      "vek": 5780,
      "dost": 5781,
      "havalim": 5782,
      "##üny": 5783,
      "##bey": 5784,
      "eseri": 5785,
      "yapmaya": 5786,
      "lab": 5787,
      "müzesi": 5788,
      "eleme": 5789,
      "müdürlüğü": 5790,
      "tüket": 5791,
      "sivas": 5792,
      "artır": 5793,
      "##lemesi": 5794,
      "mel": 5795,
      "klip": 5796,
      "norveç": 5797,
      "##bar": 5798,
      "toplamda": 5799,
      "##ima": 5800,
      "city": 5801,
      "süleyman": 5802,
      "istem": 5803,
      "##ena": 5804,
      "##los": 5805,
      "est": 5806,
      "sayılı": 5807,
      "fars": 5808,
      "##ruk": 5809,
      "eyaleti": 5810,
      "listesinde": 5811,
      "ork": 5812,
      "yaşan": 5813,
      "öldürül": 5814,
      "##atürk": 5815,
      "##layıcı": 5816,
      "arapça": 5817,
      "##use": 5818,
      "##bet": 5819,
      "çalışmaya": 5820,
      "##yetik": 5821,
      "büyüm": 5822,
      "tren": 5823,
      "gam": 5824,
      "##ps": 5825,
      "hab": 5826,
      "aşk": 5827,
      "oluştuğu": 5828,
      "##ple": 5829,
      "molek": 5830,
      "aşırı": 5831,
      "arada": 5832,
      "oluşturan": 5833,
      "konstan": 5834,
      "bon": 5835,
      "##dim": 5836,
      "geçmektedir": 5837,
      "medya": 5838,
      "##ish": 5839,
      "sekret": 5840,
      "##ğünü": 5841,
      "güneyinde": 5842,
      "gerekli": 5843,
      "##mo": 5844,
      "##ılımı": 5845,
      "dışişleri": 5846,
      "hel": 5847,
      "atatürk": 5848,
      "yere": 5849,
      "fransızca": 5850,
      "##mamış": 5851,
      "##ague": 5852,
      "hasan": 5853,
      "teklif": 5854,
      "##sika": 5855,
      "üstün": 5856,
      "lou": 5857,
      "tesis": 5858,
      "soğuk": 5859,
      "sürec": 5860,
      "tartışma": 5861,
      "##rafik": 5862,
      "##rahim": 5863,
      "ilet": 5864,
      "kayded": 5865,
      "kimyasal": 5866,
      "ihtiyaç": 5867,
      "civarında": 5868,
      "mün": 5869,
      "thom": 5870,
      "girişim": 5871,
      "bunlardan": 5872,
      "anne": 5873,
      "atı": 5874,
      "olmadığını": 5875,
      "emekli": 5876,
      "lin": 5877,
      "##ayla": 5878,
      "başv": 5879,
      "getirildi": 5880,
      "##kale": 5881,
      "durdur": 5882,
      "##birliği": 5883,
      "karadeniz": 5884,
      "ertesi": 5885,
      "ressam": 5886,
      "listesi": 5887,
      "##leyerek": 5888,
      "başlamış": 5889,
      "köş": 5890,
      "finans": 5891,
      "vaz": 5892,
      "##mekteydi": 5893,
      "##ecektir": 5894,
      "##alandı": 5895,
      "##tepe": 5896,
      "tır": 5897,
      "##gon": 5898,
      "kasaba": 5899,
      "##irler": 5900,
      "jon": 5901,
      "pozisyonunda": 5902,
      "##ori": 5903,
      "##şi": 5904,
      "hareketi": 5905,
      "buldu": 5906,
      "esn": 5907,
      "microsoft": 5908,
      "##stein": 5909,
      "##lendiği": 5910,
      "george": 5911,
      "sene": 5912,
      "lerde": 5913,
      "tez": 5914,
      "fay": 5915,
      "ph": 5916,
      "yapar": 5917,
      "oyunun": 5918,
      "bask": 5919,
      "mavi": 5920,
      "filminde": 5921,
      "yaptık": 5922,
      "operasyon": 5923,
      "konseyi": 5924,
      "sıcaklık": 5925,
      "varlık": 5926,
      "##ılıp": 5927,
      "tbm": 5928,
      "müzi": 5929,
      "##imark": 5930,
      "milliyet": 5931,
      "##sü": 5932,
      "sıv": 5933,
      "##larıdır": 5934,
      "nükle": 5935,
      "danimark": 5936,
      "hek": 5937,
      "harf": 5938,
      "gölü": 5939,
      "aracılığıyla": 5940,
      "##cin": 5941,
      "tbmm": 5942,
      "cis": 5943,
      "##çesi": 5944,
      "eserleri": 5945,
      "##so": 5946,
      "kadro": 5947,
      "yayınlan": 5948,
      "yılda": 5949,
      "ze": 5950,
      "bölgesine": 5951,
      "##leyici": 5952,
      "seçimleri": 5953,
      "kütle": 5954,
      "petrol": 5955,
      "üretimi": 5956,
      "##eyin": 5957,
      "##köy": 5958,
      "halkı": 5959,
      "hakları": 5960,
      "galib": 5961,
      "ndaki": 5962,
      "##ullah": 5963,
      "depr": 5964,
      "insanlar": 5965,
      "##unlu": 5966,
      "başlıca": 5967,
      "yüzünden": 5968,
      "lideri": 5969,
      "dolar": 5970,
      "olduğuna": 5971,
      "##lemeye": 5972,
      "##lerindeki": 5973,
      "kaybetti": 5974,
      "##own": 5975,
      "büny": 5976,
      "##desi": 5977,
      "##chel": 5978,
      "onların": 5979,
      "##ward": 5980,
      "venedik": 5981,
      "##ami": 5982,
      "cad": 5983,
      "gec": 5984,
      "verilir": 5985,
      "bölgenin": 5986,
      "erkekler": 5987,
      "##ulur": 5988,
      "komisyon": 5989,
      "gerekir": 5990,
      "muharebesi": 5991,
      "##isti": 5992,
      "bür": 5993,
      "##eyle": 5994,
      "##geç": 5995,
      "haft": 5996,
      "öğrenci": 5997,
      "##caktır": 5998,
      "maçına": 5999,
      "danış": 6000,
      "organizasyon": 6001,
      "yaparak": 6002,
      "yüzölçümü": 6003,
      "##amet": 6004,
      "kolek": 6005,
      "adım": 6006,
      "hidro": 6007,
      "##ker": 6008,
      "müda": 6009,
      "kalın": 6010,
      "gay": 6011,
      "kelime": 6012,
      "star": 6013,
      "çözüm": 6014,
      "yanlış": 6015,
      "olduğundan": 6016,
      "çiçek": 6017,
      "taht": 6018,
      "##liğinden": 6019,
      "world": 6020,
      "haçlı": 6021,
      "manas": 6022,
      "nev": 6023,
      "karşın": 6024,
      "yandan": 6025,
      "##ational": 6026,
      "##uth": 6027,
      "por": 6028,
      "##edr": 6029,
      "##istin": 6030,
      "karab": 6031,
      "##âh": 6032,
      "ağı": 6033,
      "##kim": 6034,
      "##luğunu": 6035,
      "adası": 6036,
      "##uel": 6037,
      "ilinde": 6038,
      "##gör": 6039,
      "seya": 6040,
      "makale": 6041,
      "##old": 6042,
      "biraz": 6043,
      "tablo": 6044,
      "##asıdır": 6045,
      "##yolu": 6046,
      "kentinde": 6047,
      "kraliyet": 6048,
      "diyar": 6049,
      "yaprak": 6050,
      "belçika": 6051,
      "##fak": 6052,
      "war": 6053,
      "##iklet": 6054,
      "beşinci": 6055,
      "çanak": 6056,
      "gösterdi": 6057,
      "va": 6058,
      "çizg": 6059,
      "##ceğini": 6060,
      "meksika": 6061,
      "lov": 6062,
      "kos": 6063,
      "tahta": 6064,
      "bölgesel": 6065,
      "konstantin": 6066,
      "reak": 6067,
      "bulgaristan": 6068,
      "det": 6069,
      "yıldır": 6070,
      "rest": 6071,
      "efendi": 6072,
      "kuy": 6073,
      "strate": 6074,
      "demokratik": 6075,
      "uça": 6076,
      "geçici": 6077,
      "rüt": 6078,
      "önünde": 6079,
      "max": 6080,
      "nedeni": 6081,
      "zır": 6082,
      "##batı": 6083,
      "talep": 6084,
      "charles": 6085,
      "sahipliği": 6086,
      "milletvekil": 6087,
      "##ann": 6088,
      "erzurum": 6089,
      "göm": 6090,
      "asit": 6091,
      "baraj": 6092,
      "önceleri": 6093,
      "kafk": 6094,
      "amatör": 6095,
      "ide": 6096,
      "etmesi": 6097,
      "müzisyen": 6098,
      "efsan": 6099,
      "özelliği": 6100,
      "##tez": 6101,
      "başlangıçta": 6102,
      "##cer": 6103,
      "içeri": 6104,
      "görülen": 6105,
      "yir": 6106,
      "komutanı": 6107,
      "off": 6108,
      "adlandırılan": 6109,
      "pos": 6110,
      "##vin": 6111,
      "dij": 6112,
      "adalet": 6113,
      "seyahat": 6114,
      "evlilik": 6115,
      "ciddi": 6116,
      "karay": 6117,
      "depo": 6118,
      "başbakan": 6119,
      "birden": 6120,
      "çerçev": 6121,
      "katolik": 6122,
      "##day": 6123,
      "halka": 6124,
      "büyü": 6125,
      "maked": 6126,
      "hint": 6127,
      "kadros": 6128,
      "sir": 6129,
      "sad": 6130,
      "giden": 6131,
      "i̇brahim": 6132,
      "mütte": 6133,
      "döv": 6134,
      "balkan": 6135,
      "komşu": 6136,
      "genişlet": 6137,
      "festival": 6138,
      "elektronik": 6139,
      "tedavi": 6140,
      "hot": 6141,
      "aksine": 6142,
      "sw": 6143,
      "söylen": 6144,
      "adana": 6145,
      "bahsed": 6146,
      "hitler": 6147,
      "sanatçısı": 6148,
      "gerçekleştirilen": 6149,
      "anlay": 6150,
      "çağr": 6151,
      "çam": 6152,
      "zafer": 6153,
      "etkileş": 6154,
      "göv": 6155,
      "devre": 6156,
      "##bc": 6157,
      "##ited": 6158,
      "karbon": 6159,
      "angeles": 6160,
      "belirtti": 6161,
      "##luğunda": 6162,
      "düğ": 6163,
      "##ole": 6164,
      "ast": 6165,
      "olas": 6166,
      "##larca": 6167,
      "##ira": 6168,
      "barındır": 6169,
      "mektup": 6170,
      "black": 6171,
      "arke": 6172,
      "evlendi": 6173,
      "çor": 6174,
      "laz": 6175,
      "##ja": 6176,
      "kolon": 6177,
      "mens": 6178,
      "koz": 6179,
      "##ott": 6180,
      "milyar": 6181,
      "##elerini": 6182,
      "kişidir": 6183,
      "##ser": 6184,
      "denizi": 6185,
      "nehir": 6186,
      "ms": 6187,
      "##idi": 6188,
      "gemi": 6189,
      "sırp": 6190,
      "müttefik": 6191,
      "##ülebilir": 6192,
      "eleştirmen": 6193,
      "kapsamında": 6194,
      "temiz": 6195,
      "##lanabilir": 6196,
      "karmaşık": 6197,
      "zırh": 6198,
      "sezonun": 6199,
      "manastır": 6200,
      "doğa": 6201,
      "##lon": 6202,
      "##koç": 6203,
      "ismini": 6204,
      "cami": 6205,
      "##ağa": 6206,
      "gereken": 6207,
      "giydi": 6208,
      "yaşındayken": 6209,
      "düzenli": 6210,
      "ul": 6211,
      "kalp": 6212,
      "oyunc": 6213,
      "gençlik": 6214,
      "tü": 6215,
      "##ıda": 6216,
      "merkezli": 6217,
      "taar": 6218,
      "günümüze": 6219,
      "hiss": 6220,
      "ların": 6221,
      "jean": 6222,
      "von": 6223,
      "dünyada": 6224,
      "mobil": 6225,
      "geçmiştir": 6226,
      "##kur": 6227,
      "##iel": 6228,
      "hatt": 6229,
      "##mit": 6230,
      "ortadan": 6231,
      "yunanca": 6232,
      "sürdü": 6233,
      "aşam": 6234,
      "takımına": 6235,
      "##bilmektedir": 6236,
      "giderek": 6237,
      "proje": 6238,
      "##sur": 6239,
      "vic": 6240,
      "olimpiyatları": 6241,
      "##ath": 6242,
      "düşür": 6243,
      "kullanılabilir": 6244,
      "##esto": 6245,
      "küresel": 6246,
      "##dağ": 6247,
      "şampiyonluğu": 6248,
      "konya": 6249,
      "##board": 6250,
      "##bilen": 6251,
      "olmaya": 6252,
      "ettiler": 6253,
      "seçilmiştir": 6254,
      "franc": 6255,
      "yaşadı": 6256,
      "##lit": 6257,
      "tı": 6258,
      "##amik": 6259,
      "etnik": 6260,
      "bölgeye": 6261,
      "dizisinde": 6262,
      "etik": 6263,
      "sonlarında": 6264,
      "etki": 6265,
      "parlak": 6266,
      "sözc": 6267,
      "sözcü": 6268,
      "finale": 6269,
      "pilot": 6270,
      "##mann": 6271,
      "kayıp": 6272,
      "sinem": 6273,
      "alp": 6274,
      "fig": 6275,
      "##tah": 6276,
      "##lerdeki": 6277,
      "grand": 6278,
      "oynayan": 6279,
      "hızla": 6280,
      "ilişkin": 6281,
      "##amadı": 6282,
      "dijital": 6283,
      "##ulları": 6284,
      "üyeliği": 6285,
      "federasyonu": 6286,
      "kullanan": 6287,
      "cov": 6288,
      "dizinin": 6289,
      "halkın": 6290,
      "aktiv": 6291,
      "moğol": 6292,
      "toplumsal": 6293,
      "##sak": 6294,
      "mür": 6295,
      "##elerinde": 6296,
      "tiyatrosu": 6297,
      "hazırlık": 6298,
      "aralarında": 6299,
      "problem": 6300,
      "riv": 6301,
      "vermektedir": 6302,
      "##abı": 6303,
      "record": 6304,
      "getirdi": 6305,
      "görevlendir": 6306,
      "çalıştır": 6307,
      "birbirine": 6308,
      "##liğinin": 6309,
      "antalya": 6310,
      "reddet": 6311,
      "alma": 6312,
      "gerektir": 6313,
      "meslek": 6314,
      "##imin": 6315,
      "şehirde": 6316,
      "gro": 6317,
      "##eceği": 6318,
      "kurucusu": 6319,
      "mikro": 6320,
      "opera": 6321,
      "##ıza": 6322,
      "yönetmenliğini": 6323,
      "set": 6324,
      "ikisi": 6325,
      "##süz": 6326,
      "vakf": 6327,
      "fet": 6328,
      "anlamı": 6329,
      "anim": 6330,
      "nö": 6331,
      "prof": 6332,
      "bugünkü": 6333,
      "girmiştir": 6334,
      "##bu": 6335,
      "federal": 6336,
      "birisi": 6337,
      "kütüphan": 6338,
      "##aza": 6339,
      "selçuklu": 6340,
      "milletler": 6341,
      "tarihsel": 6342,
      "cha": 6343,
      "çekildi": 6344,
      "chris": 6345,
      "##vik": 6346,
      "##bakır": 6347,
      "akış": 6348,
      "anlaşma": 6349,
      "##elere": 6350,
      "##by": 6351,
      "##olis": 6352,
      "nba": 6353,
      "anıt": 6354,
      "##rid": 6355,
      "##leyic": 6356,
      "başardı": 6357,
      "kupa": 6358,
      "antlaşması": 6359,
      "i̇skoç": 6360,
      "had": 6361,
      "##ure": 6362,
      "ediyor": 6363,
      "düştü": 6364,
      "sarmal": 6365,
      "##tep": 6366,
      "diyarbakır": 6367,
      "iklim": 6368,
      "antren": 6369,
      "kg": 6370,
      "günde": 6371,
      "nadir": 6372,
      "bec": 6373,
      "rüz": 6374,
      "çıkart": 6375,
      "bran": 6376,
      "durumunda": 6377,
      "best": 6378,
      "##laşma": 6379,
      "muhtemelen": 6380,
      "gra": 6381,
      "richard": 6382,
      "bitirdi": 6383,
      "kapı": 6384,
      "çub": 6385,
      "##mışlardır": 6386,
      "istedi": 6387,
      "koca": 6388,
      "mis": 6389,
      "##oslav": 6390,
      "altern": 6391,
      "davet": 6392,
      "ikin": 6393,
      "##tarı": 6394,
      "yaşanan": 6395,
      "yatırım": 6396,
      "çalışması": 6397,
      "semt": 6398,
      "##ılma": 6399,
      "edilebilir": 6400,
      "##que": 6401,
      "içi": 6402,
      "##eği": 6403,
      "kapasit": 6404,
      "önceden": 6405,
      "##sat": 6406,
      "kov": 6407,
      "##tt": 6408,
      "ayrılır": 6409,
      "vit": 6410,
      "sahil": 6411,
      "##feri": 6412,
      "##ald": 6413,
      "##vanya": 6414,
      "turizm": 6415,
      "zey": 6416,
      "##lüğünü": 6417,
      "##enler": 6418,
      "##gü": 6419,
      "##elendir": 6420,
      "##landığı": 6421,
      "tehdit": 6422,
      "##ome": 6423,
      "gram": 6424,
      "rütb": 6425,
      "##fez": 6426,
      "pri": 6427,
      "dergisi": 6428,
      "##uluğ": 6429,
      "bi": 6430,
      "ib": 6431,
      "jür": 6432,
      "ermenistan": 6433,
      "##ls": 6434,
      "galibiyet": 6435,
      "noktası": 6436,
      "başlık": 6437,
      "batısında": 6438,
      "nazi": 6439,
      "i̇lçe": 6440,
      "filistin": 6441,
      "parçacık": 6442,
      "##wood": 6443,
      "anah": 6444,
      "isten": 6445,
      "##ersiz": 6446,
      "voley": 6447,
      "yargı": 6448,
      "pre": 6449,
      "##tısı": 6450,
      "##ila": 6451,
      "##opa": 6452,
      "önde": 6453,
      "asist": 6454,
      "sabah": 6455,
      "hatır": 6456,
      "savaşın": 6457,
      "amaçlı": 6458,
      "##olf": 6459,
      "hırvat": 6460,
      "şehridir": 6461,
      "havalimanı": 6462,
      "vb": 6463,
      "##arya": 6464,
      "camii": 6465,
      "slov": 6466,
      "sergil": 6467,
      "hüseyin": 6468,
      "herkes": 6469,
      "viy": 6470,
      "##lemiştir": 6471,
      "ödülünü": 6472,
      "ettik": 6473,
      "ört": 6474,
      "kilometre": 6475,
      "lise": 6476,
      "##layıp": 6477,
      "##ilerinde": 6478,
      "doğusunda": 6479,
      "##ıyı": 6480,
      "dile": 6481,
      "alek": 6482,
      "nap": 6483,
      "seçimlerinde": 6484,
      "asıllı": 6485,
      "başkent": 6486,
      "analiz": 6487,
      "sayımı": 6488,
      "reform": 6489,
      "kırım": 6490,
      "kub": 6491,
      "i̇li": 6492,
      "takv": 6493,
      "liman": 6494,
      "serisi": 6495,
      "iletişim": 6496,
      "özgün": 6497,
      "istasyon": 6498,
      "his": 6499,
      "kendisinin": 6500,
      "salon": 6501,
      "bıraktı": 6502,
      "tedav": 6503,
      "cap": 6504,
      "##ulmuş": 6505,
      "seyir": 6506,
      "koleksiyon": 6507,
      "öykü": 6508,
      "nam": 6509,
      "geldiği": 6510,
      "çalışır": 6511,
      "##kender": 6512,
      "katıldığı": 6513,
      "fri": 6514,
      "ailesinin": 6515,
      "miss": 6516,
      "##mos": 6517,
      "zinc": 6518,
      "##rit": 6519,
      "##lığın": 6520,
      "stadyumu": 6521,
      "anayas": 6522,
      "rev": 6523,
      "##espor": 6524,
      "arttır": 6525,
      "zamanında": 6526,
      "yayınlanmıştır": 6527,
      "bron": 6528,
      "vermek": 6529,
      "aynalı": 6530,
      "körfez": 6531,
      "gerçekleşen": 6532,
      "reklam": 6533,
      "##ikal": 6534,
      "gören": 6535,
      "çıkardı": 6536,
      "##tip": 6537,
      "farklılık": 6538,
      "sporcu": 6539,
      "dor": 6540,
      "##way": 6541,
      "öldürüldü": 6542,
      "takımlar": 6543,
      "west": 6544,
      "karşılaştır": 6545,
      "##ilerden": 6546,
      "ru": 6547,
      "kast": 6548,
      "##emez": 6549,
      "azalt": 6550,
      "latin": 6551,
      "toplantı": 6552,
      "finland": 6553,
      "##tifak": 6554,
      "danimarka": 6555,
      "you": 6556,
      "rady": 6557,
      "gerektiğini": 6558,
      "babasıdır": 6559,
      "larda": 6560,
      "##ulmuştur": 6561,
      "almanca": 6562,
      "yarg": 6563,
      "##del": 6564,
      "sinir": 6565,
      "alk": 6566,
      "ulaşım": 6567,
      "yardımı": 6568,
      "çey": 6569,
      "süs": 6570,
      "kullanılarak": 6571,
      "##akya": 6572,
      "mesaj": 6573,
      "##ux": 6574,
      "tanr": 6575,
      "andre": 6576,
      "teknoloji": 6577,
      "yazılan": 6578,
      "##öre": 6579,
      "##tic": 6580,
      "##lerdi": 6581,
      "##uncu": 6582,
      "olumlu": 6583,
      "zam": 6584,
      "üretic": 6585,
      "##tle": 6586,
      "##alin": 6587,
      "dalında": 6588,
      "i̇skender": 6589,
      "esir": 6590,
      "elinde": 6591,
      "##ern": 6592,
      "avuk": 6593,
      "mahm": 6594,
      "##val": 6595,
      "faktör": 6596,
      "##ugh": 6597,
      "##bas": 6598,
      "mahallenin": 6599,
      "##gam": 6600,
      "##mamıştır": 6601,
      "taarruz": 6602,
      "rusça": 6603,
      "##chi": 6604,
      "potans": 6605,
      "##uml": 6606,
      "fos": 6607,
      "##bileceği": 6608,
      "çaba": 6609,
      "kapalı": 6610,
      "çağdaş": 6611,
      "##ft": 6612,
      "krist": 6613,
      "boyu": 6614,
      "rej": 6615,
      "pey": 6616,
      "##tain": 6617,
      "##memiş": 6618,
      "kalıntı": 6619,
      "##düs": 6620,
      "kok": 6621,
      "komedi": 6622,
      "eline": 6623,
      "alternatif": 6624,
      "çak": 6625,
      "numara": 6626,
      "aziz": 6627,
      "ec": 6628,
      "türleri": 6629,
      "dışarı": 6630,
      "rot": 6631,
      "ister": 6632,
      "adaları": 6633,
      "voleybol": 6634,
      "başlandı": 6635,
      "sonuna": 6636,
      "cel": 6637,
      "beğ": 6638,
      "eğil": 6639,
      "istifa": 6640,
      "modeli": 6641,
      "komitesi": 6642,
      "almaya": 6643,
      "bağış": 6644,
      "##alam": 6645,
      "imkân": 6646,
      "konuşma": 6647,
      "doğumlu": 6648,
      "##ks": 6649,
      "hattı": 6650,
      "gıda": 6651,
      "imzaladı": 6652,
      "mers": 6653,
      "kurumu": 6654,
      "dök": 6655,
      "zirv": 6656,
      "kimya": 6657,
      "##acağı": 6658,
      "halde": 6659,
      "united": 6660,
      "türüdür": 6661,
      "alfab": 6662,
      "i̇sa": 6663,
      "şeri": 6664,
      "kurtuluş": 6665,
      "##ülmüştür": 6666,
      "ekiplerinden": 6667,
      "##ydi": 6668,
      "##umsuz": 6669,
      "mehmed": 6670,
      "dağılım": 6671,
      "başkanlık": 6672,
      "birimi": 6673,
      "zamanla": 6674,
      "gerçekleşti": 6675,
      "yönetmeni": 6676,
      "##uvarı": 6677,
      "eskişehir": 6678,
      "ışı": 6679,
      "kalk": 6680,
      "oldukları": 6681,
      "##öğ": 6682,
      "köle": 6683,
      "stadyum": 6684,
      "##vir": 6685,
      "##ilenin": 6686,
      "##cy": 6687,
      "sıvı": 6688,
      "hoş": 6689,
      "##elli": 6690,
      "##tis": 6691,
      "oluşum": 6692,
      "yaşlı": 6693,
      "##cia": 6694,
      "halen": 6695,
      "##oto": 6696,
      "##ıldığında": 6697,
      "anton": 6698,
      "cil": 6699,
      "albümde": 6700,
      "henry": 6701,
      "post": 6702,
      "romalı": 6703,
      "kalesi": 6704,
      "##sch": 6705,
      "##gat": 6706,
      "öğrenciler": 6707,
      "taşındı": 6708,
      "##tro": 6709,
      "ram": 6710,
      "sokak": 6711,
      "zamanlarda": 6712,
      "billboard": 6713,
      "vas": 6714,
      "##inler": 6715,
      "isteyen": 6716,
      "tw": 6717,
      "atlet": 6718,
      "eksik": 6719,
      "topluluğu": 6720,
      "sezonunun": 6721,
      "şüp": 6722,
      "siyasal": 6723,
      "feth": 6724,
      "##pet": 6725,
      "rolü": 6726,
      "dağları": 6727,
      "teşvik": 6728,
      "gelişmiş": 6729,
      "benzeri": 6730,
      "farsça": 6731,
      "##leşme": 6732,
      "sezonda": 6733,
      "prodük": 6734,
      "uzan": 6735,
      "nükleer": 6736,
      "dergi": 6737,
      "i̇t": 6738,
      "all": 6739,
      "renkli": 6740,
      "ahmed": 6741,
      "##likleri": 6742,
      "romanya": 6743,
      "##areti": 6744,
      "nah": 6745,
      "edecek": 6746,
      "hil": 6747,
      "stratej": 6748,
      "finlandiya": 6749,
      "##erson": 6750,
      "kayıtlarında": 6751,
      "yörün": 6752,
      "birleşmiş": 6753,
      "aracı": 6754,
      "tipik": 6755,
      "##lanarak": 6756,
      "yug": 6757,
      "yasal": 6758,
      "##ence": 6759,
      "##iter": 6760,
      "bakımından": 6761,
      "temsilcisi": 6762,
      "müsab": 6763,
      "görülmektedir": 6764,
      "##memektedir": 6765,
      "##etin": 6766,
      "maça": 6767,
      "show": 6768,
      "adlandırılır": 6769,
      "thomas": 6770,
      "solo": 6771,
      "##rip": 6772,
      "büyükşehir": 6773,
      "valisi": 6774,
      "versiyonu": 6775,
      "sonuçlar": 6776,
      "bulut": 6777,
      "fas": 6778,
      "olanak": 6779,
      "beden": 6780,
      "performansı": 6781,
      "numaraya": 6782,
      "##ğünde": 6783,
      "records": 6784,
      "protesto": 6785,
      "##mail": 6786,
      "karakteri": 6787,
      "kn": 6788,
      "tepk": 6789,
      "müdaha": 6790,
      "demokrat": 6791,
      "king": 6792,
      "akademik": 6793,
      "şirketin": 6794,
      "saç": 6795,
      "varsay": 6796,
      "##vanı": 6797,
      "düzenleme": 6798,
      "yürüy": 6799,
      "##inç": 6800,
      "yaklaşım": 6801,
      "##mel": 6802,
      "league": 6803,
      "gönül": 6804,
      "##ücu": 6805,
      "##ush": 6806,
      "katılmıştır": 6807,
      "subay": 6808,
      "##iller": 6809,
      "mağlup": 6810,
      "##ding": 6811,
      "##lenmektedir": 6812,
      "##cın": 6813,
      "abdül": 6814,
      "köyde": 6815,
      "##lie": 6816,
      "olmadan": 6817,
      "nat": 6818,
      "yönettiği": 6819,
      "##ander": 6820,
      "kalma": 6821,
      "kazandır": 6822,
      "kont": 6823,
      "felsefe": 6824,
      "yaratı": 6825,
      "ailenin": 6826,
      "yazılmış": 6827,
      "imza": 6828,
      "##ys": 6829,
      "şeker": 6830,
      "cla": 6831,
      "sahipti": 6832,
      "##ero": 6833,
      "##uç": 6834,
      "kudüs": 6835,
      "ssc": 6836,
      "##i̇": 6837,
      "demiryolu": 6838,
      "şeyh": 6839,
      "özgü": 6840,
      "yolcu": 6841,
      "real": 6842,
      "len": 6843,
      "##şam": 6844,
      "martin": 6845,
      "oynamıştır": 6846,
      "zamanlar": 6847,
      "anlamda": 6848,
      "sha": 6849,
      "##cus": 6850,
      "##umb": 6851,
      "şans": 6852,
      "##iba": 6853,
      "##itik": 6854,
      "mülk": 6855,
      "##elerine": 6856,
      "parlamento": 6857,
      "başladığı": 6858,
      "ilaç": 6859,
      "altındaki": 6860,
      "oyunculuk": 6861,
      "önder": 6862,
      "yugoslav": 6863,
      "kullandığı": 6864,
      "dna": 6865,
      "yola": 6866,
      "##eph": 6867,
      "projesi": 6868,
      "idam": 6869,
      "##gur": 6870,
      "oyuncular": 6871,
      "##ilya": 6872,
      "anı": 6873,
      "toplu": 6874,
      "veril": 6875,
      "maruz": 6876,
      "disk": 6877,
      "edip": 6878,
      "yarımada": 6879,
      "şimdi": 6880,
      "kenti": 6881,
      "##orat": 6882,
      "alış": 6883,
      "##lığının": 6884,
      "kaçır": 6885,
      "##itler": 6886,
      "konferans": 6887,
      "rez": 6888,
      "##ever": 6889,
      "kesim": 6890,
      "köpek": 6891,
      "unsur": 6892,
      "yapımcı": 6893,
      "nur": 6894,
      "yetkil": 6895,
      "##işi": 6896,
      "##ilmesini": 6897,
      "duyurdu": 6898,
      "özellikler": 6899,
      "tarzı": 6900,
      "yirmi": 6901,
      "##otik": 6902,
      "sinyal": 6903,
      "takımları": 6904,
      "eğitimini": 6905,
      "banka": 6906,
      "##imet": 6907,
      "bakış": 6908,
      "şampiyonlar": 6909,
      "vüc": 6910,
      "onlara": 6911,
      "##gesi": 6912,
      "kenar": 6913,
      "piyan": 6914,
      "ilişkiler": 6915,
      "sembol": 6916,
      "örgütü": 6917,
      "yama": 6918,
      "##emiş": 6919,
      "yakınlarında": 6920,
      "sürdürdü": 6921,
      "felsef": 6922,
      "##ive": 6923,
      "ilişki": 6924,
      "##lılar": 6925,
      "kuruluşu": 6926,
      "suyu": 6927,
      "##gusal": 6928,
      "##ilmesine": 6929,
      "##seri": 6930,
      "görür": 6931,
      "juli": 6932,
      "person": 6933,
      "sırbistan": 6934,
      "röpor": 6935,
      "şam": 6936,
      "kullanır": 6937,
      "çekti": 6938,
      "birlikleri": 6939,
      "fayda": 6940,
      "lük": 6941,
      "çevresinde": 6942,
      "##ku": 6943,
      "akademi": 6944,
      "röportaj": 6945,
      "##ülük": 6946,
      "##uva": 6947,
      "##lığında": 6948,
      "vah": 6949,
      "vücut": 6950,
      "geliştirme": 6951,
      "turnuva": 6952,
      "gösterildi": 6953,
      "##ane": 6954,
      "viyana": 6955,
      "enter": 6956,
      "kanalı": 6957,
      "##illa": 6958,
      "dedi": 6959,
      "bisiklet": 6960,
      "som": 6961,
      "ty": 6962,
      "ayı": 6963,
      "bulundur": 6964,
      "big": 6965,
      "wash": 6966,
      "louis": 6967,
      "##ora": 6968,
      "kısı": 6969,
      "##mesinde": 6970,
      "afrik": 6971,
      "saint": 6972,
      "atina": 6973,
      "taşımaktadır": 6974,
      "goog": 6975,
      "yarım": 6976,
      "ligde": 6977,
      "blu": 6978,
      "gelişme": 6979,
      "##kür": 6980,
      "mich": 6981,
      "göka": 6982,
      "##ileştir": 6983,
      "bastır": 6984,
      "katkıda": 6985,
      "##lâ": 6986,
      "rakip": 6987,
      "piyade": 6988,
      "nüfusun": 6989,
      "pra": 6990,
      "hop": 6991,
      "dür": 6992,
      "grubunun": 6993,
      "fabrik": 6994,
      "sınıfı": 6995,
      "##çilik": 6996,
      "##ese": 6997,
      "lam": 6998,
      "yel": 6999,
      "ordusunun": 7000,
      "love": 7001,
      "yaşamaktadır": 7002,
      "karşılı": 7003,
      "madaly": 7004,
      "figür": 7005,
      "evlen": 7006,
      "şiş": 7007,
      "mahkemesi": 7008,
      "##liliği": 7009,
      "##oman": 7010,
      "avukat": 7011,
      "fatih": 7012,
      "şif": 7013,
      "##ştık": 7014,
      "ilişkili": 7015,
      "gezegen": 7016,
      "##ater": 7017,
      "sınırlı": 7018,
      "okyanus": 7019,
      "suy": 7020,
      "kulüplerinde": 7021,
      "oynamaktadır": 7022,
      "hayatta": 7023,
      "##ülasyon": 7024,
      "olaylar": 7025,
      "çök": 7026,
      "laborat": 7027,
      "ente": 7028,
      "sürede": 7029,
      "yetenek": 7030,
      "alınmıştır": 7031,
      "##leridir": 7032,
      "hikâye": 7033,
      "##türü": 7034,
      "coğrafi": 7035,
      "yazılı": 7036,
      "arz": 7037,
      "kısıt": 7038,
      "okudu": 7039,
      "manyetik": 7040,
      "##eceğini": 7041,
      "sonuçları": 7042,
      "mensup": 7043,
      "##güne": 7044,
      "yüzde": 7045,
      "çocukları": 7046,
      "cr": 7047,
      "malzeme": 7048,
      "##ilendir": 7049,
      "bra": 7050,
      "açıldı": 7051,
      "madrid": 7052,
      "google": 7053,
      "yakalan": 7054,
      "adayı": 7055,
      "lay": 7056,
      "kampan": 7057,
      "tıb": 7058,
      "ekibi": 7059,
      "bilimler": 7060,
      "ederken": 7061,
      "otob": 7062,
      "##rin": 7063,
      "romanı": 7064,
      "washington": 7065,
      "##zade": 7066,
      "##ston": 7067,
      "sıf": 7068,
      "kel": 7069,
      "kıt": 7070,
      "##esir": 7071,
      "##iyatı": 7072,
      "##tra": 7073,
      "değişken": 7074,
      "devrimi": 7075,
      "dava": 7076,
      "üyesidir": 7077,
      "devletin": 7078,
      "etrafında": 7079,
      "arab": 7080,
      "hacı": 7081,
      "apple": 7082,
      "sistemleri": 7083,
      "şampiyonluk": 7084,
      "gruba": 7085,
      "açılan": 7086,
      "sağlam": 7087,
      "vakfı": 7088,
      "mersin": 7089,
      "vurgu": 7090,
      "rob": 7091,
      "olağan": 7092,
      "##tre": 7093,
      "birer": 7094,
      "taban": 7095,
      "hastalı": 7096,
      "yeterli": 7097,
      "yönlendir": 7098,
      "rey": 7099,
      "hayatına": 7100,
      "kazı": 7101,
      "değeri": 7102,
      "bozuk": 7103,
      "##lası": 7104,
      "sakat": 7105,
      "sözcük": 7106,
      "bölümde": 7107,
      "chan": 7108,
      "##lemektedir": 7109,
      "gelmiş": 7110,
      "mahallesi": 7111,
      "##nu": 7112,
      "gazi": 7113,
      "##ımız": 7114,
      "hanedanı": 7115,
      "##itz": 7116,
      "müdürü": 7117,
      "##ois": 7118,
      "##ach": 7119,
      "araba": 7120,
      "bakan": 7121,
      "##ayarak": 7122,
      "##kır": 7123,
      "##ülür": 7124,
      "##imine": 7125,
      "org": 7126,
      "devletler": 7127,
      "görevine": 7128,
      "mezunu": 7129,
      "##ai": 7130,
      "kongr": 7131,
      "##urdu": 7132,
      "##üyordu": 7133,
      "refer": 7134,
      "inter": 7135,
      "istih": 7136,
      "bünyesinde": 7137,
      "kılıç": 7138,
      "soruml": 7139,
      "alanları": 7140,
      "miktarda": 7141,
      "düşünc": 7142,
      "bayrak": 7143,
      "herschel": 7144,
      "##lıklar": 7145,
      "##chester": 7146,
      "incelen": 7147,
      "müşt": 7148,
      "leon": 7149,
      "kayseri": 7150,
      "restor": 7151,
      "yetene": 7152,
      "##denin": 7153,
      "hum": 7154,
      "makam": 7155,
      "##esiz": 7156,
      "şov": 7157,
      "sergilen": 7158,
      "##ğiyle": 7159,
      "##abile": 7160,
      "giyen": 7161,
      "denklem": 7162,
      "çanakkale": 7163,
      "nih": 7164,
      "koç": 7165,
      "bağlıdır": 7166,
      "joseph": 7167,
      "##doğan": 7168,
      "balıkesir": 7169,
      "şunlardır": 7170,
      "tanınan": 7171,
      "geçirdiği": 7172,
      "eşlik": 7173,
      "murat": 7174,
      "numaralı": 7175,
      "kıyısında": 7176,
      "##steri": 7177,
      "gençler": 7178,
      "açıdan": 7179,
      "kullandı": 7180,
      "bağlantılar": 7181,
      "sarayı": 7182,
      "yanına": 7183,
      "sic": 7184,
      "tamamı": 7185,
      "##veren": 7186,
      "##dişah": 7187,
      "risk": 7188,
      "vücu": 7189,
      "anayasa": 7190,
      "jen": 7191,
      "tarihte": 7192,
      "gelin": 7193,
      "eğlen": 7194,
      "yans": 7195,
      "kaybed": 7196,
      "latince": 7197,
      "gazetec": 7198,
      "sına": 7199,
      "##rika": 7200,
      "oluşturulan": 7201,
      "nesil": 7202,
      "yakıt": 7203,
      "pasif": 7204,
      "ayar": 7205,
      "##malıdır": 7206,
      "##dun": 7207,
      "padişah": 7208,
      "çekil": 7209,
      "muk": 7210,
      "##tv": 7211,
      "süreli": 7212,
      "olmakla": 7213,
      "ötürü": 7214,
      "şer": 7215,
      "arnavutluk": 7216,
      "geçerek": 7217,
      "yed": 7218,
      "görsel": 7219,
      "rahatsız": 7220,
      "artan": 7221,
      "aug": 7222,
      "gökada": 7223,
      "köprü": 7224,
      "şarap": 7225,
      "##giller": 7226,
      "##leye": 7227,
      "let": 7228,
      "##diğinde": 7229,
      "esnasında": 7230,
      "##ılmasına": 7231,
      "senary": 7232,
      "çoğunluğu": 7233,
      "şen": 7234,
      "bayram": 7235,
      "##ned": 7236,
      "tarafında": 7237,
      "blok": 7238,
      "##bileceğini": 7239,
      "sip": 7240,
      "##lamadı": 7241,
      "edildiği": 7242,
      "##orth": 7243,
      "super": 7244,
      "karışık": 7245,
      "##dor": 7246,
      "##okul": 7247,
      "vik": 7248,
      "##ilerinden": 7249,
      "oluşturdu": 7250,
      "##án": 7251,
      "##onik": 7252,
      "roy": 7253,
      "one": 7254,
      "yit": 7255,
      "doldur": 7256,
      "korumak": 7257,
      "unvanını": 7258,
      "öyk": 7259,
      "takımlarından": 7260,
      "çekirdek": 7261,
      "##uke": 7262,
      "komutanlığı": 7263,
      "parale": 7264,
      "i̇smail": 7265,
      "hangi": 7266,
      "çuk": 7267,
      "papa": 7268,
      "inşaat": 7269,
      "sib": 7270,
      "gönderildi": 7271,
      "ihra": 7272,
      "ülkelerde": 7273,
      "##erken": 7274,
      "edir": 7275,
      "uğraş": 7276,
      "jackson": 7277,
      "soya": 7278,
      "##off": 7279,
      "kalkın": 7280,
      "##memiştir": 7281,
      "yönt": 7282,
      "öngör": 7283,
      "yükselt": 7284,
      "oluşturduğu": 7285,
      "otor": 7286,
      "iddi": 7287,
      "yapma": 7288,
      "hanım": 7289,
      "##liye": 7290,
      "antrenör": 7291,
      "##lenerek": 7292,
      "lee": 7293,
      "bağımsızlık": 7294,
      "fiyat": 7295,
      "tit": 7296,
      "türlü": 7297,
      "hakkındaki": 7298,
      "doktora": 7299,
      "wwe": 7300,
      "##field": 7301,
      "çıktığı": 7302,
      "parkı": 7303,
      "hy": 7304,
      "birisidir": 7305,
      "yapılmaktadır": 7306,
      "aktör": 7307,
      "katılımcı": 7308,
      "seçilen": 7309,
      "cevap": 7310,
      "belirgin": 7311,
      "başbakanı": 7312,
      "süreci": 7313,
      "cephesi": 7314,
      "##ilmeye": 7315,
      "çıkmış": 7316,
      "##sizlik": 7317,
      "koyu": 7318,
      "çelik": 7319,
      "##osunu": 7320,
      "hayal": 7321,
      "cumhurbaşkanlığı": 7322,
      "karıştır": 7323,
      "adının": 7324,
      "sn": 7325,
      "##ates": 7326,
      "nic": 7327,
      "cephe": 7328,
      "olumsuz": 7329,
      "gazeteci": 7330,
      "##con": 7331,
      "up": 7332,
      "##ılmasını": 7333,
      "bahçe": 7334,
      "wr": 7335,
      "aittir": 7336,
      "kısaca": 7337,
      "ameri": 7338,
      "##mey": 7339,
      "yaşar": 7340,
      "kongre": 7341,
      "tarihinin": 7342,
      "posta": 7343,
      "##ovi": 7344,
      "çalışmalarına": 7345,
      "konuk": 7346,
      "mimari": 7347,
      "karşılığında": 7348,
      "pu": 7349,
      "bankası": 7350,
      "vazgeç": 7351,
      "sisteminin": 7352,
      "süresi": 7353,
      "##antaj": 7354,
      "kalab": 7355,
      "düşünülmektedir": 7356,
      "##ılmasıyla": 7357,
      "##lamaz": 7358,
      "forması": 7359,
      "##urta": 7360,
      "##mamaktadır": 7361,
      "görüldü": 7362,
      "rekabet": 7363,
      "##lüğe": 7364,
      "frek": 7365,
      "sus": 7366,
      "francis": 7367,
      "atlan": 7368,
      "taşıma": 7369,
      "arş": 7370,
      "##tıcı": 7371,
      "##ary": 7372,
      "filmidir": 7373,
      "paralel": 7374,
      "sıklıkla": 7375,
      "öncesinde": 7376,
      "ürünleri": 7377,
      "üstlendi": 7378,
      "komutan": 7379,
      "##cat": 7380,
      "dub": 7381,
      "senesinde": 7382,
      "turu": 7383,
      "makedonya": 7384,
      "anahtar": 7385,
      "imzalan": 7386,
      "değildi": 7387,
      "karısı": 7388,
      "yakal": 7389,
      "afgan": 7390,
      "memur": 7391,
      "##meli": 7392,
      "birik": 7393,
      "yansı": 7394,
      "aray": 7395,
      "ikili": 7396,
      "ışın": 7397,
      "ısı": 7398,
      "sün": 7399,
      "christ": 7400,
      "pozit": 7401,
      "suik": 7402,
      "tatlı": 7403,
      "edward": 7404,
      "senaryo": 7405,
      "rok": 7406,
      "##bilim": 7407,
      "##ordin": 7408,
      "##ulması": 7409,
      "##ısındaki": 7410,
      "bosna": 7411,
      "paket": 7412,
      "##cher": 7413,
      "ov": 7414,
      "olacaktır": 7415,
      "bez": 7416,
      "##mediği": 7417,
      "değişim": 7418,
      "güneydoğu": 7419,
      "karanlık": 7420,
      "kapan": 7421,
      "protein": 7422,
      "terör": 7423,
      "nem": 7424,
      "bölgedeki": 7425,
      "göreve": 7426,
      "ayrılmıştır": 7427,
      "dosya": 7428,
      "ortasında": 7429,
      "##ds": 7430,
      "##fan": 7431,
      "yağış": 7432,
      "belde": 7433,
      "yenilen": 7434,
      "tabi": 7435,
      "reaksiyon": 7436,
      "##bs": 7437,
      "gövde": 7438,
      "çekim": 7439,
      "yönetilen": 7440,
      "müze": 7441,
      "akra": 7442,
      "cema": 7443,
      "uzat": 7444,
      "##ota": 7445,
      "kuram": 7446,
      "ırk": 7447,
      "önüne": 7448,
      "saniye": 7449,
      "merkezinde": 7450,
      "##dükten": 7451,
      "emin": 7452,
      "idare": 7453,
      "uyan": 7454,
      "gazetesi": 7455,
      "darb": 7456,
      "##cr": 7457,
      "##astik": 7458,
      "##iskop": 7459,
      "füz": 7460,
      "araştırmalar": 7461,
      "açıklandı": 7462,
      "mercek": 7463,
      "tapın": 7464,
      "##bor": 7465,
      "i̇d": 7466,
      "vez": 7467,
      "acı": 7468,
      "music": 7469,
      "##mektir": 7470,
      "##oyu": 7471,
      "altıncı": 7472,
      "##cas": 7473,
      "geliştirilen": 7474,
      "gor": 7475,
      "türkç": 7476,
      "artış": 7477,
      "tüy": 7478,
      "##pi": 7479,
      "litvanya": 7480,
      "yöntemi": 7481,
      "baskın": 7482,
      "binası": 7483,
      "molekül": 7484,
      "buff": 7485,
      "yazılmıştır": 7486,
      "dayalı": 7487,
      "esin": 7488,
      "kaydetti": 7489,
      "durumlarda": 7490,
      "göstermiştir": 7491,
      "evi": 7492,
      "atmos": 7493,
      "tanınmış": 7494,
      "ömer": 7495,
      "kaptan": 7496,
      "bölgesinin": 7497,
      "yazmıştır": 7498,
      "nesn": 7499,
      "gazian": 7500,
      "##olojisi": 7501,
      "gaziantep": 7502,
      "##tek": 7503,
      "##eryal": 7504,
      "uzanan": 7505,
      "unvanı": 7506,
      "ortod": 7507,
      "##yu": 7508,
      "otomatik": 7509,
      "kamera": 7510,
      "zehir": 7511,
      "##içe": 7512,
      "koordin": 7513,
      "gruplar": 7514,
      "aya": 7515,
      "##opolis": 7516,
      "sırt": 7517,
      "cenaz": 7518,
      "cat": 7519,
      "sürüldü": 7520,
      "##elerden": 7521,
      "kendilerini": 7522,
      "denilen": 7523,
      "yitir": 7524,
      "mük": 7525,
      "köylü": 7526,
      "bayra": 7527,
      "danışman": 7528,
      "cinayet": 7529,
      "eserler": 7530,
      "diplom": 7531,
      "##ory": 7532,
      "dayanan": 7533,
      "emr": 7534,
      "potansiyel": 7535,
      "gil": 7536,
      "kalır": 7537,
      "kısmen": 7538,
      "zih": 7539,
      "bronz": 7540,
      "##etiyle": 7541,
      "ettiğini": 7542,
      "pul": 7543,
      "##ilerle": 7544,
      "göçmen": 7545,
      "##igh": 7546,
      "tatar": 7547,
      "mekaniz": 7548,
      "yiye": 7549,
      "komplek": 7550,
      "##sem": 7551,
      "##ikleri": 7552,
      "##rian": 7553,
      "bölümünü": 7554,
      "##zan": 7555,
      "##iki": 7556,
      "karşılaştı": 7557,
      "selim": 7558,
      "##aklı": 7559,
      "##low": 7560,
      "##hel": 7561,
      "ege": 7562,
      "##iti": 7563,
      "meyve": 7564,
      "imzal": 7565,
      "ölümüne": 7566,
      "##acaktır": 7567,
      "alet": 7568,
      "beyin": 7569,
      "servis": 7570,
      "dağılımı": 7571,
      "akın": 7572,
      "yenilg": 7573,
      "gösteri": 7574,
      "kurban": 7575,
      "trt": 7576,
      "tasvir": 7577,
      "çeyrek": 7578,
      "sas": 7579,
      "ederler": 7580,
      "##lez": 7581,
      "hasar": 7582,
      "birinin": 7583,
      "sürümü": 7584,
      "derecede": 7585,
      "cd": 7586,
      "##unk": 7587,
      "##abilen": 7588,
      "kastam": 7589,
      "yapılması": 7590,
      "etkileri": 7591,
      "zira": 7592,
      "öv": 7593,
      "##ğunda": 7594,
      "maçın": 7595,
      "olduktan": 7596,
      "##makla": 7597,
      "vergi": 7598,
      "attığı": 7599,
      "##dere": 7600,
      "işletim": 7601,
      "yayımladı": 7602,
      "okum": 7603,
      "ortodoks": 7604,
      "dizide": 7605,
      "mühendisliği": 7606,
      "ceb": 7607,
      "piş": 7608,
      "darbe": 7609,
      "aileden": 7610,
      "kristal": 7611,
      "##tak": 7612,
      "##bola": 7613,
      "##ns": 7614,
      "##lub": 7615,
      "jim": 7616,
      "kısmında": 7617,
      "kimi": 7618,
      "editör": 7619,
      "##oth": 7620,
      "kısmını": 7621,
      "##ben": 7622,
      "dey": 7623,
      "uygulan": 7624,
      "kanser": 7625,
      "istatistik": 7626,
      "desteği": 7627,
      "##alandır": 7628,
      "##onun": 7629,
      "teorisi": 7630,
      "edirne": 7631,
      "##çileri": 7632,
      "olmadı": 7633,
      "##dt": 7634,
      "evinde": 7635,
      "dolaş": 7636,
      "uzaklıkta": 7637,
      "kıta": 7638,
      "##yaspor": 7639,
      "güçlendir": 7640,
      "nitelendir": 7641,
      "##tim": 7642,
      "mid": 7643,
      "ölü": 7644,
      "uzunluğunda": 7645,
      "pin": 7646,
      "°c": 7647,
      "keşif": 7648,
      "çalışmalarını": 7649,
      "toprakları": 7650,
      "uydu": 7651,
      "yaşamış": 7652,
      "hayran": 7653,
      "müzikal": 7654,
      "##sky": 7655,
      "tour": 7656,
      "##arş": 7657,
      "##cal": 7658,
      "şekli": 7659,
      "ilişkileri": 7660,
      "okun": 7661,
      "partinin": 7662,
      "üste": 7663,
      "inti": 7664,
      "##ont": 7665,
      "##erv": 7666,
      "mali": 7667,
      "nar": 7668,
      "donanması": 7669,
      "angel": 7670,
      "sunucu": 7671,
      "kazakistan": 7672,
      "özgürlük": 7673,
      "##okulu": 7674,
      "komisyonu": 7675,
      "##ılmaya": 7676,
      "kade": 7677,
      "otel": 7678,
      "##das": 7679,
      "tabanlı": 7680,
      "bölgelerde": 7681,
      "aslan": 7682,
      "milletvekilliği": 7683,
      "##batısında": 7684,
      "verg": 7685,
      "grafik": 7686,
      "varlığı": 7687,
      "##sul": 7688,
      "başla": 7689,
      "##usuf": 7690,
      "yürür": 7691,
      "marka": 7692,
      "##ble": 7693,
      "ondan": 7694,
      "protok": 7695,
      "belgesel": 7696,
      "##isip": 7697,
      "##uyucu": 7698,
      "cinsiyet": 7699,
      "eskiden": 7700,
      "fabrika": 7701,
      "##vd": 7702,
      "nef": 7703,
      "##veriş": 7704,
      "##ikler": 7705,
      "##lenebilir": 7706,
      "sof": 7707,
      "yılların": 7708,
      "yerlerde": 7709,
      "##liğindeki": 7710,
      "görünt": 7711,
      "##türk": 7712,
      "çağı": 7713,
      "ülkesi": 7714,
      "manisa": 7715,
      "mevki": 7716,
      "yumurta": 7717,
      "yla": 7718,
      "alg": 7719,
      "inanç": 7720,
      "##bilmek": 7721,
      "hom": 7722,
      "biriydi": 7723,
      "isp": 7724,
      "##ûm": 7725,
      "##lal": 7726,
      "ölen": 7727,
      "terimi": 7728,
      "zincir": 7729,
      "sscb": 7730,
      "bakü": 7731,
      "konak": 7732,
      "kendilerine": 7733,
      "lad": 7734,
      "sebebi": 7735,
      "##ico": 7736,
      "tro": 7737,
      "tarihlerinde": 7738,
      "hür": 7739,
      "kazandığı": 7740,
      "kre": 7741,
      "olmasını": 7742,
      "##ón": 7743,
      "turda": 7744,
      "tac": 7745,
      "başarısı": 7746,
      "iptal": 7747,
      "görünüm": 7748,
      "karakterini": 7749,
      "##ğla": 7750,
      "yugoslavya": 7751,
      "şe": 7752,
      "uc": 7753,
      "victor": 7754,
      "##vel": 7755,
      "##uşu": 7756,
      "she": 7757,
      "yapıldığı": 7758,
      "ebu": 7759,
      "oksi": 7760,
      "bakır": 7761,
      "if": 7762,
      "şarkıyı": 7763,
      "muhalef": 7764,
      "hon": 7765,
      "çekilen": 7766,
      "##izasyon": 7767,
      "kalit": 7768,
      "uzunluğu": 7769,
      "taz": 7770,
      "oğu": 7771,
      "kurduğu": 7772,
      "sömür": 7773,
      "genelinde": 7774,
      "key": 7775,
      "kadınların": 7776,
      "##dae": 7777,
      "yumuş": 7778,
      "kıl": 7779,
      "yusuf": 7780,
      "##emedi": 7781,
      "by": 7782,
      "salonu": 7783,
      "manchester": 7784,
      "hızı": 7785,
      "##cılığını": 7786,
      "hu": 7787,
      "kentin": 7788,
      "rit": 7789,
      "##well": 7790,
      "sanatlar": 7791,
      "kastamonu": 7792,
      "organize": 7793,
      "korku": 7794,
      "##kia": 7795,
      "listesine": 7796,
      "plas": 7797,
      "##ıf": 7798,
      "başı": 7799,
      "görevinden": 7800,
      "müsabaka": 7801,
      "dolu": 7802,
      "disip": 7803,
      "##iyer": 7804,
      "kırık": 7805,
      "anlayış": 7806,
      "stil": 7807,
      "kahveren": 7808,
      "sayf": 7809,
      "harekât": 7810,
      "log": 7811,
      "##hon": 7812,
      "##lege": 7813,
      "eğlence": 7814,
      "fan": 7815,
      "reh": 7816,
      "protokol": 7817,
      "##vo": 7818,
      "arama": 7819,
      "açılış": 7820,
      "maz": 7821,
      "##rem": 7822,
      "zek": 7823,
      "hastalığı": 7824,
      "alay": 7825,
      "komünün": 7826,
      "soru": 7827,
      "nesne": 7828,
      "satışa": 7829,
      "##zo": 7830,
      "arasına": 7831,
      "enfek": 7832,
      "şarkıları": 7833,
      "##ınız": 7834,
      "tutar": 7835,
      "miz": 7836,
      "##antum": 7837,
      "jun": 7838,
      "spek": 7839,
      "tanıştı": 7840,
      "deprem": 7841,
      "##acağını": 7842,
      "##aten": 7843,
      "##estr": 7844,
      "yetişkin": 7845,
      "komündür": 7846,
      "aylarında": 7847,
      "kişilerin": 7848,
      "arkadaşları": 7849,
      "layık": 7850,
      "bebek": 7851,
      "dönen": 7852,
      "içermektedir": 7853,
      "kaynakça": 7854,
      "##ier": 7855,
      "##cht": 7856,
      "gösterilmiştir": 7857,
      "golünü": 7858,
      "##iner": 7859,
      "##lerek": 7860,
      "raf": 7861,
      "başvur": 7862,
      "##üce": 7863,
      "üstünde": 7864,
      "kaybol": 7865,
      "vali": 7866,
      "##mini": 7867,
      "duygu": 7868,
      "gur": 7869,
      "topra": 7870,
      "olayı": 7871,
      "elektro": 7872,
      "smith": 7873,
      "just": 7874,
      "##rey": 7875,
      "liberal": 7876,
      "sınav": 7877,
      "##ty": 7878,
      "çalışmıştır": 7879,
      "sığ": 7880,
      "##likler": 7881,
      "dışındaki": 7882,
      "uğram": 7883,
      "çab": 7884,
      "mahkeme": 7885,
      "rüzg": 7886,
      "mol": 7887,
      "yükselen": 7888,
      "tanınır": 7889,
      "takımda": 7890,
      "##ydu": 7891,
      "statüsü": 7892,
      "##omen": 7893,
      "sözleri": 7894,
      "kırk": 7895,
      "##vey": 7896,
      "teker": 7897,
      "ps": 7898,
      "bulan": 7899,
      "##mara": 7900,
      "tarihçi": 7901,
      "amb": 7902,
      "##ins": 7903,
      "kaleme": 7904,
      "insanları": 7905,
      "erdi": 7906,
      "özet": 7907,
      "unut": 7908,
      "ref": 7909,
      "i̇dari": 7910,
      "##irken": 7911,
      "yarısında": 7912,
      "kaynakları": 7913,
      "ted": 7914,
      "dilleri": 7915,
      "iyon": 7916,
      "##uf": 7917,
      "##azi": 7918,
      "sıradan": 7919,
      "bern": 7920,
      "caz": 7921,
      "sayfa": 7922,
      "kaza": 7923,
      "kontrolü": 7924,
      "##çılık": 7925,
      "zorunlu": 7926,
      "mesle": 7927,
      "maliyet": 7928,
      "güçleri": 7929,
      "oğuz": 7930,
      "özbek": 7931,
      "hariç": 7932,
      "nitelik": 7933,
      "sonraları": 7934,
      "yun": 7935,
      "##ciğer": 7936,
      "genetik": 7937,
      "sorgu": 7938,
      "direniş": 7939,
      "##je": 7940,
      "abdullah": 7941,
      "mühendislik": 7942,
      "usta": 7943,
      "atmosfer": 7944,
      "hükümeti": 7945,
      "##ografik": 7946,
      "##muştu": 7947,
      "avcı": 7948,
      "cup": 7949,
      "takıma": 7950,
      "jüri": 7951,
      "insanın": 7952,
      "pom": 7953,
      "##gs": 7954,
      "##lıkları": 7955,
      "buradan": 7956,
      "ağrı": 7957,
      "kitabında": 7958,
      "kitle": 7959,
      "bireysel": 7960,
      "hata": 7961,
      "dre": 7962,
      "malat": 7963,
      "çağır": 7964,
      "evrim": 7965,
      "doğrult": 7966,
      "alanlarda": 7967,
      "##layacak": 7968,
      "nan": 7969,
      "bulur": 7970,
      "##amin": 7971,
      "hazırlanan": 7972,
      "yerleşti": 7973,
      "başlattı": 7974,
      "karada": 7975,
      "euro": 7976,
      "oğl": 7977,
      "##ete": 7978,
      "##lesinde": 7979,
      "mary": 7980,
      "çukur": 7981,
      "köyünde": 7982,
      "him": 7983,
      "gelişim": 7984,
      "##barat": 7985,
      "ölçek": 7986,
      "arda": 7987,
      "##avar": 7988,
      "değerli": 7989,
      "entertain": 7990,
      "mezhe": 7991,
      "les": 7992,
      "olmaktadır": 7993,
      "yenerek": 7994,
      "tasarımı": 7995,
      "inf": 7996,
      "lige": 7997,
      "sekreter": 7998,
      "vii": 7999,
      "##öğret": 8000,
      "vla": 8001,
      "yaptıkları": 8002,
      "tabak": 8003,
      "##abilecek": 8004,
      "##ube": 8005,
      "tanış": 8006,
      "yaşamını": 8007,
      "##luğun": 8008,
      "muhafız": 8009,
      "orhan": 8010,
      "eleştiriler": 8011,
      "##ğıt": 8012,
      "öte": 8013,
      "silin": 8014,
      "##öly": 8015,
      "anlatır": 8016,
      "taraftar": 8017,
      "şehirdeki": 8018,
      "##esco": 8019,
      "görülmüştür": 8020,
      "trak": 8021,
      "harry": 8022,
      "##çilerin": 8023,
      "##uzu": 8024,
      "kültürü": 8025,
      "gördüğü": 8026,
      "kazanarak": 8027,
      "soruştur": 8028,
      "toplama": 8029,
      "allah": 8030,
      "arist": 8031,
      "dağlık": 8032,
      "işçi": 8033,
      "aşağıda": 8034,
      "alev": 8035,
      "bulgu": 8036,
      "seçil": 8037,
      "uygulam": 8038,
      "konservat": 8039,
      "bileşen": 8040,
      "alana": 8041,
      "nov": 8042,
      "doğmuştur": 8043,
      "bağlantılı": 8044,
      "buzul": 8045,
      "##luğa": 8046,
      "seferi": 8047,
      "deri": 8048,
      "##win": 8049,
      "kıyas": 8050,
      "sayılabilir": 8051,
      "geomet": 8052,
      "forvet": 8053,
      "itir": 8054,
      "kaldığı": 8055,
      "savaşta": 8056,
      "rakam": 8057,
      "sadraz": 8058,
      "albümleri": 8059,
      "##doğusunda": 8060,
      "inceleme": 8061,
      "##kaya": 8062,
      "pozitif": 8063,
      "##etti": 8064,
      "entertainment": 8065,
      "yiyecek": 8066,
      "##mik": 8067,
      "mümkündür": 8068,
      "##pınar": 8069,
      "getiren": 8070,
      "tepe": 8071,
      "yağmur": 8072,
      "##uta": 8073,
      "yapılacak": 8074,
      "tapınak": 8075,
      "onlar": 8076,
      "halkının": 8077,
      "kanunu": 8078,
      "buluş": 8079,
      "savaşa": 8080,
      "işe": 8081,
      "emp": 8082,
      "peygam": 8083,
      "frekans": 8084,
      "rep": 8085,
      "yetersiz": 8086,
      "dalg": 8087,
      "ağırlıklı": 8088,
      "##hum": 8089,
      "##oni": 8090,
      "duyar": 8091,
      "kola": 8092,
      "##diz": 8093,
      "peş": 8094,
      "##istler": 8095,
      "andro": 8096,
      "##gn": 8097,
      "hizmeti": 8098,
      "toz": 8099,
      "##iyen": 8100,
      "arazi": 8101,
      "çıkardığı": 8102,
      "kopya": 8103,
      "formasını": 8104,
      "premi": 8105,
      "sakin": 8106,
      "yardımıyla": 8107,
      "##ae": 8108,
      "dönemlerde": 8109,
      "buffy": 8110,
      "kalmış": 8111,
      "beğen": 8112,
      "hepsi": 8113,
      "hed": 8114,
      "nec": 8115,
      "boyutlu": 8116,
      "olsun": 8117,
      "kapsayan": 8118,
      "zelanda": 8119,
      "sum": 8120,
      "##mun": 8121,
      "kuantum": 8122,
      "ate": 8123,
      "kin": 8124,
      "sıfır": 8125,
      "düşen": 8126,
      "lor": 8127,
      "öğrencisi": 8128,
      "kule": 8129,
      "gösterdiği": 8130,
      "##ted": 8131,
      "dra": 8132,
      "fah": 8133,
      "yerinde": 8134,
      "raw": 8135,
      "##ike": 8136,
      "##şe": 8137,
      "dilinde": 8138,
      "donanım": 8139,
      "borç": 8140,
      "olasılık": 8141,
      "aylık": 8142,
      "işbirliği": 8143,
      "bulunmaktaydı": 8144,
      "bayan": 8145,
      "dakikada": 8146,
      "kalkınma": 8147,
      "yapımcısı": 8148,
      "kitabın": 8149,
      "sığın": 8150,
      "format": 8151,
      "ela": 8152,
      "karşılan": 8153,
      "yarışı": 8154,
      "onunla": 8155,
      "başlayarak": 8156,
      "kişiden": 8157,
      "##ysa": 8158,
      "şarkılar": 8159,
      "bölgelerinde": 8160,
      "##paz": 8161,
      "mezunudur": 8162,
      "##mat": 8163,
      "denge": 8164,
      "hizmete": 8165,
      "maria": 8166,
      "daniel": 8167,
      "keşfet": 8168,
      "çözün": 8169,
      "birini": 8170,
      "anlaşması": 8171,
      "kosova": 8172,
      "oluşturmak": 8173,
      "kus": 8174,
      "vadisi": 8175,
      "personel": 8176,
      "##tian": 8177,
      "ağız": 8178,
      "##isiz": 8179,
      "buhar": 8180,
      "ts": 8181,
      "##ileş": 8182,
      "tev": 8183,
      "rolünü": 8184,
      "eşya": 8185,
      "galip": 8186,
      "küme": 8187,
      "yarışmada": 8188,
      "münih": 8189,
      "katman": 8190,
      "tepki": 8191,
      "##ue": 8192,
      "asyalı": 8193,
      "fal": 8194,
      "##bal": 8195,
      "müdahale": 8196,
      "##tikten": 8197,
      "diğerleri": 8198,
      "vilayet": 8199,
      "##luğuna": 8200,
      "##gas": 8201,
      "champ": 8202,
      "wat": 8203,
      "yanıt": 8204,
      "nişan": 8205,
      "kriz": 8206,
      "##yer": 8207,
      "içerik": 8208,
      "ras": 8209,
      "##usundaki": 8210,
      "karl": 8211,
      "olmayı": 8212,
      "##usta": 8213,
      "olayları": 8214,
      "covid": 8215,
      "adas": 8216,
      "kaymak": 8217,
      "cüm": 8218,
      "karşıtı": 8219,
      "demografi": 8220,
      "gönüllü": 8221,
      "eleman": 8222,
      "komutasındaki": 8223,
      "univers": 8224,
      "senarist": 8225,
      "lüb": 8226,
      "tokyo": 8227,
      "akars": 8228,
      "albümüdür": 8229,
      "cilt": 8230,
      "dig": 8231,
      "eyaletinin": 8232,
      "##maması": 8233,
      "volkan": 8234,
      "yaralan": 8235,
      "örneği": 8236,
      "live": 8237,
      "ilçedir": 8238,
      "arasındadır": 8239,
      "varlığını": 8240,
      "ucu": 8241,
      "##illi": 8242,
      "skor": 8243,
      "yedinci": 8244,
      "bom": 8245,
      "olası": 8246,
      "akademisyen": 8247,
      "ang": 8248,
      "##cinsel": 8249,
      "bül": 8250,
      "##ella": 8251,
      "ittifak": 8252,
      "##şev": 8253,
      "drama": 8254,
      "ayrım": 8255,
      "karşıya": 8256,
      "satan": 8257,
      "##asız": 8258,
      "##alif": 8259,
      "##aspor": 8260,
      "tavs": 8261,
      "##düz": 8262,
      "temsilc": 8263,
      "yüzölçüm": 8264,
      "çalıştığı": 8265,
      "##paşa": 8266,
      "hayata": 8267,
      "ce": 8268,
      "##elle": 8269,
      "oluşturmaktadır": 8270,
      "makin": 8271,
      "başlanmıştır": 8272,
      "harp": 8273,
      "başladılar": 8274,
      "ilham": 8275,
      "##yl": 8276,
      "sonsuz": 8277,
      "miras": 8278,
      "pier": 8279,
      "kafkasya": 8280,
      "şef": 8281,
      "sağlamıştır": 8282,
      "ulaşan": 8283,
      "imparatorluk": 8284,
      "edebiyatı": 8285,
      "yıldırım": 8286,
      "##uc": 8287,
      "##ilip": 8288,
      "##eng": 8289,
      "gab": 8290,
      "##osh": 8291,
      "win": 8292,
      "##idge": 8293,
      "gösterime": 8294,
      "ülkelerin": 8295,
      "hun": 8296,
      "yöre": 8297,
      "filip": 8298,
      "değiştirildi": 8299,
      "işletme": 8300,
      "yasası": 8301,
      "viet": 8302,
      "kuyruk": 8303,
      "kısalt": 8304,
      "planı": 8305,
      "mekanik": 8306,
      "kolu": 8307,
      "mahkûm": 8308,
      "eşcinsel": 8309,
      "eta": 8310,
      "##arta": 8311,
      "##lif": 8312,
      "seçimi": 8313,
      "ran": 8314,
      "beklen": 8315,
      "mimarlık": 8316,
      "intihar": 8317,
      "afganistan": 8318,
      "ron": 8319,
      "##tanı": 8320,
      "olacağını": 8321,
      "sundu": 8322,
      "##drom": 8323,
      "##tc": 8324,
      "##dio": 8325,
      "kullanılması": 8326,
      "##mekle": 8327,
      "suikast": 8328,
      "boya": 8329,
      "binlerce": 8330,
      "ahş": 8331,
      "i̇şçi": 8332,
      "zırhlı": 8333,
      "sadrazam": 8334,
      "##cını": 8335,
      "sistemin": 8336,
      "##madığı": 8337,
      "ima": 8338,
      "belediyespor": 8339,
      "filmler": 8340,
      "basınç": 8341,
      "##sis": 8342,
      "çele": 8343,
      "duruma": 8344,
      "mans": 8345,
      "##laz": 8346,
      "marmara": 8347,
      "şiddetli": 8348,
      "dersleri": 8349,
      "iyileştir": 8350,
      "akıllı": 8351,
      "gerçekleştirildi": 8352,
      "##sus": 8353,
      "albümünü": 8354,
      "##wor": 8355,
      "fikr": 8356,
      "tokat": 8357,
      "zaten": 8358,
      "filmleri": 8359,
      "ayrılan": 8360,
      "nobel": 8361,
      "vererek": 8362,
      "geçmi": 8363,
      "##lamaları": 8364,
      "maksim": 8365,
      "##ozof": 8366,
      "##dün": 8367,
      "yönel": 8368,
      "lez": 8369,
      "aşık": 8370,
      "i̇ntern": 8371,
      "görünür": 8372,
      "element": 8373,
      "mitoloj": 8374,
      "pam": 8375,
      "sakarya": 8376,
      "düzenlendi": 8377,
      "istik": 8378,
      "mutlak": 8379,
      "akşam": 8380,
      "kökeni": 8381,
      "sorunları": 8382,
      "##oma": 8383,
      "çeken": 8384,
      "yönetiminde": 8385,
      "gönderdi": 8386,
      "dönüşüm": 8387,
      "animasyon": 8388,
      "##ios": 8389,
      "##zığ": 8390,
      "kahverengi": 8391,
      "##ılıyor": 8392,
      "trabzonspor": 8393,
      "girer": 8394,
      "anılan": 8395,
      "türb": 8396,
      "hizmetleri": 8397,
      "neg": 8398,
      "şehrinin": 8399,
      "mih": 8400,
      "##ix": 8401,
      "grupları": 8402,
      "öt": 8403,
      "out": 8404,
      "esk": 8405,
      "atıf": 8406,
      "##kırı": 8407,
      "##wer": 8408,
      "##ılmaz": 8409,
      "geriye": 8410,
      "istek": 8411,
      "çocuğ": 8412,
      "gemisi": 8413,
      "kulak": 8414,
      "prix": 8415,
      "yürüyüş": 8416,
      "kütah": 8417,
      "ani": 8418,
      "detay": 8419,
      "vefat": 8420,
      "sendrom": 8421,
      "çocuklar": 8422,
      "bm": 8423,
      "veli": 8424,
      "bob": 8425,
      "resmen": 8426,
      "kıya": 8427,
      "pasifik": 8428,
      "mükem": 8429,
      "alınarak": 8430,
      "yoz": 8431,
      "##hak": 8432,
      "indi": 8433,
      "takdir": 8434,
      "bilimi": 8435,
      "##ğeri": 8436,
      "vermeye": 8437,
      "konstantinopolis": 8438,
      "virüs": 8439,
      "##heim": 8440,
      "konuda": 8441,
      "değişikliğinden": 8442,
      "##oğu": 8443,
      "kolej": 8444,
      "edilerek": 8445,
      "döner": 8446,
      "##ardı": 8447,
      "endiş": 8448,
      "kalıcı": 8449,
      "##ikat": 8450,
      "ulu": 8451,
      "##gini": 8452,
      "club": 8453,
      "olmuştu": 8454,
      "zamana": 8455,
      "moda": 8456,
      "uygulaması": 8457,
      "kuman": 8458,
      "savaşları": 8459,
      "##ctor": 8460,
      "devrimci": 8461,
      "sl": 8462,
      "ret": 8463,
      "kariyerinin": 8464,
      "sans": 8465,
      "alıp": 8466,
      "kavramı": 8467,
      "tıbbi": 8468,
      "pasap": 8469,
      "geçerli": 8470,
      "dvd": 8471,
      "rem": 8472,
      "ahşap": 8473,
      "##ville": 8474,
      "bırakıldı": 8475,
      "işg": 8476,
      "muharebe": 8477,
      "##iber": 8478,
      "besteci": 8479,
      "ayrılarak": 8480,
      "alkol": 8481,
      "yaşındaki": 8482,
      "##izmin": 8483,
      "kongresi": 8484,
      "chica": 8485,
      "pav": 8486,
      "çelebi": 8487,
      "harit": 8488,
      "yayınları": 8489,
      "i̇skoçya": 8490,
      "##likte": 8491,
      "##masıdır": 8492,
      "filozof": 8493,
      "tarif": 8494,
      "futbola": 8495,
      "hâlen": 8496,
      "orkestr": 8497,
      "##ges": 8498,
      "dah": 8499,
      "medres": 8500,
      "ikna": 8501,
      "pakistan": 8502,
      "##sar": 8503,
      "##bilmesi": 8504,
      "sözü": 8505,
      "matt": 8506,
      "##ace": 8507,
      "yüzyıldan": 8508,
      "fol": 8509,
      "##çiliği": 8510,
      "aşir": 8511,
      "##hem": 8512,
      "koleji": 8513,
      "stalin": 8514,
      "gerekç": 8515,
      "arşiv": 8516,
      "##uda": 8517,
      "üyeli": 8518,
      "şem": 8519,
      "##estra": 8520,
      "nokia": 8521,
      "avantaj": 8522,
      "dokun": 8523,
      "doğrultusunda": 8524,
      "böcek": 8525,
      "##hisar": 8526,
      "##labilir": 8527,
      "hoca": 8528,
      "yede": 8529,
      "oldular": 8530,
      "##öğretim": 8531,
      "chicago": 8532,
      "kars": 8533,
      "açıkça": 8534,
      "finali": 8535,
      "şaş": 8536,
      "programında": 8537,
      "##onyalı": 8538,
      "sayede": 8539,
      "tapına": 8540,
      "lenin": 8541,
      "direktörü": 8542,
      "cy": 8543,
      "öncü": 8544,
      "metrop": 8545,
      "##aska": 8546,
      "##eddin": 8547,
      "tarihindeki": 8548,
      "biyolojik": 8549,
      "i̇bran": 8550,
      "##ax": 8551,
      "##ilmesiyle": 8552,
      "##rü": 8553,
      "azın": 8554,
      "kesi": 8555,
      "yılmaz": 8556,
      "kaçın": 8557,
      "fırlat": 8558,
      "ikiye": 8559,
      "##asal": 8560,
      "##ms": 8561,
      "##ezya": 8562,
      "gerçekten": 8563,
      "şifre": 8564,
      "meg": 8565,
      "uyum": 8566,
      "aşama": 8567,
      "sinan": 8568,
      "##ope": 8569,
      "açılmıştır": 8570,
      "soylu": 8571,
      "johan": 8572,
      "##ua": 8573,
      "##lamalar": 8574,
      "cemiyeti": 8575,
      "laboratuvar": 8576,
      "statüs": 8577,
      "philip": 8578,
      "rüzgâr": 8579,
      "harekete": 8580,
      "ölçüm": 8581,
      "pres": 8582,
      "hırvatistan": 8583,
      "parçaları": 8584,
      "temas": 8585,
      "taşır": 8586,
      "##diki": 8587,
      "kömür": 8588,
      "mekte": 8589,
      "yapay": 8590,
      "şanlı": 8591,
      "karşılıklı": 8592,
      "kıv": 8593,
      "pasaport": 8594,
      "termin": 8595,
      "yürüttü": 8596,
      "düzeyde": 8597,
      "huz": 8598,
      "android": 8599,
      "##abeth": 8600,
      "##kov": 8601,
      "##ülmüş": 8602,
      "##oph": 8603,
      "odası": 8604,
      "tarihine": 8605,
      "uçağı": 8606,
      "höy": 8607,
      "geçmişi": 8608,
      "familyasından": 8609,
      "stre": 8610,
      "kelimesi": 8611,
      "##ülmektedir": 8612,
      "albert": 8613,
      "mini": 8614,
      "görevleri": 8615,
      "körfezi": 8616,
      "isimler": 8617,
      "spons": 8618,
      "inde": 8619,
      "##cağına": 8620,
      "belirtir": 8621,
      "kemik": 8622,
      "compan": 8623,
      "savaştan": 8624,
      "gücünü": 8625,
      "##wig": 8626,
      "yapıt": 8627,
      "değişen": 8628,
      "vietnam": 8629,
      "söylemiştir": 8630,
      "pist": 8631,
      "hur": 8632,
      "kapsamlı": 8633,
      "##ünc": 8634,
      "ky": 8635,
      "sponsor": 8636,
      "denem": 8637,
      "mantık": 8638,
      "kurş": 8639,
      "uygulamaları": 8640,
      "oranda": 8641,
      "metro": 8642,
      "gelene": 8643,
      "##ct": 8644,
      "kimlik": 8645,
      "bellek": 8646,
      "oyuna": 8647,
      "altay": 8648,
      "##line": 8649,
      "kutup": 8650,
      "hakimiyet": 8651,
      "bağdat": 8652,
      "bölümler": 8653,
      "futbolculuk": 8654,
      "bugüne": 8655,
      "işlemi": 8656,
      "birbirinden": 8657,
      "##pen": 8658,
      "##ings": 8659,
      "liga": 8660,
      "lav": 8661,
      "berk": 8662,
      "deplas": 8663,
      "ücretsiz": 8664,
      "çalışmaktadır": 8665,
      "optik": 8666,
      "göğ": 8667,
      "kadının": 8668,
      "mezarlığı": 8669,
      "##ria": 8670,
      "kocaeli": 8671,
      "helen": 8672,
      "piyano": 8673,
      "kullanıla": 8674,
      "##luğunun": 8675,
      "parçasıdır": 8676,
      "avrupalı": 8677,
      "klibi": 8678,
      "otobüs": 8679,
      "türkler": 8680,
      "perde": 8681,
      "##tia": 8682,
      "williams": 8683,
      "arasından": 8684,
      "şehre": 8685,
      "##imal": 8686,
      "kraliçe": 8687,
      "savunu": 8688,
      "materyal": 8689,
      "green": 8690,
      "buradaki": 8691,
      "oyunda": 8692,
      "devir": 8693,
      "yardımcılığı": 8694,
      "doku": 8695,
      "##oper": 8696,
      "##uyan": 8697,
      "netic": 8698,
      "##okrat": 8699,
      "cav": 8700,
      "##ost": 8701,
      "düzenlen": 8702,
      "cle": 8703,
      "ödüllendir": 8704,
      "dum": 8705,
      "i̇m": 8706,
      "üçlü": 8707,
      "tayin": 8708,
      "##ery": 8709,
      "bulunmuş": 8710,
      "bağlam": 8711,
      "inş": 8712,
      "albümünde": 8713,
      "roket": 8714,
      "ortalarında": 8715,
      "##veti": 8716,
      "vermiş": 8717,
      "yaşamak": 8718,
      "kütahya": 8719,
      "görülebilir": 8720,
      "##leyi": 8721,
      "anlaşmaz": 8722,
      "##ado": 8723,
      "kurulması": 8724,
      "##iyesi": 8725,
      "spe": 8726,
      "anlatan": 8727,
      "şimdiki": 8728,
      "##lesini": 8729,
      "yatak": 8730,
      "##gah": 8731,
      "##irt": 8732,
      "##usunu": 8733,
      "nil": 8734,
      "##abilmektedir": 8735,
      "afrikan": 8736,
      "görüşme": 8737,
      "##izmi": 8738,
      "##ıdır": 8739,
      "kullanı": 8740,
      "besin": 8741,
      "krom": 8742,
      "çekirde": 8743,
      "##ıntılı": 8744,
      "international": 8745,
      "##cha": 8746,
      "pros": 8747,
      "monte": 8748,
      "##lüğünde": 8749,
      "üstlenmiştir": 8750,
      "sekreteri": 8751,
      "##udur": 8752,
      "bilgileri": 8753,
      "olmasından": 8754,
      "kırsal": 8755,
      "kanalında": 8756,
      "##ibe": 8757,
      "alacak": 8758,
      "national": 8759,
      "malatya": 8760,
      "yeme": 8761,
      "##ting": 8762,
      "##ild": 8763,
      "erdoğan": 8764,
      "seçilmiş": 8765,
      "sertif": 8766,
      "##ilmez": 8767,
      "lok": 8768,
      "##ülmesi": 8769,
      "meşhur": 8770,
      "studi": 8771,
      "kaynaklar": 8772,
      "i̇mparatorluk": 8773,
      "başkanlığını": 8774,
      "##ote": 8775,
      "sıkı": 8776,
      "gri": 8777,
      "##kal": 8778,
      "kullanıldığı": 8779,
      "ilerleyen": 8780,
      "i̇statistik": 8781,
      "##şak": 8782,
      "##bahar": 8783,
      "keskin": 8784,
      "buraya": 8785,
      "gözet": 8786,
      "august": 8787,
      "mükemmel": 8788,
      "with": 8789,
      "i̇mparatoru": 8790,
      "aleksan": 8791,
      "verim": 8792,
      "afyon": 8793,
      "biçimi": 8794,
      "dakik": 8795,
      "hidrojen": 8796,
      "şap": 8797,
      "gerçekleştirdi": 8798,
      "maçları": 8799,
      "giymektedir": 8800,
      "dikkate": 8801,
      "defans": 8802,
      "royal": 8803,
      "yoğunluğu": 8804,
      "saltan": 8805,
      "##iral": 8806,
      "kalabalık": 8807,
      "albümünün": 8808,
      "bölgeleri": 8809,
      "boşan": 8810,
      "mineral": 8811,
      "##hol": 8812,
      "##şim": 8813,
      "işi": 8814,
      "##ayeti": 8815,
      "dağıtım": 8816,
      "##dip": 8817,
      "holly": 8818,
      "karadağ": 8819,
      "sesi": 8820,
      "##dis": 8821,
      "##bine": 8822,
      "##mond": 8823,
      "##hr": 8824,
      "##row": 8825,
      "sözcüğü": 8826,
      "edebilir": 8827,
      "deplasman": 8828,
      "yazma": 8829,
      "pep": 8830,
      "suudi": 8831,
      "bunları": 8832,
      "gerekçesiyle": 8833,
      "altyapı": 8834,
      "alması": 8835,
      "kong": 8836,
      "theod": 8837,
      "company": 8838,
      "camp": 8839,
      "okyanusu": 8840,
      "üzüm": 8841,
      "misyon": 8842,
      "bakter": 8843,
      "cezay": 8844,
      "time": 8845,
      "##ito": 8846,
      "sound": 8847,
      "fırt": 8848,
      "clar": 8849,
      "şeyi": 8850,
      "##lüğüne": 8851,
      "mutfa": 8852,
      "nato": 8853,
      "##gg": 8854,
      "prus": 8855,
      "scho": 8856,
      "chp": 8857,
      "kamer": 8858,
      "lık": 8859,
      "tün": 8860,
      "tüc": 8861,
      "atmıştır": 8862,
      "bunlara": 8863,
      "yakınlarındaki": 8864,
      "öyle": 8865,
      "##alaması": 8866,
      "saygı": 8867,
      "kişiye": 8868,
      "masa": 8869,
      "sürgün": 8870,
      "canlandırdığı": 8871,
      "onar": 8872,
      "sanatı": 8873,
      "##esiydi": 8874,
      "tet": 8875,
      "##ansiyon": 8876,
      "kaplı": 8877,
      "tot": 8878,
      "sonlarına": 8879,
      "yüzyıla": 8880,
      "parmak": 8881,
      "que": 8882,
      "##osa": 8883,
      "şanlıur": 8884,
      "ust": 8885,
      "şeb": 8886,
      "konumunda": 8887,
      "fox": 8888,
      "hali": 8889,
      "ilçesinin": 8890,
      "vakıf": 8891,
      "sahneye": 8892,
      "biliş": 8893,
      "kuvvetlerinin": 8894,
      "iğ": 8895,
      "##hail": 8896,
      "sto": 8897,
      "lübnan": 8898,
      "i̇spanyolca": 8899,
      "##zat": 8900,
      "kaş": 8901,
      "tib": 8902,
      "yumuşak": 8903,
      "cezayir": 8904,
      "ödüller": 8905,
      "yargılan": 8906,
      "##his": 8907,
      "##fen": 8908,
      "eyaletine": 8909,
      "##âtı": 8910,
      "kims": 8911,
      "bağımsızlığını": 8912,
      "bbc": 8913,
      "##gız": 8914,
      "##cıları": 8915,
      "arabistan": 8916,
      "puanla": 8917,
      "erişim": 8918,
      "düşünür": 8919,
      "hersek": 8920,
      "sanatçının": 8921,
      "değin": 8922,
      "usul": 8923,
      "olağanüstü": 8924,
      "yıldızı": 8925,
      "pic": 8926,
      "etmeyi": 8927,
      "kullanılmaya": 8928,
      "cemaat": 8929,
      "hayatının": 8930,
      "##lot": 8931,
      "diplomatik": 8932,
      "cre": 8933,
      "alexander": 8934,
      "champion": 8935,
      "fırsat": 8936,
      "##hen": 8937,
      "##tanın": 8938,
      "maddi": 8939,
      "##vari": 8940,
      "çerkes": 8941,
      "##larus": 8942,
      "sistemine": 8943,
      "##nin": 8944,
      "##jer": 8945,
      "nispet": 8946,
      "bru": 8947,
      "##diye": 8948,
      "gereği": 8949,
      "gösterilen": 8950,
      "istasyonu": 8951,
      "organik": 8952,
      "algı": 8953,
      "ini": 8954,
      "i̇çişleri": 8955,
      "sınırı": 8956,
      "##lesine": 8957,
      "askerleri": 8958,
      "çatış": 8959,
      "gerilim": 8960,
      "tol": 8961,
      "yaparken": 8962,
      "ülkeye": 8963,
      "yout": 8964,
      "tutul": 8965,
      "şöval": 8966,
      "insanı": 8967,
      "##uki": 8968,
      "halife": 8969,
      "beni": 8970,
      "hill": 8971,
      "##dışı": 8972,
      "ülkeleri": 8973,
      "##ect": 8974,
      "yarımadası": 8975,
      "türet": 8976,
      "bulunuyordu": 8977,
      "kırgız": 8978,
      "sunuldu": 8979,
      "i̇nternet": 8980,
      "sergi": 8981,
      "konuşan": 8982,
      "atış": 8983,
      "zorluk": 8984,
      "##eç": 8985,
      "eng": 8986,
      "koal": 8987,
      "yazarlar": 8988,
      "matematiksel": 8989,
      "değişiklikler": 8990,
      "kıyafet": 8991,
      "kuzeyde": 8992,
      "stratejik": 8993,
      "yedek": 8994,
      "şili": 8995,
      "günümüzdeki": 8996,
      "i̇şlet": 8997,
      "haric": 8998,
      "federasyon": 8999,
      "şehirler": 9000,
      "pratik": 9001,
      "scott": 9002,
      "bası": 9003,
      "hastanesi": 9004,
      "##ase": 9005,
      "##tron": 9006,
      "süreçte": 9007,
      "enz": 9008,
      "yolları": 9009,
      "kitapları": 9010,
      "mirası": 9011,
      "peygamber": 9012,
      "las": 9013,
      "yolculuk": 9014,
      "cisim": 9015,
      "anlamında": 9016,
      "timur": 9017,
      "dövüş": 9018,
      "yuvar": 9019,
      "veda": 9020,
      "##üye": 9021,
      "filminin": 9022,
      "aşkın": 9023,
      "##pool": 9024,
      "##rich": 9025,
      "##ganda": 9026,
      "##ansa": 9027,
      "finalinde": 9028,
      "##oid": 9029,
      "yapıla": 9030,
      "##nel": 9031,
      "mr": 9032,
      "brown": 9033,
      "madalyası": 9034,
      "bolşev": 9035,
      "##guay": 9036,
      "umut": 9037,
      "gey": 9038,
      "##zet": 9039,
      "dayanmaktadır": 9040,
      "american": 9041,
      "kere": 9042,
      "sevgil": 9043,
      "muhafaz": 9044,
      "kafkas": 9045,
      "fred": 9046,
      "kaba": 9047,
      "##ıklı": 9048,
      "##ehr": 9049,
      "alanlar": 9050,
      "önemlidir": 9051,
      "sessiz": 9052,
      "##vaz": 9053,
      "uygulanan": 9054,
      "yapımcılığını": 9055,
      "erzin": 9056,
      "koalisyon": 9057,
      "reddetti": 9058,
      "dişi": 9059,
      "anna": 9060,
      "arkasında": 9061,
      "tif": 9062,
      "##oğulları": 9063,
      "tarihinden": 9064,
      "çıkarak": 9065,
      "gan": 9066,
      "##anus": 9067,
      "##usa": 9068,
      "##osen": 9069,
      "ame": 9070,
      "jac": 9071,
      "diğeri": 9072,
      "yangın": 9073,
      "alınır": 9074,
      "serisinin": 9075,
      "blo": 9076,
      "##une": 9077,
      "gelerek": 9078,
      "katılmış": 9079,
      "belarus": 9080,
      "kazanmış": 9081,
      "##lesinin": 9082,
      "##aç": 9083,
      "rivayet": 9084,
      "##ecik": 9085,
      "##celi": 9086,
      "##beden": 9087,
      "##lılı": 9088,
      "mod": 9089,
      "dünyadaki": 9090,
      "carl": 9091,
      "jer": 9092,
      "##üğü": 9093,
      "geçiren": 9094,
      "yansıt": 9095,
      "ufak": 9096,
      "kuran": 9097,
      "zamanlı": 9098,
      "gelişimi": 9099,
      "olmasıdır": 9100,
      "##nun": 9101,
      "halil": 9102,
      "##demir": 9103,
      "ayaklanma": 9104,
      "tutuklandı": 9105,
      "##ball": 9106,
      "kariyerini": 9107,
      "deneysel": 9108,
      "ismiyle": 9109,
      "eliz": 9110,
      "nez": 9111,
      "döneminin": 9112,
      "##xt": 9113,
      "halep": 9114,
      "dj": 9115,
      "norman": 9116,
      "ilişkisi": 9117,
      "hus": 9118,
      "konumu": 9119,
      "tanesi": 9120,
      "terfi": 9121,
      "birbirlerine": 9122,
      "vası": 9123,
      "##örü": 9124,
      "oradan": 9125,
      "mağara": 9126,
      "##ors": 9127,
      "##feder": 9128,
      "dönüştü": 9129,
      "tümen": 9130,
      "deneyim": 9131,
      "bulmak": 9132,
      "uygur": 9133,
      "##melidir": 9134,
      "güvenli": 9135,
      "##chus": 9136,
      "slav": 9137,
      "hassas": 9138,
      "şansı": 9139,
      "##ics": 9140,
      "üstüne": 9141,
      "ulaşmıştır": 9142,
      "arkeolojik": 9143,
      "biçiminde": 9144,
      "paylaştı": 9145,
      "evlili": 9146,
      "konsey": 9147,
      "toplanan": 9148,
      "eve": 9149,
      "asla": 9150,
      "##hai": 9151,
      "kulübün": 9152,
      "dayanır": 9153,
      "yenilik": 9154,
      "premier": 9155,
      "bant": 9156,
      "yakınında": 9157,
      "takımıyla": 9158,
      "enfeksiyon": 9159,
      "geldiğinde": 9160,
      "faaliyetleri": 9161,
      "kuzeybatı": 9162,
      "topraklarına": 9163,
      "nispeten": 9164,
      "way": 9165,
      "bölgeyi": 9166,
      "bildirdi": 9167,
      "##ão": 9168,
      "soci": 9169,
      "yavru": 9170,
      "yamaç": 9171,
      "piskop": 9172,
      "##gia": 9173,
      "isimleri": 9174,
      "orkestra": 9175,
      "ova": 9176,
      "üstlendiği": 9177,
      "night": 9178,
      "##uch": 9179,
      "ars": 9180,
      "görevlisi": 9181,
      "simge": 9182,
      "caddesi": 9183,
      "bozul": 9184,
      "lord": 9185,
      "reş": 9186,
      "##embe": 9187,
      "hein": 9188,
      "işleme": 9189,
      "kolomb": 9190,
      "küre": 9191,
      "hekim": 9192,
      "ade": 9193,
      "paz": 9194,
      "kullanmak": 9195,
      "tre": 9196,
      "unesco": 9197,
      "jones": 9198,
      "dahi": 9199,
      "algor": 9200,
      "zamanı": 9201,
      "##müştü": 9202,
      "getirir": 9203,
      "santa": 9204,
      "düzelt": 9205,
      "yapılar": 9206,
      "kızılder": 9207,
      "##gâh": 9208,
      "krizi": 9209,
      "belirtmiştir": 9210,
      "##esun": 9211,
      "istediği": 9212,
      "profesörü": 9213,
      "grammy": 9214,
      "yüksekliği": 9215,
      "bilimleri": 9216,
      "##laşmış": 9217,
      "##resi": 9218,
      "##trik": 9219,
      "çem": 9220,
      "niteli": 9221,
      "hâlâ": 9222,
      "##erse": 9223,
      "uyuştur": 9224,
      "boşluk": 9225,
      "##ıydı": 9226,
      "oblas": 9227,
      "htt": 9228,
      "##kk": 9229,
      "bacak": 9230,
      "endon": 9231,
      "##edeki": 9232,
      "tamamlandı": 9233,
      "macera": 9234,
      "getirmiştir": 9235,
      "##tıktan": 9236,
      "##mediğini": 9237,
      "evrensel": 9238,
      "##ört": 9239,
      "rolüyle": 9240,
      "geliştirilmiş": 9241,
      "etim": 9242,
      "sıralam": 9243,
      "ediyordu": 9244,
      "bilinç": 9245,
      "wood": 9246,
      "parlamentosu": 9247,
      "mom": 9248,
      "i̇zlanda": 9249,
      "bölgesinden": 9250,
      "etkileşim": 9251,
      "##liga": 9252,
      "getirilmiştir": 9253,
      "life": 9254,
      "##lamanın": 9255,
      "temsilciler": 9256,
      "önlemek": 9257,
      "kalıp": 9258,
      "yang": 9259,
      "##lemiş": 9260,
      "buda": 9261,
      "girdiği": 9262,
      "kitapta": 9263,
      "holding": 9264,
      "vektör": 9265,
      "delik": 9266,
      "bağır": 9267,
      "mam": 9268,
      "##general": 9269,
      "yerleri": 9270,
      "verimli": 9271,
      "gide": 9272,
      "yayımlanmıştır": 9273,
      "koydu": 9274,
      "mesafe": 9275,
      "tüken": 9276,
      "yeğ": 9277,
      "askerler": 9278,
      "youtube": 9279,
      "erzincan": 9280,
      "üyelerinin": 9281,
      "çorum": 9282,
      "verilerine": 9283,
      "manz": 9284,
      "universit": 9285,
      "annesinin": 9286,
      "mardin": 9287,
      "müte": 9288,
      "radikal": 9289,
      "##pson": 9290,
      "şarkısıyla": 9291,
      "karaca": 9292,
      "anak": 9293,
      "büyüy": 9294,
      "topçu": 9295,
      "kurgu": 9296,
      "##ason": 9297,
      "##ardo": 9298,
      "firma": 9299,
      "##edrich": 9300,
      "##dos": 9301,
      "biyografi": 9302,
      "anılır": 9303,
      "ürünü": 9304,
      "eklen": 9305,
      "çekilmiştir": 9306,
      "dışına": 9307,
      "tenis": 9308,
      "yörünge": 9309,
      "nihayet": 9310,
      "başlaması": 9311,
      "gelişen": 9312,
      "brit": 9313,
      "anlatı": 9314,
      "young": 9315,
      "buğ": 9316,
      "algorit": 9317,
      "kiralık": 9318,
      "mahmud": 9319,
      "atöly": 9320,
      "##uluğunu": 9321,
      "cast": 9322,
      "vis": 9323,
      "wrest": 9324,
      "##gut": 9325,
      "##ğim": 9326,
      "kartal": 9327,
      "savaşçı": 9328,
      "##tikleri": 9329,
      "jeff": 9330,
      "##urken": 9331,
      "##elenen": 9332,
      "çöl": 9333,
      "disiplin": 9334,
      "##sinin": 9335,
      "adamları": 9336,
      "##ğimiz": 9337,
      "edilebil": 9338,
      "##sp": 9339,
      "porn": 9340,
      "nüfuslu": 9341,
      "sözleşmesi": 9342,
      "friedrich": 9343,
      "muhalefet": 9344,
      "##lileri": 9345,
      "##rim": 9346,
      "##lanmaya": 9347,
      "deng": 9348,
      "##non": 9349,
      "köt": 9350,
      "##otlar": 9351,
      "##isindeki": 9352,
      "kolayca": 9353,
      "##onna": 9354,
      "selan": 9355,
      "uzunluk": 9356,
      "meden": 9357,
      "pale": 9358,
      "sıraya": 9359,
      "giresun": 9360,
      "çıkarılan": 9361,
      "##ıklık": 9362,
      "azeri": 9363,
      "kafa": 9364,
      "görevinde": 9365,
      "##enos": 9366,
      "tüfek": 9367,
      "##erik": 9368,
      "hakem": 9369,
      "verme": 9370,
      "güneybatı": 9371,
      "yalan": 9372,
      "elb": 9373,
      "kendisinden": 9374,
      "güneyde": 9375,
      "kadrosunda": 9376,
      "lah": 9377,
      "##urg": 9378,
      "sorunu": 9379,
      "kaymakam": 9380,
      "sömürge": 9381,
      "vaka": 9382,
      "belirlenmiştir": 9383,
      "maksimum": 9384,
      "lip": 9385,
      "defned": 9386,
      "şanlıurfa": 9387,
      "ris": 9388,
      "tarihten": 9389,
      "bük": 9390,
      "##oc": 9391,
      "##anna": 9392,
      "hall": 9393,
      "villa": 9394,
      "int": 9395,
      "yayla": 9396,
      "belki": 9397,
      "yönetici": 9398,
      "hayır": 9399,
      "okuma": 9400,
      "belirsiz": 9401,
      "yozgat": 9402,
      "şere": 9403,
      "lew": 9404,
      "gelindiğinde": 9405,
      "karaman": 9406,
      "tecr": 9407,
      "##lamadan": 9408,
      "##ılıyordu": 9409,
      "tamamlamıştır": 9410,
      "negatif": 9411,
      "##fo": 9412,
      "##urn": 9413,
      "deli": 9414,
      "ju": 9415,
      "law": 9416,
      "bulunması": 9417,
      "sosy": 9418,
      "akarsu": 9419,
      "öncelikle": 9420,
      "yahudiler": 9421,
      "boks": 9422,
      "davul": 9423,
      "dairesi": 9424,
      "politikacı": 9425,
      "teksas": 9426,
      "kariyerinde": 9427,
      "sız": 9428,
      "ömür": 9429,
      "i̇bn": 9430,
      "enstr": 9431,
      "denizli": 9432,
      "tasarlanmış": 9433,
      "oksijen": 9434,
      "vamp": 9435,
      "zemin": 9436,
      "##yonu": 9437,
      "oscar": 9438,
      "rab": 9439,
      "araştırmaları": 9440,
      "bomba": 9441,
      "sistemini": 9442,
      "saldırıya": 9443,
      "yem": 9444,
      "milliyetçi": 9445,
      "##urlar": 9446,
      "alanlarında": 9447,
      "cenev": 9448,
      "##sit": 9449,
      "olduklarını": 9450,
      "kadrosuna": 9451,
      "eserin": 9452,
      "rahip": 9453,
      "ilerle": 9454,
      "yerleşimi": 9455,
      "tecrüb": 9456,
      "uyumlu": 9457,
      "fakülte": 9458,
      "rengi": 9459,
      "elazığ": 9460,
      "grek": 9461,
      "aran": 9462,
      "ayrılmış": 9463,
      "suçlu": 9464,
      "kompoz": 9465,
      "zeytin": 9466,
      "dizisinin": 9467,
      "tanıtım": 9468,
      "suyun": 9469,
      "vezir": 9470,
      "##cilerin": 9471,
      "##cep": 9472,
      "saptan": 9473,
      "gayet": 9474,
      "mars": 9475,
      "oyunlar": 9476,
      "komed": 9477,
      "girmiş": 9478,
      "musa": 9479,
      "times": 9480,
      "nör": 9481,
      "havz": 9482,
      "dâ": 9483,
      "selanik": 9484,
      "eserinde": 9485,
      "müşter": 9486,
      "##limi": 9487,
      "doç": 9488,
      "tabaka": 9489,
      "sicilya": 9490,
      "uyuşturucu": 9491,
      "düşüş": 9492,
      "ein": 9493,
      "konfeder": 9494,
      "icra": 9495,
      "alaska": 9496,
      "tehlikeli": 9497,
      "dun": 9498,
      "çayı": 9499,
      "muhalif": 9500,
      "noktada": 9501,
      "konferansı": 9502,
      "fikri": 9503,
      "plastik": 9504,
      "##keli": 9505,
      "##mekten": 9506,
      "aktr": 9507,
      "kapak": 9508,
      "kaleci": 9509,
      "muhafazak": 9510,
      "muz": 9511,
      "##apı": 9512,
      "##diklerini": 9513,
      "pah": 9514,
      "##yat": 9515,
      "trop": 9516,
      "rh": 9517,
      "grupta": 9518,
      "mürette": 9519,
      "püs": 9520,
      "sadık": 9521,
      "##bildi": 9522,
      "bahç": 9523,
      "##elerle": 9524,
      "##elenmiştir": 9525,
      "tohum": 9526,
      "ox": 9527,
      "##memesi": 9528,
      "florida": 9529,
      "god": 9530,
      "##amamıştır": 9531,
      "bölgeler": 9532,
      "yunus": 9533,
      "gas": 9534,
      "##oka": 9535,
      "##önü": 9536,
      "kaynaklarda": 9537,
      "uygulamalar": 9538,
      "sitesi": 9539,
      "yoktu": 9540,
      "konut": 9541,
      "kulesi": 9542,
      "glo": 9543,
      "yönde": 9544,
      "şüphe": 9545,
      "##had": 9546,
      "serinin": 9547,
      "civar": 9548,
      "rub": 9549,
      "silindir": 9550,
      "sant": 9551,
      "önemi": 9552,
      "##ento": 9553,
[...]
