{
  "version": "1.0",
  "truncation": null,
  "padding": null,
  "added_tokens": [
    {
      "id": 0,
      "content": "[PAD]",
      "single_word": false,
      "lstrip": false,
      "rstrip": false,
      "normalized": false,
      "special": true
    },
    {
      "id": 1,
      "content": "[UNK]",
      "single_word": false,
      "lstrip": false,
      "rstrip": false,
      "normalized": false,
      "special": true
    },
    {
      "id": 2,
      "content": "[CLS]",
      "single_word": false,
      "lstrip": false,
      "rstrip": false,
      "normalized": false,
      "special": true
    },
    {
      "id": 3,
      "content": "[SEP]",
      "single_word": false,
      "lstrip": false,
      "rstrip": false,
      "normalized": false,
      "special": true
    },
    {
      "id": 4,
      "content": "[MASK]",
      "single_word": false,
      "lstrip": false,
      "rstrip": false,
      "normalized": false,
      "special": true
    }
  ],
  "normalizer": {
    "type": "Sequence",
    "normalizers": [
      {
        "type": "NFKC"
      }
    ]
  },
  "pre_tokenizer": {
    "type": "Sequence",
    "pretokenizers": [
      {
        "type": "WhitespaceSplit"
      },
      {
        "type": "Digits",
        "individual_digits": true
      },
      {
        "type": "Punctuation",
        "behavior": "Isolated"
      }
    ]
  },
  "post_processor": null,
  "decoder": {
    "type": "WordPiece",
    "prefix": "##",
    "cleanup": true
  },
  "model": {
    "type": "WordPiece",
    "unk_token": "[UNK]",
    "continuing_subword_prefix": "##",
    "max_input_chars_per_word": 100,
    "vocab": {
      "[PAD]": 0,
      "[UNK]": 1,
      "[CLS]": 2,
      "[SEP]": 3,
      "[MASK]": 4,
      "!": 5,
      "\"": 6,
      "#": 7,
      "$": 8,
      "%": 9,
      "&": 10,
      "'": 11,
      "(": 12,
      ")": 13,
      "*": 14,
      "+": 15,
      ",": 16,
      "-": 17,
      ".": 18,
      "/": 19,
      "0": 20,
      "1": 21,
      "2": 22,
      "3": 23,
      "4": 24,
      "5": 25,
      "6": 26,
      "7": 27,
      "8": 28,
      "9": 29,
      ":": 30,
      ";": 31,
      "=": 32,
      "?": 33,
      "A": 34,
      "B": 35,
      "C": 36,
      "D": 37,
      "E": 38,
      "F": 39,
      "G": 40,
      "H": 41,
      "I": 42,
      "J": 43,
      "K": 44,
      "L": 45,
      "M": 46,
      "N": 47,
      "O": 48,
      "P": 49,
      "Q": 50,
      "R": 51,
      "S": 52,
      "T": 53,
      "U": 54,
      "V": 55,
      "W": 56,
      "X": 57,
      "Y": 58,
      "Z": 59,
      "[": 60,
      "]": 61,
      "_": 62,
      "a": 63,
      "b": 64,
      "c": 65,
      "d": 66,
      "e": 67,
      "f": 68,
      "g": 69,
      "h": 70,
      "i": 71,
      "j": 72,
      "k": 73,
      "l": 74,
      "m": 75,
      "n": 76,
      "o": 77,
      "p": 78,
      "q": 79,
      "r": 80,
      "s": 81,
      "t": 82,
      "u": 83,
      "v": 84,
      "w": 85,
      "x": 86,
      "y": 87,
      "z": 88,
      "|": 89,
      "«": 90,
      "­": 91,
      "°": 92,
      "»": 93,
      "Â": 94,
      "Ç": 95,
      "É": 96,
      "Ö": 97,
      "×": 98,
      "Ü": 99,
      "à": 100,
      "á": 101,
      "â": 102,
      "ã": 103,
      "ä": 104,
      "å": 105,
      "ç": 106,
      "è": 107,
      "é": 108,
      "ê": 109,
      "ë": 110,
      "í": 111,
      "î": 112,
      "ñ": 113,
      "ó": 114,
      "ô": 115,
      "ö": 116,
      "ø": 117,
      "ú": 118,
      "û": 119,
      "ü": 120,
      "ā": 121,
      "ă": 122,
      "ć": 123,
      "č": 124,
      "ğ": 125,
      "ī": 126,
      "İ": 127,
      "ı": 128,
      "ł": 129,
      "ō": 130,
      "Ş": 131,
      "ş": 132,
      "Š": 133,
      "š": 134,
      "ū": 135,
      "ž": 136,
      "ə": 137,
      "́": 138,
      "α": 139,
      "ε": 140,
      "ι": 141,
      "κ": 142,
      "λ": 143,
      "μ": 144,
      "ν": 145,
      "ο": 146,
      "ρ": 147,
      "ς": 148,
      "σ": 149,
      "τ": 150,
      "А": 151,
      "С": 152,
      "а": 153,
      "б": 154,
      "в": 155,
      "г": 156,
      "д": 157,
      "е": 158,
      "з": 159,
      "и": 160,
      "й": 161,
      "к": 162,
      "л": 163,
      "м": 164,
      "н": 165,
      "о": 166,
      "п": 167,
      "р": 168,
      "с": 169,
      "т": 170,
      "у": 171,
      "ч": 172,
      "ы": 173,
      "ь": 174,
      "э": 175,
      "я": 176,
      "ا": 177,
      "ب": 178,
      "ت": 179,
      "د": 180,
      "ر": 181,
      "س": 182,
      "ش": 183,
      "ع": 184,
      "ل": 185,
      "م": 186,
      "ن": 187,
      "ه": 188,
      "و": 189,
      "ي": 190,
      "ی": 191,
      "ა": 192,
      "ე": 193,
      "ი": 194,
      "​": 195,
      "‎": 196,
      "–": 197,
      "—": 198,
      "‘": 199,
      "’": 200,
      "“": 201,
      "”": 202,
      "•": 203,
      "€": 204,
      "##a": 205,
      "##k": 206,
      "##s": 207,
      "##o": 208,
      "##n": 209,
      "##l": 210,
      "##r": 211,
      "##ı": 212,
      "##ü": 213,
      "##d": 214,
      "##e": 215,
      "##i": 216,
      "##m": 217,
      "##p": 218,
      "##t": 219,
      "##c": 220,
      "##f": 221,
      "##ğ": 222,
      "##y": 223,
      "##h": 224,
      "##ş": 225,
      "##z": 226,
      "##w": 227,
      "##u": 228,
      "##ó": 229,
      "##р": 230,
      "##о": 231,
      "##с": 232,
      "##и": 233,
      "##м": 234,
      "##v": 235,
      "##â": 236,
      "##î": 237,
      "##g": 238,
      "##R": 239,
      "##A": 240,
      "##C": 241,
      "##q": 242,
      "##b": 243,
      "##j": 244,
      "##F": 245,
      "##Ş": 246,
      "##ç": 247,
      "##I": 248,
      "##P": 249,
      "##D": 250,
      "##x": 251,
      "##İ": 252,
      "##Y": 253,
      "##N": 254,
      "##ñ": 255,
      "##ć": 256,
      "##­": 257,
      "##ö": 258,
      "##ი": 259,
      "##à": 260,
      "##μ": 261,
      "##ρ": 262,
      "##σ": 263,
      "##ι": 264,
      "##ο": 265,
      "##ς": 266,
      "##​": 267,
      "##ə": 268,
      "##M": 269,
      "##ā": 270,
      "##λ": 271,
      "##S": 272,
      "##O": 273,
      "##ل": 274,
      "##س": 275,
      "##ت": 276,
      "##ا": 277,
      "##ن": 278,
      "##ه": 279,
      "##ی": 280,
      "##č": 281,
      "##á": 282,
      "##ī": 283,
      "##V": 284,
      "##э": 285,
      "##а": 286,
      "##н": 287,
      "##у": 288,
      "##д": 289,
      "##е": 290,
      "##́": 291,
      "##к": 292,
      "##я": 293,
      "##U": 294,
      "##G": 295,
      "##K": 296,
      "##ë": 297,
      "##û": 298,
      "##в": 299,
      "##й": 300,
      "##و": 301,
      "##‎": 302,
      "##E": 303,
      "##T": 304,
      "##L": 305,
      "##ū": 306,
      "##B": 307,
      "##ł": 308,
      "##ô": 309,
      "##ž": 310,
      "##X": 311,
      "##W": 312,
      "##л": 313,
      "##т": 314,
      "##κ": 315,
      "##α": 316,
      "##τ": 317,
      "##ა": 318,
      "##ε": 319,
      "##š": 320,
      "##ō": 321,
      "##í": 322,
      "##ع": 323,
      "##م": 324,
      "##د": 325,
      "##ي": 326,
      "##é": 327,
      "##ე": 328,
      "##ь": 329,
      "##ä": 330,
      "##H": 331,
      "##è": 332,
      "##ν": 333,
      "##ب": 334,
      "##ش": 335,
      "##ر": 336,
      "##ê": 337,
      "##J": 338,
      "##Z": 339,
      "##Ü": 340,
      "##ы": 341,
      "##ă": 342,
      "##б": 343,
      "##г": 344,
      "##ч": 345,
      "##ø": 346,
      "##п": 347,
      "##å": 348,
      "##Q": 349,
      "##Ö": 350,
      "##Ç": 351,
      "##ã": 352,
      "##Š": 353,
      "##з": 354,
      "##ú": 355,
      "##×": 356,
      "##А": 357,
      "##É": 358,
      "##Â": 359,
      "##С": 360,
      "##€": 361,
      "##°": 362,
      "##ar": 363,
      "##an": 364,
      "##er": 365,
      "##in": 366,
      "##ın": 367,
      "##ir": 368,
      "##en": 369,
      "##lar": 370,
      "##ak": 371,
      "##il": 372,
      "##le": 373,
      "##da": 374,
      "##al": 375,
      "##de": 376,
      "ve": 377,
      "##on": 378,
      "##as": 379,
      "##ler": 380,
      "##un": 381,
      "##ır": 382,
      "##la": 383,
      "##ek": 384,
      "##es": 385,
      "##li": 386,
      "bir": 387,
      "##ıl": 388,
      "##ay": 389,
      "##at": 390,
      "##et": 391,
      "##ur": 392,
      "##lan": 393,
      "##is": 394,
      "##şt": 395,
      "##el": 396,
      "##am": 397,
      "##iy": 398,
      "##or": 399,
      "##ik": 400,
      "##ul": 401,
      "##dı": 402,
      "##ında": 403,
      "##ün": 404,
      "##aş": 405,
      "##ür": 406,
      "##em": 407,
      "##lı": 408,
      "##im": 409,
      "da": 410,
      "de": 411,
      "##it": 412,
      "##ap": 413,
      "##dan": 414,
      "##di": 415,
      "##az": 416,
      "ol": 417,
      "##inde": 418,
      "##ol": 419,
      "##ya": 420,
      "##ey": 421,
      "##ma": 422,
      "##ad": 423,
      "##us": 424,
      "##den": 425,
      "##ine": 426,
      "##ra": 427,
      "##ları": 428,
      "##ası": 429,
      "##ış": 430,
      "##dir": 431,
      "##ık": 432,
      "##ah": 433,
      "##iz": 434,
      "gö": 435,
      "##du": 436,
      "##ların": 437,
      "yıl": 438,
      "##ağ": 439,
      "##ım": 440,
      "##te": 441,
      "##larak": 442,
      "##mi": 443,
      "##ük": 444,
      "##leri": 445,
      "##ti": 446,
      "iç": 447,
      "tar": 448,
      "##esi": 449,
      "##ab": 450,
      "olarak": 451,
      "##ini": 452,
      "##st": 453,
      "##üm": 454,
      "al": 455,
      "##um": 456,
      "son": 457,
      "##ki": 458,
      "ile": 459,
      "##ok": 460,
      "il": 461,
      "yap": 462,
      "##ği": 463,
      "##re": 464,
      "##ez": 465,
      "##inin": 466,
      "##dır": 467,
      "##af": 468,
      "baş": 469,
      "##ından": 470,
      "##üz": 471,
      "##ıs": 472,
      "##ştir": 473,
      "##ce": 474,
      "##lik": 475,
      "in": 476,
      "##oğ": 477,
      "##om": 478,
      "##mak": 479,
      "##av": 480,
      "##ğı": 481,
      "ar": 482,
      "##ön": 483,
      "##ştır": 484,
      "##ül": 485,
      "kar": 486,
      "##os": 487,
      "##iler": 488,
      "bu": 489,
      "##ut": 490,
      "##mı": 491,
      "an": 492,
      "et": 493,
      "için": 494,
      "##ını": 495,
      "##ist": 496,
      "##me": 497,
      "##eç": 498,
      "##ev": 499,
      "##lu": 500,
      "##op": 501,
      "olan": 502,
      "yer": 503,
      "##ına": 504,
      "##ih": 505,
      "##aki": 506,
      "##mek": 507,
      "##man": 508,
      "##ca": 509,
      "##ta": 510,
      "##tı": 511,
      "oldu": 512,
      "##iş": 513,
      "##len": 514,
      "bul": 515,
      "is": 516,
      "##ro": 517,
      "##ru": 518,
      "ay": 519,
      "taraf": 520,
      "##mıştır": 521,
      "Bu": 522,
      "##eri": 523,
      "ed": 524,
      "##aya": 525,
      "##ark": 526,
      "yılında": 527,
      "ön": 528,
      "##öl": 529,
      "##eh": 530,
      "##isi": 531,
      "##uş": 532,
      "##asında": 533,
      "tarafından": 534,
      "en": 535,
      "##ız": 536,
      "bulun": 537,
      "##yon": 538,
      "##tad": 539,
      "##iye": 540,
      "##ha": 541,
      "##cak": 542,
      "te": 543,
      "kul": 544,
      "sonra": 545,
      "##ip": 546,
      "##ib": 547,
      "##ran": 548,
      "##ic": 549,
      "##üy": 550,
      "An": 551,
      "##lık": 552,
      "##miştir": 553,
      "ver": 554,
      "##ması": 555,
      "##uk": 556,
      "##ürk": 557,
      "##zer": 558,
      "##tadır": 559,
      "##alı": 560,
      "##yla": 561,
      "kur": 562,
      "##ğu": 563,
      "##ının": 564,
      "##öy": 565,
      "##ör": 566,
      "##eş": 567,
      "##let": 568,
      "or": 569,
      "Türk": 570,
      "##cı": 571,
      "##lerin": 572,
      "göre": 573,
      "##eli": 574,
      "oy": 575,
      "##ci": 576,
      "bil": 577,
      "##tan": 578,
      "kullan": 579,
      "##uz": 580,
      "nin": 581,
      "##uşt": 582,
      "##aç": 583,
      "nın": 584,
      "##eni": 585,
      "ilk": 586,
      "##ilm": 587,
      "tarih": 588,
      "##ed": 589,
      "##anı": 590,
      "##üş": 591,
      "##eb": 592,
      "##ken": 593,
      "##unda": 594,
      "##lay": 595,
      "kon": 596,
      "bağ": 597,
      "##ers": 598,
      "Al": 599,
      "sür": 600,
      "ın": 601,
      "##ilir": 602,
      "kad": 603,
      "böl": 604,
      "##ilen": 605,
      "##cu": 606,
      "daha": 607,
      "##laş": 608,
      "##uştur": 609,
      "##unu": 610,
      "dön": 611,
      "Ar": 612,
      "çık": 613,
      "##daki": 614,
      "gel": 615,
      "##maktadır": 616,
      "##lam": 617,
      "##ov": 618,
      "yar": 619,
      "##art": 620,
      "geç": 621,
      "üzer": 622,
      "##mekte": 623,
      "##ılan": 624,
      "##iv": 625,
      "##üyük": 626,
      "##ot": 627,
      "##ayı": 628,
      "##ibi": 629,
      "##ig": 630,
      "##oy": 631,
      "##ec": 632,
      "##ada": 633,
      "##ildi": 634,
      "yön": 635,
      "ken": 636,
      "yay": 637,
      "ad": 638,
      "gör": 639,
      "sah": 640,
      "yaş": 641,
      "ger": 642,
      "##ili": 643,
      "yaz": 644,
      "##iyle": 645,
      "##miş": 646,
      "ise": 647,
      "tak": 648,
      "Bir": 649,
      "ne": 650,
      "##ladı": 651,
      "##ğer": 652,
      "den": 653,
      "##mektedir": 654,
      "kal": 655,
      "##ıldı": 656,
      "##id": 657,
      "##arı": 658,
      "##ter": 659,
      "##aman": 660,
      "##mış": 661,
      "doğ": 662,
      "aç": 663,
      "alan": 664,
      "ya": 665,
      "top": 666,
      "tek": 667,
      "##ge": 668,
      "##erk": 669,
      "olm": 670,
      "gün": 671,
      "##ac": 672,
      "gibi": 673,
      "##men": 674,
      "gen": 675,
      "karş": 676,
      "##leş": 677,
      "on": 678,
      "çok": 679,
      "##inden": 680,
      "##esine": 681,
      "uz": 682,
      "iş": 683,
      "##sel": 684,
      "##ret": 685,
      "kat": 686,
      "##larında": 687,
      "##tr": 688,
      "##if": 689,
      "##ısı": 690,
      "##unun": 691,
      "es": 692,
      "un": 693,
      "##ans": 694,
      "arasında": 695,
      "dev": 696,
      "##dür": 697,
      "##he": 698,
      "sır": 699,
      "##up": 700,
      "çal": 701,
      "büyük": 702,
      "##eye": 703,
      "öl": 704,
      "##ade": 705,
      "##iyet": 706,
      "##üt": 707,
      "##dü": 708,
      "İs": 709,
      "kadar": 710,
      "##rup": 711,
      "Am": 712,
      "##rı": 713,
      "takım": 714,
      "##lk": 715,
      "öz": 716,
      "##çe": 717,
      "##usu": 718,
      "##ri": 719,
      "##ara": 720,
      "##esinde": 721,
      "##lü": 722,
      "##si": 723,
      "##larda": 724,
      "var": 725,
      "yak": 726,
      "##kin": 727,
      "zaman": 728,
      "kay": 729,
      "##ster": 730,
      "çalış": 731,
      "##ılı": 732,
      "veya": 733,
      "iki": 734,
      "##üs": 735,
      "##ing": 736,
      "tan": 737,
      "##iyon": 738,
      "bel": 739,
      "##larını": 740,
      "##avaş": 741,
      "##est": 742,
      "Ay": 743,
      "##erkez": 744,
      "##mas": 745,
      "##lara": 746,
      "##ne": 747,
      "##ika": 748,
      "##dığı": 749,
      "##liği": 750,
      "ak": 751,
      "uy": 752,
      "İn": 753,
      "##ch": 754,
      "Av": 755,
      "yüz": 756,
      "##ub": 757,
      "##ele": 758,
      "##ale": 759,
      "pro": 760,
      "##bol": 761,
      "##dur": 762,
      "##der": 763,
      "kaz": 764,
      "hal": 765,
      "##arak": 766,
      "as": 767,
      "##sa": 768,
      "##lerini": 769,
      "##anlı": 770,
      "yük": 771,
      "görev": 772,
      "şeh": 773,
      "##imi": 774,
      "##gu": 775,
      "##öz": 776,
      "##raf": 777,
      "##uy": 778,
      "bağlı": 779,
      "##üç": 780,
      "##asyon": 781,
      "##üf": 782,
      "##uv": 783,
      "karşı": 784,
      "##ren": 785,
      "##iğer": 786,
      "yeni": 787,
      "##nı": 788,
      "##atı": 789,
      "dönem": 790,
      "##ayan": 791,
      "##oz": 792,
      "birlik": 793,
      "##lerinde": 794,
      "##gi": 795,
      "##ellik": 796,
      "##tal": 797,
      "##tir": 798,
      "##una": 799,
      "##ünde": 800,
      "##olo": 801,
      "##ley": 802,
      "göster": 803,
      "##met": 804,
      "##amp": 805,
      "##ilmiştir": 806,
      "ara": 807,
      "ev": 808,
      "##larının": 809,
      "şek": 810,
      "adı": 811,
      "düz": 812,
      "##ezon": 813,
      "düş": 814,
      "##lem": 815,
      "##por": 816,
      "##çek": 817,
      "Er": 818,
      "##oc": 819,
      "olduğu": 820,
      "##arkı": 821,
      "Türkiye": 822,
      "par": 823,
      "##ğini": 824,
      "##ındaki": 825,
      "seç": 826,
      "gir": 827,
      "alt": 828,
      "Kar": 829,
      "Amer": 830,
      "sahip": 831,
      "tarihinde": 832,
      "##lerde": 833,
      "##istan": 834,
      "##ram": 835,
      "ilç": 836,
      "##han": 837,
      "sağ": 838,
      "##mp": 839,
      "mil": 840,
      "##lama": 841,
      "kiş": 842,
      "##gil": 843,
      "##erek": 844,
      "##ağı": 845,
      "##ust": 846,
      "##ep": 847,
      "ele": 848,
      "yönet": 849,
      "##büm": 850,
      "##maya": 851,
      "dur": 852,
      "##san": 853,
      "Fran": 854,
      "kazan": 855,
      "km": 856,
      "##larına": 857,
      "##ef": 858,
      "##ede": 859,
      "##ünya": 860,
      "Or": 861,
      "kap": 862,
      "nde": 863,
      "##lerinin": 864,
      "oyun": 865,
      "etti": 866,
      "say": 867,
      "merkez": 868,
      "##ob": 869,
      "##sız": 870,
      "sezon": 871,
      "##diği": 872,
      "ek": 873,
      "bulunan": 874,
      "maç": 875,
      "diğer": 876,
      "##tır": 877,
      "##yan": 878,
      "##azı": 879,
      "deği": 880,
      "neden": 881,
      "##ivers": 882,
      "birlikte": 883,
      "En": 884,
      "##ka": 885,
      "at": 886,
      "##nivers": 887,
      "oyn": 888,
      "##iç": 889,
      "her": 890,
      "tem": 891,
      "##lus": 892,
      "el": 893,
      "##stan": 894,
      "##ştı": 895,
      "kıs": 896,
      "belir": 897,
      "##uh": 898,
      "##ça": 899,
      "yaptı": 900,
      "##od": 901,
      "yayın": 902,
      "##alık": 903,
      "tam": 904,
      "tür": 905,
      "geli": 906,
      "önem": 907,
      "film": 908,
      "##oli": 909,
      "##og": 910,
      "ort": 911,
      "##niversit": 912,
      "yan": 913,
      "##ten": 914,
      "har": 915,
      "##ile": 916,
      "üç": 917,
      "san": 918,
      "##rıca": 919,
      "kurul": 920,
      "##tik": 921,
      "der": 922,
      "hay": 923,
      "çek": 924,
      "nüf": 925,
      "kab": 926,
      "##cü": 927,
      "##orm": 928,
      "hak": 929,
      "##ımı": 930,
      "##oloj": 931,
      "ser": 932,
      "##sek": 933,
      "gerçek": 934,
      "köy": 935,
      "yol": 936,
      "##enin": 937,
      "##lere": 938,
      "kend": 939,
      "Alman": 940,
      "Gen": 941,
      "boy": 942,
      "##üp": 943,
      "Ch": 944,
      "##ılır": 945,
      "er": 946,
      "aldı": 947,
      "önce": 948,
      "albüm": 949,
      "nda": 950,
      "Dev": 951,
      "sonu": 952,
      "aynı": 953,
      "##utbol": 954,
      "başladı": 955,
      "Kon": 956,
      "##eti": 957,
      "öğ": 958,
      "##mesi": 959,
      "İngil": 960,
      "##dül": 961,
      "dan": 962,
      "olduğ": 963,
      "Baş": 964,
      "ülk": 965,
      "##istem": 966,
      "oluş": 967,
      "##ye": 968,
      "##ünü": 969,
      "##lab": 970,
      "##lerine": 971,
      "##ğını": 972,
      "açık": 973,
      "taş": 974,
      "##eyi": 975,
      "##leştir": 976,
      "##ama": 977,
      "Ak": 978,
      "Os": 979,
      "##bul": 980,
      "kom": 981,
      "##se": 982,
      "##ordu": 983,
      "müz": 984,
      "##ral": 985,
      "ada": 986,
      "ye": 987,
      "##ag": 988,
      "Tar": 989,
      "adlı": 990,
      "##ellikle": 991,
      "##lardan": 992,
      "gelen": 993,
      "##eki": 994,
      "##luk": 995,
      "##lerinden": 996,
      "##iyat": 997,
      "kö": 998,
      "##dar": 999,
      "##ileri": 1000,
      "##hur": 1001,
      "önemli": 1002,
      "##üşt": 1003,
      "Gün": 1004,
      "bölüm": 1005,
      "##lat": 1006,
      "fark": 1007,
      "##stanbul": 1008,
      "bas": 1009,
      "üret": 1010,
      "İstanbul": 1011,
      "ilçesine": 1012,
      "şekil": 1013,
      "içer": 1014,
      "##ıy": 1015,
      "Mar": 1016,
      "##van": 1017,
      "##ılmıştır": 1018,
      "bilin": 1019,
      "düzen": 1020,
      "eğ": 1021,
      "Ek": 1022,
      "##rak": 1023,
      "ama": 1024,
      "##uzey": 1025,
      "##ent": 1026,
      "##larından": 1027,
      "##yi": 1028,
      "Avrup": 1029,
      "##iyas": 1030,
      "ok": 1031,
      "etk": 1032,
      "dir": 1033,
      "içinde": 1034,
      "Rus": 1035,
      "##landı": 1036,
      "hem": 1037,
      "mah": 1038,
      "sistem": 1039,
      "şarkı": 1040,
      "##tar": 1041,
      "##kinci": 1042,
      "Üniversit": 1043,
      "Dünya": 1044,
      "##ült": 1045,
      "su": 1046,
      "##lanan": 1047,
      "##ampiyon": 1048,
      "eski": 1049,
      "met": 1050,
      "do": 1051,
      "##liğ": 1052,
      "##landır": 1053,
      "##şk": 1054,
      "gerek": 1055,
      "##ulu": 1056,
      "oluştur": 1057,
      "##ow": 1058,
      "##öyle": 1059,
      "##rub": 1060,
      "nun": 1061,
      "Avrupa": 1062,
      "##oğu": 1063,
      "yapılan": 1064,
      "The": 1065,
      "Ağ": 1066,
      "##ilik": 1067,
      "##umhur": 1068,
      "##inal": 1069,
      "Mart": 1070,
      "söz": 1071,
      "##esini": 1072,
      "bölg": 1073,
      "ancak": 1074,
      "As": 1075,
      "diz": 1076,
      "mü": 1077,
      "biri": 1078,
      "Osman": 1079,
      "az": 1080,
      "##çok": 1081,
      "ağ": 1082,
      "daki": 1083,
      "dış": 1084,
      "San": 1085,
      "ist": 1086,
      "kor": 1087,
      "yüksek": 1088,
      "futbol": 1089,
      "##lığı": 1090,
      "mo": 1091,
      "##ket": 1092,
      "##arat": 1093,
      "olmuştur": 1094,
      "##amı": 1095,
      "##esinin": 1096,
      "ör": 1097,
      "sal": 1098,
      "##tib": 1099,
      "##etir": 1100,
      "##ard": 1101,
      "ta": 1102,
      "##lendir": 1103,
      "##ide": 1104,
      "şekilde": 1105,
      "getir": 1106,
      "##kan": 1107,
      "üst": 1108,
      "durum": 1109,
      "res": 1110,
      "##çi": 1111,
      "değiş": 1112,
      "Tem": 1113,
      "##bir": 1114,
      "##adı": 1115,
      "##olu": 1116,
      "vardır": 1117,
      "ayr": 1118,
      "üzerinde": 1119,
      "tüm": 1120,
      "##ast": 1121,
      "##ılık": 1122,
      "May": 1123,
      "Savaş": 1124,
      "uzak": 1125,
      "faz": 1126,
      "##eşit": 1127,
      "##oğraf": 1128,
      "##lek": 1129,
      "ko": 1130,
      "Kur": 1131,
      "##les": 1132,
      "##muştur": 1133,
      "üzerine": 1134,
      "##eg": 1135,
      "itib": 1136,
      "Tarih": 1137,
      "##leme": 1138,
      "##na": 1139,
      "Mil": 1140,
      "eş": 1141,
      "bazı": 1142,
      "Üniversitesi": 1143,
      "olduğunu": 1144,
      "##vet": 1145,
      "üzere": 1146,
      "Ey": 1147,
      "insan": 1148,
      "savaş": 1149,
      "çev": 1150,
      "kit": 1151,
      "##asına": 1152,
      "edil": 1153,
      "Lig": 1154,
      "##isinde": 1155,
      "##ia": 1156,
      "tamam": 1157,
      "##ınır": 1158,
      "kan": 1159,
      "Amerik": 1160,
      "Haz": 1161,
      "aş": 1162,
      "bölge": 1163,
      "iz": 1164,
      "kez": 1165,
      "ik": 1166,
      "devam": 1167,
      "##üçük": 1168,
      "##meye": 1169,
      "birçok": 1170,
      "##üne": 1171,
      "bit": 1172,
      "##asar": 1173,
      "olmak": 1174,
      "ili": 1175,
      "##ton": 1176,
      "##alan": 1177,
      "tur": 1178,
      "kabul": 1179,
      "##tü": 1180,
      "çalışma": 1181,
      "ask": 1182,
      "Ayrıca": 1183,
      "Öz": 1184,
      "##yet": 1185,
      "##tör": 1186,
      "İngiliz": 1187,
      "çıkar": 1188,
      "##dından": 1189,
      "##ecek": 1190,
      "yet": 1191,
      "Par": 1192,
      "AB": 1193,
      "##alle": 1194,
      "Cumhur": 1195,
      "##yıl": 1196,
      "Osmanlı": 1197,
      "##lerden": 1198,
      "##siyon": 1199,
      "şehir": 1200,
      "Son": 1201,
      "##ina": 1202,
      "tut": 1203,
      "Ne": 1204,
      "çeşit": 1205,
      "##asım": 1206,
      "##ant": 1207,
      "grup": 1208,
      "##iran": 1209,
      "##itim": 1210,
      "Mayıs": 1211,
      "##luğu": 1212,
      "##layan": 1213,
      "##gan": 1214,
      "sat": 1215,
      "##arator": 1216,
      "##mparator": 1217,
      "Ocak": 1218,
      "fazla": 1219,
      "başar": 1220,
      "##ılmış": 1221,
      "ikinci": 1222,
      "ilg": 1223,
      "##lül": 1224,
      "ben": 1225,
      "kayn": 1226,
      "##end": 1227,
      "##eled": 1228,
      "##okt": 1229,
      "##ğü": 1230,
      "isim": 1231,
      "uzun": 1232,
      "sor": 1233,
      "göz": 1234,
      "değ": 1235,
      "##aha": 1236,
      "##ehir": 1237,
      "##ort": 1238,
      "bak": 1239,
      "##aret": 1240,
      "ün": 1241,
      "grub": 1242,
      "İlk": 1243,
      "Kasım": 1244,
      "II": 1245,
      "alın": 1246,
      "farklı": 1247,
      "uygu": 1248,
      "yaklaş": 1249,
      "Nis": 1250,
      "##dım": 1251,
      "##ece": 1252,
      "##yal": 1253,
      "Es": 1254,
      "eden": 1255,
      "##emi": 1256,
      "ilinin": 1257,
      "##üştür": 1258,
      "yüzyıl": 1259,
      "##akat": 1260,
      "##muz": 1261,
      "sonr": 1262,
      "##elen": 1263,
      "##duğu": 1264,
      "ot": 1265,
      "doğru": 1266,
      "kariy": 1267,
      "genel": 1268,
      "harek": 1269,
      "##sal": 1270,
      "güç": 1271,
      "Pro": 1272,
      "##arası": 1273,
      "im": 1274,
      "##ber": 1275,
      "St": 1276,
      "kendi": 1277,
      "Devlet": 1278,
      "##şti": 1279,
      "hük": 1280,
      "Eylül": 1281,
      "ülke": 1282,
      "##üc": 1283,
      "##ava": 1284,
      "At": 1285,
      "geçir": 1286,
      "##larla": 1287,
      "##hil": 1288,
      "##anlığı": 1289,
      "Ekim": 1290,
      "sanat": 1291,
      "ter": 1292,
      "Haziran": 1293,
      "##ion": 1294,
      "##layı": 1295,
      "##las": 1296,
      "Bil": 1297,
      "ABD": 1298,
      "##det": 1299,
      "##kı": 1300,
      "Birleş": 1301,
      "##tif": 1302,
      "Nisan": 1303,
      "##aber": 1304,
      "##üb": 1305,
      "##ocuk": 1306,
      "iyi": 1307,
      "##ustos": 1308,
      "##eme": 1309,
      "of": 1310,
      "##ışma": 1311,
      "Temmuz": 1312,
      "olup": 1313,
      "##sil": 1314,
      "dil": 1315,
      "öğren": 1316,
      "Ağustos": 1317,
      "ardından": 1318,
      "##ünün": 1319,
      "Bur": 1320,
      "##ros": 1321,
      "##undan": 1322,
      "##fer": 1323,
      "##ou": 1324,
      "##nik": 1325,
      "Aralık": 1326,
      "Amerika": 1327,
      "sayı": 1328,
      "##ali": 1329,
      "Daha": 1330,
      "süre": 1331,
      "yakın": 1332,
      "##unca": 1333,
      "özel": 1334,
      "sı": 1335,
      "##atik": 1336,
      "##of": 1337,
      "na": 1338,
      "Bak": 1339,
      "dör": 1340,
      "##aat": 1341,
      "Ancak": 1342,
      "Kom": 1343,
      "##çı": 1344,
      "##ısında": 1345,
      "Bey": 1346,
      "küçük": 1347,
      "Şub": 1348,
      "##rar": 1349,
      "Har": 1350,
      "sırasında": 1351,
      "##sı": 1352,
      "##ron": 1353,
      "##oh": 1354,
      "geri": 1355,
      "yapı": 1356,
      "##deki": 1357,
      "Hal": 1358,
      "##ilerin": 1359,
      "mahalle": 1360,
      "bulunmaktadır": 1361,
      "düşün": 1362,
      "##oğun": 1363,
      "devlet": 1364,
      "kişi": 1365,
      "##üv": 1366,
      "##lerle": 1367,
      "##lî": 1368,
      "nüfus": 1369,
      "##labilir": 1370,
      "sınır": 1371,
      "##ud": 1372,
      "##ğin": 1373,
      "##gram": 1374,
      "kız": 1375,
      "Ro": 1376,
      "zor": 1377,
      "##unan": 1378,
      "Kan": 1379,
      "##adece": 1380,
      "##gı": 1381,
      "rol": 1382,
      "tah": 1383,
      "##son": 1384,
      "yılları": 1385,
      "tes": 1386,
      "oyuncu": 1387,
      "Cumhuriyet": 1388,
      "ortaya": 1389,
      "Ulus": 1390,
      "edildi": 1391,
      "Ab": 1392,
      "çeşitli": 1393,
      "Kral": 1394,
      "kes": 1395,
      "##ebilir": 1396,
      "##kanı": 1397,
      "##ültür": 1398,
      "Le": 1399,
      "##siz": 1400,
      "##dik": 1401,
      "Man": 1402,
      "##ht": 1403,
      "Böl": 1404,
      "##rin": 1405,
      "Şubat": 1406,
      "##can": 1407,
      "görül": 1408,
      "duy": 1409,
      "##onya": 1410,
      "##ök": 1411,
      "İtal": 1412,
      "for": 1413,
      "##yo": 1414,
      "hat": 1415,
      "##muş": 1416,
      "##lararası": 1417,
      "Birleşik": 1418,
      "kuru": 1419,
      "##ilmiş": 1420,
      "eder": 1421,
      "fil": 1422,
      "##lenen": 1423,
      "##ümüz": 1424,
      "##fes": 1425,
      "Savaşı": 1426,
      "Af": 1427,
      "##lev": 1428,
      "##lin": 1429,
      "##ştırma": 1430,
      "boyunca": 1431,
      "sen": 1432,
      "müzik": 1433,
      "olma": 1434,
      "##inci": 1435,
      "siyas": 1436,
      "##izmet": 1437,
      "##indeki": 1438,
      "##lak": 1439,
      "geliştir": 1440,
      "Büyük": 1441,
      "##bi": 1442,
      "##müştür": 1443,
      "##lardır": 1444,
      "##masına": 1445,
      "sev": 1446,
      "anlam": 1447,
      "tab": 1448,
      "##oman": 1449,
      "zamanda": 1450,
      "bin": 1451,
      "nedeniyle": 1452,
      "karar": 1453,
      "yılı": 1454,
      "##asının": 1455,
      "##masını": 1456,
      "##zı": 1457,
      "şir": 1458,
      "##estek": 1459,
      "haz": 1460,
      "##ğında": 1461,
      "##ılması": 1462,
      "geliş": 1463,
      "##asındaki": 1464,
      "ark": 1465,
      "görün": 1466,
      "art": 1467,
      "##üncü": 1468,
      "##hi": 1469,
      "uç": 1470,
      "In": 1471,
      "sadece": 1472,
      "Her": 1473,
      "poli": 1474,
      "yen": 1475,
      "##ilmesi": 1476,
      "yaşam": 1477,
      "##ümü": 1478,
      "##pan": 1479,
      "hareket": 1480,
      "##lük": 1481,
      "Yar": 1482,
      "kadın": 1483,
      "git": 1484,
      "##uvvet": 1485,
      "uzaklık": 1486,
      "##kek": 1487,
      "bur": 1488,
      "eser": 1489,
      "yeniden": 1490,
      "form": 1491,
      "mez": 1492,
      "##iyor": 1493,
      "eğitim": 1494,
      "hayat": 1495,
      "nüfusu": 1496,
      "saldır": 1497,
      "Genel": 1498,
      "##ord": 1499,
      "##ga": 1500,
      "tanım": 1501,
      "değer": 1502,
      "hız": 1503,
      "##ırak": 1504,
      "çocuk": 1505,
      "yaklaşık": 1506,
      "destek": 1507,
      "bilg": 1508,
      "yas": 1509,
      "Br": 1510,
      "##iya": 1511,
      "yardım": 1512,
      "##lanmıştır": 1513,
      "Sh": 1514,
      "yayım": 1515,
      "parç": 1516,
      "##lo": 1517,
      "##asını": 1518,
      "İl": 1519,
      "##oğrafya": 1520,
      "##lamıştır": 1521,
      "önc": 1522,
      "Köy": 1523,
      "yı": 1524,
      "ulus": 1525,
      "gön": 1526,
      "yerleş": 1527,
      "gaz": 1528,
      "seçim": 1529,
      "program": 1530,
      "Yeni": 1531,
      "kaynak": 1532,
      "halk": 1533,
      "kısa": 1534,
      "deki": 1535,
      "Kat": 1536,
      "karak": 1537,
      "##deş": 1538,
      "##isinin": 1539,
      "##ich": 1540,
      "bab": 1541,
      "ses": 1542,
      "##ünden": 1543,
      "hakk": 1544,
      "ede": 1545,
      "İmparator": 1546,
      "##ova": 1547,
      "bırak": 1548,
      "##üsü": 1549,
      "geniş": 1550,
      "Ödül": 1551,
      "hizmet": 1552,
      "bulunur": 1553,
      "Fransız": 1554,
      "sin": 1555,
      "##min": 1556,
      "Han": 1557,
      "##osyal": 1558,
      "kuzey": 1559,
      "##kara": 1560,
      "##aşa": 1561,
      "##anın": 1562,
      "##mir": 1563,
      "##cek": 1564,
      "##ula": 1565,
      "ait": 1566,
      "##yalet": 1567,
      "Güney": 1568,
      "mak": 1569,
      "##isini": 1570,
      "Yunan": 1571,
      "mev": 1572,
      "##per": 1573,
      "##ici": 1574,
      "edilen": 1575,
      "Almanya": 1576,
      "Den": 1577,
      "hazır": 1578,
      "##tiv": 1579,
      "##esinden": 1580,
      "sık": 1581,
      "altında": 1582,
      "değil": 1583,
      "yerine": 1584,
      "Co": 1585,
      "rağ": 1586,
      "haf": 1587,
      "giy": 1588,
      "dün": 1589,
      "##ıp": 1590,
      "orta": 1591,
      "Coğrafya": 1592,
      "Kor": 1593,
      "has": 1594,
      "Oy": 1595,
      "Film": 1596,
      "üy": 1597,
      "Ada": 1598,
      "ilgili": 1599,
      "plan": 1600,
      "El": 1601,
      "inş": 1602,
      "oğ": 1603,
      "Ankara": 1604,
      "rağmen": 1605,
      "##kü": 1606,
      "##elik": 1607,
      "tip": 1608,
      "topl": 1609,
      "söy": 1610,
      "güney": 1611,
      "Fransa": 1612,
      "yarış": 1613,
      "Sov": 1614,
      "bilim": 1615,
      "Muh": 1616,
      "##ari": 1617,
      "##usunda": 1618,
      "Kuzey": 1619,
      "Gal": 1620,
      "##esiyle": 1621,
      "##gün": 1622,
      "dahil": 1623,
      "yaptığı": 1624,
      "Şampiyon": 1625,
      "##ana": 1626,
      "Jap": 1627,
      "gerçekleştir": 1628,
      "##isyon": 1629,
      "asker": 1630,
      "Tek": 1631,
      "temsil": 1632,
      "kullanı": 1633,
      "gol": 1634,
      "New": 1635,
      "##pe": 1636,
      "##lığ": 1637,
      "##ly": 1638,
      "lis": 1639,
      "##luğ": 1640,
      "##abilir": 1641,
      "mad": 1642,
      "##fa": 1643,
      "##enk": 1644,
      "dik": 1645,
      "ulaş": 1646,
      "çıktı": 1647,
      "Dem": 1648,
      "dağ": 1649,
      "ilişk": 1650,
      "olması": 1651,
      "##şı": 1652,
      "merkezi": 1653,
      "ödül": 1654,
      "##ck": 1655,
      "Sovyet": 1656,
      "##mayı": 1657,
      "Kal": 1658,
      "##oş": 1659,
      "tekrar": 1660,
      "##rans": 1661,
      "##eral": 1662,
      "şampiyon": 1663,
      "##ug": 1664,
      "kır": 1665,
      "toplam": 1666,
      "##üven": 1667,
      "dört": 1668,
      "final": 1669,
      "sıra": 1670,
      "##ver": 1671,
      "##ind": 1672,
      "Bunun": 1673,
      "kazandı": 1674,
      "konu": 1675,
      "çalı": 1676,
      "öldür": 1677,
      "##isine": 1678,
      "##pr": 1679,
      "olduk": 1680,
      "tasar": 1681,
      "Kup": 1682,
      "##gın": 1683,
      "##ift": 1684,
      "uzaklıktadır": 1685,
      "olur": 1686,
      "if": 1687,
      "onun": 1688,
      "Tarihçe": 1689,
      "gönder": 1690,
      "##eyen": 1691,
      "##üdür": 1692,
      "kayb": 1693,
      "başka": 1694,
      "##landa": 1695,
      "##ınıf": 1696,
      "##land": 1697,
      "##ılmaktadır": 1698,
      "anlaş": 1699,
      "##baş": 1700,
      "almıştır": 1701,
      "##rist": 1702,
      "Bar": 1703,
      "futbolcu": 1704,
      "##uluk": 1705,
      "milyon": 1706,
      "Çin": 1707,
      "elek": 1708,
      "##oloji": 1709,
      "Ber": 1710,
      "##umu": 1711,
      "##kaç": 1712,
      "##leti": 1713,
      "##cade": 1714,
      "list": 1715,
      "##lis": 1716,
      "eyalet": 1717,
      "##ost": 1718,
      "yür": 1719,
      "edilmiştir": 1720,
      "muh": 1721,
      "geldi": 1722,
      "Hay": 1723,
      "Mah": 1724,
      "##lacak": 1725,
      "ayrıca": 1726,
      "seb": 1727,
      "##ütün": 1728,
      "##ni": 1729,
      "##izm": 1730,
      "Ok": 1731,
      "ber": 1732,
      "##ektör": 1733,
      "man": 1734,
      "##ılım": 1735,
      "Amerikan": 1736,
      "çevr": 1737,
      "elde": 1738,
      "Bel": 1739,
      "##emek": 1740,
      "##lamak": 1741,
      "##edi": 1742,
      "belirt": 1743,
      "##ize": 1744,
      "##eng": 1745,
      "ana": 1746,
      "genellikle": 1747,
      "##urg": 1748,
      "kil": 1749,
      "##ji": 1750,
      "##ry": 1751,
      "yüksel": 1752,
      "dünya": 1753,
      "mode": 1754,
      "##eler": 1755,
      "the": 1756,
      "##ıt": 1757,
      "Part": 1758,
      "sav": 1759,
      "sahiptir": 1760,
      "##alt": 1761,
      "lig": 1762,
      "karakter": 1763,
      "##ba": 1764,
      "kültür": 1765,
      "yazar": 1766,
      "##ğinde": 1767,
      "değiştir": 1768,
      "##orn": 1769,
      "bey": 1770,
      "##izyon": 1771,
      "##lendi": 1772,
      "##ider": 1773,
      "per": 1774,
      "sil": 1775,
      "kent": 1776,
      "üye": 1777,
      "dal": 1778,
      "itibarı": 1779,
      "sonuç": 1780,
      "Hol": 1781,
      "##nek": 1782,
      "millî": 1783,
      "##maz": 1784,
      "ölüm": 1785,
      "din": 1786,
      "Ser": 1787,
      "Müz": 1788,
      "Th": 1789,
      "Roma": 1790,
      "Ali": 1791,
      "kim": 1792,
      "Wil": 1793,
      "##ond": 1794,
      "##tern": 1795,
      "ifade": 1796,
      "gal": 1797,
      "adıyla": 1798,
      "hiç": 1799,
      "yaşında": 1800,
      "tarihi": 1801,
      "takımı": 1802,
      "##oğlu": 1803,
      "İz": 1804,
      "kayı": 1805,
      "##urt": 1806,
      "sırada": 1807,
      "kaç": 1808,
      "şark": 1809,
      "##tem": 1810,
      "Gür": 1811,
      "mes": 1812,
      "Top": 1813,
      "özellikle": 1814,
      "toprak": 1815,
      "##ilmektedir": 1816,
      "olay": 1817,
      "##amak": 1818,
      "bilinen": 1819,
      "Yah": 1820,
      "Ko": 1821,
      "Rusya": 1822,
      "kullanılan": 1823,
      "On": 1824,
      "kav": 1825,
      "##aren": 1826,
      "##elediye": 1827,
      "##asyonu": 1828,
      "sınıf": 1829,
      "arasındaki": 1830,
      "İspan": 1831,
      "Ev": 1832,
      "temel": 1833,
      "ler": 1834,
      "Der": 1835,
      "##tiği": 1836,
      "bağlan": 1837,
      "##gar": 1838,
      "##osu": 1839,
      "mal": 1840,
      "##gun": 1841,
      "gelir": 1842,
      "##lerdir": 1843,
      "Cumhuriyeti": 1844,
      "Doğu": 1845,
      "beş": 1846,
      "katıldı": 1847,
      "sonunda": 1848,
      "##fi": 1849,
      "##bo": 1850,
      "Ma": 1851,
      "keş": 1852,
      "verdi": 1853,
      "Tan": 1854,
      "##rim": 1855,
      "yapan": 1856,
      "##umlu": 1857,
      "##rat": 1858,
      "##onom": 1859,
      "##tay": 1860,
      "trans": 1861,
      "##ij": 1862,
      "birkaç": 1863,
      "##cısı": 1864,
      "oluşan": 1865,
      "##bay": 1866,
      "elektr": 1867,
      "##trol": 1868,
      "ağır": 1869,
      "##ami": 1870,
      "##ser": 1871,
      "şirket": 1872,
      "yapım": 1873,
      "değişik": 1874,
      "imz": 1875,
      "mey": 1876,
      "##larıyla": 1877,
      "##azi": 1878,
      "##med": 1879,
      "giriş": 1880,
      "De": 1881,
      "##leyen": 1882,
      "beraber": 1883,
      "yönetim": 1884,
      "oran": 1885,
      "hakkında": 1886,
      "Ah": 1887,
      "##anıt": 1888,
      "Birliği": 1889,
      "alır": 1890,
      "##spor": 1891,
      "deniz": 1892,
      "##cusu": 1893,
      "##esel": 1894,
      "Kupası": 1895,
      "##ımsız": 1896,
      "##anan": 1897,
      "erkek": 1898,
      "cin": 1899,
      "çıkan": 1900,
      "##for": 1901,
      "sar": 1902,
      "##rik": 1903,
      "id": 1904,
      "##ite": 1905,
      "mahalledir": 1906,
      "kuş": 1907,
      "mücade": 1908,
      "Car": 1909,
      "konuş": 1910,
      "##cılı": 1911,
      "##ens": 1912,
      "##mıştı": 1913,
      "özellik": 1914,
      "ür": 1915,
      "sun": 1916,
      "##ete": 1917,
      "Şarkı": 1918,
      "beri": 1919,
      "##ûmet": 1920,
      "kariyer": 1921,
      "##ation": 1922,
      "Merkez": 1923,
      "Aynı": 1924,
      "Tur": 1925,
      "günümüz": 1926,
      "Mac": 1927,
      "##manın": 1928,
      "##ekiz": 1929,
      "Kul": 1930,
      "yapmıştır": 1931,
      "onu": 1932,
      "mek": 1933,
      "##gel": 1934,
      "##ork": 1935,
      "ölç": 1936,
      "kardeş": 1937,
      "##uma": 1938,
      "yi": 1939,
      "sezonunda": 1940,
      "etmek": 1941,
      "Paşa": 1942,
      "##din": 1943,
      "##tere": 1944,
      "##este": 1945,
      "fa": 1946,
      "öğret": 1947,
      "##leriyle": 1948,
      "##sik": 1949,
      "çiz": 1950,
      "oğlu": 1951,
      "##ydı": 1952,
      "itibaren": 1953,
      "almaktadır": 1954,
      "##uan": 1955,
      "##to": 1956,
      "inşa": 1957,
      "##acak": 1958,
      "araştırma": 1959,
      "Bun": 1960,
      "ten": 1961,
      "kuvvet": 1962,
      "dav": 1963,
      "##ock": 1964,
      "##üler": 1965,
      "##azar": 1966,
      "##yor": 1967,
      "yarı": 1968,
      "merkezine": 1969,
      "Oyun": 1970,
      "##lim": 1971,
      "kitap": 1972,
      "bah": 1973,
      "##fesyon": 1974,
      "##ktan": 1975,
      "biç": 1976,
      "##iyordu": 1977,
      "etmiştir": 1978,
      "kıy": 1979,
      "##fesyonel": 1980,
      "Dan": 1981,
      "çap": 1982,
      "kas": 1983,
      "##bak": 1984,
      "##ime": 1985,
      "##ohn": 1986,
      "kaldı": 1987,
      "##qu": 1988,
      "Amerikalı": 1989,
      "Bul": 1990,
      "sonucu": 1991,
      "kaps": 1992,
      "##yalı": 1993,
      "Orta": 1994,
      "genç": 1995,
      "##tin": 1996,
      "kontrol": 1997,
      "Kay": 1998,
      "ord": 1999,
      "##ire": 2000,
      "aday": 2001,
      "Mo": 2002,
      "Deniz": 2003,
      "arkada": 2004,
      "döneminde": 2005,
      "olmayan": 2006,
      "##udi": 2007,
      "##olojik": 2008,
      "##gen": 2009,
      "hüküm": 2010,
      "bar": 2011,
      "Ara": 2012,
      "Arap": 2013,
      "adlandır": 2014,
      "İtalya": 2015,
      "çağ": 2016,
      "kale": 2017,
      "##ell": 2018,
      "##ilece": 2019,
      "##kları": 2020,
      "##lanır": 2021,
      "İsv": 2022,
      "görüş": 2023,
      "##inc": 2024,
      "##be": 2025,
      "kr": 2026,
      "Re": 2027,
      "Kad": 2028,
      "eki": 2029,
      "John": 2030,
      "##ultan": 2031,
      "##int": 2032,
      "Ör": 2033,
      "verilen": 2034,
      "Mal": 2035,
      "dolayı": 2036,
      "kitab": 2037,
      "Kır": 2038,
      "İngiltere": 2039,
      "dayan": 2040,
      "##ince": 2041,
      "Anad": 2042,
      "##lanmış": 2043,
      "ilçe": 2044,
      "##ve": 2045,
      "##sun": 2046,
      "amacı": 2047,
      "komut": 2048,
      "filmi": 2049,
      "Devletleri": 2050,
      "Sal": 2051,
      "##aj": 2052,
      "##meni": 2053,
      "Tak": 2054,
      "ail": 2055,
      "##laştı": 2056,
      "söyle": 2057,
      "Sam": 2058,
      "idar": 2059,
      "##cut": 2060,
      "Bay": 2061,
      "##asından": 2062,
      "##iyan": 2063,
      "adını": 2064,
      "kalan": 2065,
      "##amıştır": 2066,
      "organ": 2067,
      "Se": 2068,
      "##liğini": 2069,
      "##rika": 2070,
      "##ris": 2071,
      "dem": 2072,
      "güven": 2073,
      "##mer": 2074,
      "##aw": 2075,
      "taki": 2076,
      "mik": 2077,
      "Bas": 2078,
      "dışında": 2079,
      "edilir": 2080,
      "Su": 2081,
      "Anadolu": 2082,
      "üyesi": 2083,
      "şu": 2084,
      "İş": 2085,
      "iddi": 2086,
      "şey": 2087,
      "##dana": 2088,
      "Kız": 2089,
      "num": 2090,
      "uğ": 2091,
      "koy": 2092,
      "sürdür": 2093,
      "##iydi": 2094,
      "##otor": 2095,
      "saat": 2096,
      "##efer": 2097,
      "Ben": 2098,
      "taşı": 2099,
      "##ate": 2100,
      "Sar": 2101,
      "lar": 2102,
      "##co": 2103,
      "itibarıyla": 2104,
      "şekl": 2105,
      "st": 2106,
      "And": 2107,
      "Batı": 2108,
      "Bab": 2109,
      "yanı": 2110,
      "##th": 2111,
      "pop": 2112,
      "birbir": 2113,
      "büy": 2114,
      "##ank": 2115,
      "bütün": 2116,
      "##ograf": 2117,
      "##ğine": 2118,
      "##yum": 2119,
      "Mon": 2120,
      "##ise": 2121,
      "bun": 2122,
      "eleştir": 2123,
      "##tu": 2124,
      "kayıt": 2125,
      "Partisi": 2126,
      "kariyeri": 2127,
      "can": 2128,
      "##mişti": 2129,
      "bağımsız": 2130,
      "Eur": 2131,
      "dönemde": 2132,
      "##lah": 2133,
      "##ilecek": 2134,
      "##orum": 2135,
      "Eski": 2136,
      "##GC": 2137,
      "##eder": 2138,
      "##anda": 2139,
      "##lüğ": 2140,
      "çalıştı": 2141,
      "##and": 2142,
      "ayrı": 2143,
      "Meh": 2144,
      "##tür": 2145,
      "Ad": 2146,
      "yoğun": 2147,
      "##elediy": 2148,
      "##adem": 2149,
      "Be": 2150,
      "Sur": 2151,
      "##aka": 2152,
      "benzer": 2153,
      "pat": 2154,
      "##res": 2155,
      "çöz": 2156,
      "##rek": 2157,
      "spor": 2158,
      "##aliyet": 2159,
      "##laştır": 2160,
      "aldığı": 2161,
      "##ars": 2162,
      "içerisinde": 2163,
      "kulüb": 2164,
      "teknik": 2165,
      "##els": 2166,
      "##lüm": 2167,
      "mücadele": 2168,
      "oynadı": 2169,
      "inan": 2170,
      "silah": 2171,
      "##lor": 2172,
      "Mic": 2173,
      "yıldı": 2174,
      "idi": 2175,
      "Ligi": 2176,
      "çift": 2177,
      "tic": 2178,
      "##uştu": 2179,
      "okul": 2180,
      "hav": 2181,
      "##ciler": 2182,
      "Has": 2183,
      "fakat": 2184,
      "ekonom": 2185,
      "düny": 2186,
      "##aban": 2187,
      "telev": 2188,
      "##neğin": 2189,
      "edeb": 2190,
      "##pit": 2191,
      "##ke": 2192,
      "kol": 2193,
      "##diler": 2194,
      "av": 2195,
      "yok": 2196,
      "##ğın": 2197,
      "yıllarında": 2198,
      "##ong": 2199,
      "##izik": 2200,
      "yat": 2201,
      "##ısır": 2202,
      "renk": 2203,
      "##tur": 2204,
      "Biz": 2205,
      "Yer": 2206,
      "##mesine": 2207,
      "##ang": 2208,
      "kam": 2209,
      "televizyon": 2210,
      "##meyi": 2211,
      "NGC": 2212,
      "##imleri": 2213,
      "model": 2214,
      "##ideo": 2215,
      "madde": 2216,
      "isimli": 2217,
      "kullanılır": 2218,
      "faaliyet": 2219,
      "##FA": 2220,
      "yaygın": 2221,
      "sosyal": 2222,
      "Yaş": 2223,
      "Yıl": 2224,
      "##vek": 2225,
      "##suz": 2226,
      "keşf": 2227,
      "suç": 2228,
      "ener": 2229,
      "sem": 2230,
      "yarat": 2231,
      "üçüncü": 2232,
      "##ert": 2233,
      "Oli": 2234,
      "Alt": 2235,
      "iste": 2236,
      "İmparatorluğu": 2237,
      "##asıyla": 2238,
      "##dern": 2239,
      "öldü": 2240,
      "##aln": 2241,
      "nden": 2242,
      "rek": 2243,
      "Azer": 2244,
      "göç": 2245,
      "##atör": 2246,
      "alı": 2247,
      "grubu": 2248,
      "Sch": 2249,
      "##üldü": 2250,
      "##sk": 2251,
      "transfer": 2252,
      "Pet": 2253,
      "savun": 2254,
      "##iss": 2255,
      "Bal": 2256,
      "##kanlığı": 2257,
      "mevcut": 2258,
      "##lav": 2259,
      "Şeh": 2260,
      "Sultan": 2261,
      "##ukuk": 2262,
      "##iir": 2263,
      "##öylece": 2264,
      "##alnız": 2265,
      "İran": 2266,
      "hemen": 2267,
      "##ema": 2268,
      "Dav": 2269,
      "yine": 2270,
      "##teş": 2271,
      "##rol": 2272,
      "##iyatro": 2273,
      "##mam": 2274,
      "proj": 2275,
      "##uvar": 2276,
      "tanın": 2277,
      "##müş": 2278,
      "##iliği": 2279,
      "kurulan": 2280,
      "##ışı": 2281,
      "albümü": 2282,
      "##lenmiştir": 2283,
      "Port": 2284,
      "##ola": 2285,
      "##adi": 2286,
      "##ane": 2287,
      "bulundu": 2288,
      "##mez": 2289,
      "atan": 2290,
      "hükûmet": 2291,
      "babası": 2292,
      "Gök": 2293,
      "##yanın": 2294,
      "dok": 2295,
      "metre": 2296,
      "şehr": 2297,
      "yapımı": 2298,
      "##şta": 2299,
      "köydür": 2300,
      "##forman": 2301,
      "##ağını": 2302,
      "pek": 2303,
      "Fak": 2304,
      "##masıyla": 2305,
      "Per": 2306,
      "##mesini": 2307,
      "##ie": 2308,
      "ortak": 2309,
      "hüc": 2310,
      "##ener": 2311,
      "##ayet": 2312,
      "##burg": 2313,
      "geçen": 2314,
      "Bo": 2315,
      "biçim": 2316,
      "bulunduğu": 2317,
      "##isk": 2318,
      "teor": 2319,
      "##tığı": 2320,
      "##br": 2321,
      "Uluslararası": 2322,
      "##afa": 2323,
      "##iyi": 2324,
      "Sp": 2325,
      "hayvan": 2326,
      "##ücü": 2327,
      "Ulusal": 2328,
      "##lidir": 2329,
      "ünlü": 2330,
      "futbolcudur": 2331,
      "kral": 2332,
      "la": 2333,
      "Kaz": 2334,
      "örnek": 2335,
      "##ham": 2336,
      "Azerbay": 2337,
      "sonraki": 2338,
      "Pol": 2339,
      "##kenin": 2340,
      "##oktor": 2341,
      "##alar": 2342,
      "##bah": 2343,
      "##lüğü": 2344,
      "Sanat": 2345,
      "##tral": 2346,
      "Mek": 2347,
      "parça": 2348,
      "doğdu": 2349,
      "##her": 2350,
      "##dığını": 2351,
      "sonuc": 2352,
      "Ste": 2353,
      "gem": 2354,
      "##istik": 2355,
      "toplum": 2356,
      "##uldu": 2357,
      "##letvek": 2358,
      "##yen": 2359,
      "boz": 2360,
      "##taş": 2361,
      "##ledi": 2362,
      "uluslararası": 2363,
      "dönüş": 2364,
      "biridir": 2365,
      "parçası": 2366,
      "Mısır": 2367,
      "hava": 2368,
      "Ödülü": 2369,
      "##hangi": 2370,
      "##ilere": 2371,
      "yılından": 2372,
      "dır": 2373,
      "Ge": 2374,
      "em": 2375,
      "rad": 2376,
      "roman": 2377,
      "##isesi": 2378,
      "Tra": 2379,
      "askeri": 2380,
      "yıldız": 2381,
      "ince": 2382,
      "formula": 2383,
      "##ğa": 2384,
      "La": 2385,
      "##lemek": 2386,
      "##ıldığı": 2387,
      "Sa": 2388,
      "##ff": 2389,
      "##leşme": 2390,
      "##şık": 2391,
      "bek": 2392,
      "İngilizce": 2393,
      "bitir": 2394,
      "ayında": 2395,
      "York": 2396,
      "yıllarda": 2397,
      "kuruluş": 2398,
      "Afrika": 2399,
      "yaşayan": 2400,
      "piyas": 2401,
      "##nuv": 2402,
      "Uz": 2403,
      "##ikâ": 2404,
      "##ore": 2405,
      "Yük": 2406,
      "sezonu": 2407,
      "Albüm": 2408,
      "Paris": 2409,
      "##adığı": 2410,
      "sahibi": 2411,
      "yağ": 2412,
      "burada": 2413,
      "Azerbaycan": 2414,
      "sistemi": 2415,
      "etkin": 2416,
      "kaldır": 2417,
      "altı": 2418,
      "Sır": 2419,
      "amaç": 2420,
      "##io": 2421,
      "Ham": 2422,
      "dikk": 2423,
      "##ansı": 2424,
      "bat": 2425,
      "kut": 2426,
      "anla": 2427,
      "Sin": 2428,
      "iht": 2429,
      "sayım": 2430,
      "##asa": 2431,
      "İç": 2432,
      "çar": 2433,
      "aile": 2434,
      "re": 2435,
      "yerel": 2436,
      "##imler": 2437,
      "##cılar": 2438,
      "##cisi": 2439,
      "Fakat": 2440,
      "çoğu": 2441,
      "##lkenin": 2442,
      "##lenir": 2443,
      "##rail": 2444,
      "##sen": 2445,
      "para": 2446,
      "ilan": 2447,
      "Mec": 2448,
      "##lac": 2449,
      "mer": 2450,
      "Fil": 2451,
      "Ön": 2452,
      "He": 2453,
      "##rom": 2454,
      "Ed": 2455,
      "Müs": 2456,
      "başken": 2457,
      "saldırı": 2458,
      "poz": 2459,
      "kaybet": 2460,
      "aşağı": 2461,
      "girdi": 2462,
      "vardı": 2463,
      "Mus": 2464,
      "##onu": 2465,
      "##unt": 2466,
      "Doğ": 2467,
      "##eden": 2468,
      "tespit": 2469,
      "ki": 2470,
      "Pa": 2471,
      "ayak": 2472,
      "olabilir": 2473,
      "##ick": 2474,
      "çoğun": 2475,
      "Yap": 2476,
      "derg": 2477,
      "##lisi": 2478,
      "Diğer": 2479,
      "##our": 2480,
      "Rob": 2481,
      "##und": 2482,
      "maçta": 2483,
      "ürün": 2484,
      "yanında": 2485,
      "##air": 2486,
      "şeklinde": 2487,
      "keli": 2488,
      "siyaset": 2489,
      "yönetmen": 2490,
      "düzenlenen": 2491,
      "Az": 2492,
      "Yön": 2493,
      "yıllık": 2494,
      "resmi": 2495,
      "##vi": 2496,
      "yalnız": 2497,
      "##uyu": 2498,
      "başarılı": 2499,
      "##tık": 2500,
      "##taydı": 2501,
      "sıcak": 2502,
      "mat": 2503,
      "kem": 2504,
      "##masının": 2505,
      "##ladığı": 2506,
      "yolu": 2507,
      "##liam": 2508,
      "bunun": 2509,
      "sayıda": 2510,
      "başkanı": 2511,
      "##imar": 2512,
      "şehri": 2513,
      "İsrail": 2514,
      "başarı": 2515,
      "hiçbir": 2516,
      "##sin": 2517,
      "ettiği": 2518,
      "ziy": 2519,
      "herhangi": 2520,
      "##estiv": 2521,
      "Fakült": 2522,
      "Un": 2523,
      "So": 2524,
      "forma": 2525,
      "##ılma": 2526,
      "##ilerek": 2527,
      "işlem": 2528,
      "part": 2529,
      "kulüp": 2530,
      "performan": 2531,
      "Em": 2532,
      "amp": 2533,
      "uygun": 2534,
      "Eğ": 2535,
      "##şehir": 2536,
      "Dön": 2537,
      "yürüt": 2538,
      "##ack": 2539,
      "iddia": 2540,
      "Şehir": 2541,
      "Bizans": 2542,
      "başlayan": 2543,
      "vur": 2544,
      "belediye": 2545,
      "geçti": 2546,
      "##gesi": 2547,
      "iline": 2548,
      "ni": 2549,
      "küt": 2550,
      "Kür": 2551,
      "motor": 2552,
      "##makta": 2553,
      "##omet": 2554,
      "Fer": 2555,
      "ona": 2556,
      "##best": 2557,
      "siyasi": 2558,
      "##üper": 2559,
      "uygulama": 2560,
      "haline": 2561,
      "##nesi": 2562,
      "Mat": 2563,
      "hâ": 2564,
      "İyi": 2565,
      "##ene": 2566,
      "oldukça": 2567,
      "ila": 2568,
      "##omb": 2569,
      "##langı": 2570,
      "##güt": 2571,
      "Olimp": 2572,
      "##ısını": 2573,
      "##rop": 2574,
      "Japon": 2575,
      "don": 2576,
      "derece": 2577,
      "##aba": 2578,
      "##asal": 2579,
      "işg": 2580,
      "##ekli": 2581,
      "Ter": 2582,
      "Mak": 2583,
      "ismi": 2584,
      "##itan": 2585,
      "##cılığı": 2586,
      "yılına": 2587,
      "##izi": 2588,
      "##laşma": 2589,
      "##ırı": 2590,
      "anlamına": 2591,
      "araç": 2592,
      "Futbol": 2593,
      "##ocu": 2594,
      "Şampiyonası": 2595,
      "##masında": 2596,
      "Val": 2597,
      "başına": 2598,
      "##bilir": 2599,
      "Halk": 2600,
      "##ilim": 2601,
      "Nor": 2602,
      "##ısıyla": 2603,
      "Genç": 2604,
      "##laması": 2605,
      "##arlar": 2606,
      "##ısına": 2607,
      "##dük": 2608,
      "Beş": 2609,
      "başlamıştır": 2610,
      "altın": 2611,
      "##ilerini": 2612,
      "and": 2613,
      "Mor": 2614,
      "Yay": 2615,
      "bölgesinde": 2616,
      "mezun": 2617,
      "##ani": 2618,
      "Met": 2619,
      "Mad": 2620,
      "sanatçı": 2621,
      "##hat": 2622,
      "##elç": 2623,
      "anlat": 2624,
      "bildir": 2625,
      "İtalyan": 2626,
      "İslam": 2627,
      "alanı": 2628,
      "dak": 2629,
      "teh": 2630,
      "##etim": 2631,
      "##ğına": 2632,
      "nit": 2633,
      "Go": 2634,
      "yazı": 2635,
      "MÖ": 2636,
      "##ision": 2637,
      "Kı": 2638,
      "gelenek": 2639,
      "Hat": 2640,
      "yüzyılda": 2641,
      "İb": 2642,
      "##ehri": 2643,
      "##hend": 2644,
      "##isay": 2645,
      "##ünkü": 2646,
      "Ger": 2647,
      "##ğe": 2648,
      "Kö": 2649,
      "pay": 2650,
      "konusunda": 2651,
      "üniversit": 2652,
      "##su": 2653,
      "mağ": 2654,
      "Kil": 2655,
      "Don": 2656,
      "##za": 2657,
      "##enn": 2658,
      "uyar": 2659,
      "Gö": 2660,
      "Türkçe": 2661,
      "##yordu": 2662,
      "Lu": 2663,
      "##areb": 2664,
      "Bre": 2665,
      "##go": 2666,
      "##meden": 2667,
      "cez": 2668,
      "taşın": 2669,
      "##ustur": 2670,
      "etmektedir": 2671,
      "gerçekleş": 2672,
      "##ach": 2673,
      "cm": 2674,
      "hafta": 2675,
      "boş": 2676,
      "##gin": 2677,
      "Kara": 2678,
      "ordu": 2679,
      "kir": 2680,
      "dizi": 2681,
      "İspanya": 2682,
      "Ap": 2683,
      "##ulan": 2684,
      "günü": 2685,
      "değildir": 2686,
      "Kadın": 2687,
      "hede": 2688,
      "##lığını": 2689,
      "Lond": 2690,
      "koş": 2691,
      "##emiştir": 2692,
      "##tor": 2693,
      "Bazı": 2694,
      "sonucunda": 2695,
      "nes": 2696,
      "sahne": 2697,
      "amacıyla": 2698,
      "##yol": 2699,
      "##omi": 2700,
      "yönünde": 2701,
      "Fakültesi": 2702,
      "##str": 2703,
      "Mer": 2704,
      "Hav": 2705,
      "##stit": 2706,
      "Can": 2707,
      "sorun": 2708,
      "Te": 2709,
      "Sen": 2710,
      "##medi": 2711,
      "başında": 2712,
      "güçlü": 2713,
      "çat": 2714,
      "baz": 2715,
      "##lanması": 2716,
      "oper": 2717,
      "gele": 2718,
      "çalışan": 2719,
      "özg": 2720,
      "engel": 2721,
      "şehrin": 2722,
      "##meleri": 2723,
      "benz": 2724,
      "üretim": 2725,
      "Hak": 2726,
      "soy": 2727,
      "gez": 2728,
      "##ray": 2729,
      "##au": 2730,
      "##ith": 2731,
      "tart": 2732,
      "lider": 2733,
      "Yaz": 2734,
      "yöntem": 2735,
      "İkinci": 2736,
      "Bakanlığı": 2737,
      "yerleşim": 2738,
      "##ısından": 2739,
      "##one": 2740,
      "Gir": 2741,
      "##itesi": 2742,
      "verildi": 2743,
      "Japonya": 2744,
      "tep": 2745,
      "veren": 2746,
      "dair": 2747,
      "##üyle": 2748,
      "İzmir": 2749,
      "Yüksek": 2750,
      "Kit": 2751,
      "deney": 2752,
      "bilgi": 2753,
      "Yarış": 2754,
      "##iforn": 2755,
      "sol": 2756,
      "##laya": 2757,
      "sab": 2758,
      "düşük": 2759,
      "Kem": 2760,
      "##dam": 2761,
      "##rah": 2762,
      "##era": 2763,
      "##sidir": 2764,
      "izin": 2765,
      "iken": 2766,
      "ülkenin": 2767,
      "şiir": 2768,
      "fik": 2769,
      "##tüd": 2770,
      "##cel": 2771,
      "dikkat": 2772,
      "nok": 2773,
      "fot": 2774,
      "seçildi": 2775,
      "##lamış": 2776,
      "yık": 2777,
      "##talık": 2778,
      "##dak": 2779,
      "Üç": 2780,
      "##sh": 2781,
      "canlandır": 2782,
      "olmuş": 2783,
      "##oks": 2784,
      "##taj": 2785,
      "Dış": 2786,
      "ism": 2787,
      "konum": 2788,
      "Avustur": 2789,
      "Yak": 2790,
      "##ketbol": 2791,
      "galak": 2792,
      "Ef": 2793,
      "video": 2794,
      "adam": 2795,
      "ast": 2796,
      "başlar": 2797,
      "adet": 2798,
      "##üzel": 2799,
      "##ai": 2800,
      "##ity": 2801,
      "##lef": 2802,
      "puan": 2803,
      "##lüman": 2804,
      "##endi": 2805,
      "fır": 2806,
      "##lanma": 2807,
      "##ows": 2808,
      "##ras": 2809,
      "##eth": 2810,
      "meydana": 2811,
      "etkil": 2812,
      "mut": 2813,
      "##mal": 2814,
      "##evi": 2815,
      "##eph": 2816,
      "Ant": 2817,
      "##dın": 2818,
      "geçer": 2819,
      "ndan": 2820,
      "##tein": 2821,
      "Bat": 2822,
      "önceki": 2823,
      "##ko": 2824,
      "Aş": 2825,
      "imparator": 2826,
      "verir": 2827,
      "##ere": 2828,
      "Con": 2829,
      "##va": 2830,
      "Yüz": 2831,
      "ders": 2832,
      "No": 2833,
      "##emen": 2834,
      "tekn": 2835,
      "Olimpiyat": 2836,
      "sefer": 2837,
      "##culuk": 2838,
      "##ilya": 2839,
      "profesyonel": 2840,
      "##des": 2841,
      "Must": 2842,
      "##ustral": 2843,
      "yayınlanan": 2844,
      "kah": 2845,
      "##ino": 2846,
      "##masından": 2847,
      "beyaz": 2848,
      "am": 2849,
      "##ülen": 2850,
      "müzi": 2851,
      "Hrist": 2852,
      "Char": 2853,
      "sonrasında": 2854,
      "##ormal": 2855,
      "##ho": 2856,
      "##ner": 2857,
      "##ilerine": 2858,
      "seslendir": 2859,
      "##ıntı": 2860,
      "zar": 2861,
      "##mî": 2862,
      "keşfed": 2863,
      "Kızıl": 2864,
      "##lilik": 2865,
      "edilmiş": 2866,
      "##vat": 2867,
      "fizik": 2868,
      "Kanada": 2869,
      "Sil": 2870,
      "Col": 2871,
      "Bulgar": 2872,
      "Ku": 2873,
      "hes": 2874,
      "##üle": 2875,
      "kanal": 2876,
      "tamamen": 2877,
      "yokt": 2878,
      "##kın": 2879,
      "çocu": 2880,
      "Me": 2881,
      "##ân": 2882,
      "yapıldı": 2883,
      "kı": 2884,
      "ederek": 2885,
      "işlet": 2886,
      "sak": 2887,
      "William": 2888,
      "kamp": 2889,
      "döndü": 2890,
      "##ary": 2891,
      "yani": 2892,
      "gazet": 2893,
      "Gaz": 2894,
      "##cılık": 2895,
      "##red": 2896,
      "turnuv": 2897,
      "##keti": 2898,
      "defa": 2899,
      "##ung": 2900,
      "Et": 2901,
      "Asya": 2902,
      "zorunda": 2903,
      "Sosyal": 2904,
      "sp": 2905,
      "bile": 2906,
      "##liğinde": 2907,
      "Müzik": 2908,
      "batı": 2909,
      "##ze": 2910,
      "##yı": 2911,
      "olacak": 2912,
      "Gu": 2913,
      "sona": 2914,
      "##üştü": 2915,
      "hale": 2916,
      "Grup": 2917,
      "##ilmek": 2918,
      "Hollanda": 2919,
      "##leşti": 2920,
      "bilinir": 2921,
      "##atif": 2922,
      "##isidir": 2923,
      "boyut": 2924,
      "##are": 2925,
      "sebeb": 2926,
      "##etik": 2927,
      "haber": 2928,
      "Avustral": 2929,
      "##âr": 2930,
      "Spor": 2931,
      "piyasaya": 2932,
      "Ha": 2933,
      "içeren": 2934,
      "nokt": 2935,
      "iler": 2936,
      "Londra": 2937,
      "üzerinden": 2938,
      "kurulmuştur": 2939,
      "##lardı": 2940,
      "kısm": 2941,
      "##rens": 2942,
      "##larındaki": 2943,
      "nedenle": 2944,
      "direktör": 2945,
      "Pr": 2946,
      "hikâ": 2947,
      "gördü": 2948,
      "kuruldu": 2949,
      "Roman": 2950,
      "Mur": 2951,
      "tanı": 2952,
      "##tika": 2953,
      "Kap": 2954,
      "giz": 2955,
      "##elsef": 2956,
      "##all": 2957,
      "Tüm": 2958,
      "##layarak": 2959,
      "kavram": 2960,
      "##hendis": 2961,
      "Di": 2962,
      "kurdu": 2963,
      "Grub": 2964,
      "sayısı": 2965,
      "İki": 2966,
      "##uklu": 2967,
      "modern": 2968,
      "kardeşi": 2969,
      "##itler": 2970,
      "##iri": 2971,
      "yana": 2972,
      "İsveç": 2973,
      "Com": 2974,
      "Mü": 2975,
      "başlat": 2976,
      "##alıdır": 2977,
      "##mesiyle": 2978,
      "doğal": 2979,
      "##eşil": 2980,
      "çarp": 2981,
      "sebep": 2982,
      "##emesi": 2983,
      "Müslüman": 2984,
      "yayınlandı": 2985,
      "yorum": 2986,
      "##tiler": 2987,
      "##ital": 2988,
      "hedef": 2989,
      "ulusal": 2990,
      "##yüz": 2991,
      "Mes": 2992,
      "##po": 2993,
      "Suriye": 2994,
      "##gr": 2995,
      "ortal": 2996,
      "mada": 2997,
      "köken": 2998,
      "doğu": 2999,
      "Galat": 3000,
      "##avi": 3001,
      "##isayar": 3002,
      "kurum": 3003,
      "##ıyor": 3004,
      "Ven": 3005,
      "##lip": 3006,
      "##maktaydı": 3007,
      "oluşur": 3008,
      "hey": 3009,
      "alarak": 3010,
      "liste": 3011,
      "kısmı": 3012,
      "##manı": 3013,
      "##amaktadır": 3014,
      "arkadaş": 3015,
      "Pat": 3016,
      "##bon": 3017,
      "vat": 3018,
      "Kariy": 3019,
      "başkan": 3020,
      "##jen": 3021,
      "serbest": 3022,
      "Başkanı": 3023,
      "numar": 3024,
      "##liy": 3025,
      "yalnızca": 3026,
      "Dağ": 3027,
      "şarkıcı": 3028,
      "eğit": 3029,
      "##abancı": 3030,
      "mem": 3031,
      "kariyerine": 3032,
      "Kaliforn": 3033,
      "##ildiği": 3034,
      "##anlık": 3035,
      "Mehmet": 3036,
      "stüd": 3037,
      "##tih": 3038,
      "Geor": 3039,
      "##lif": 3040,
      "kızı": 3041,
      "Göl": 3042,
      "Is": 3043,
      "red": 3044,
      "lik": 3045,
      "##ment": 3046,
      "hücre": 3047,
      "##iyeti": 3048,
      "##ğıt": 3049,
      "etmiş": 3050,
      "Krallık": 3051,
      "##ingle": 3052,
      "olsa": 3053,
      "##işleri": 3054,
      "##lenmiş": 3055,
      "Bağ": 3056,
      "Mustafa": 3057,
      "milletvek": 3058,
      "Macar": 3059,
      "##hane": 3060,
      "##ısının": 3061,
      "##ınca": 3062,
      "Kaliforniya": 3063,
      "fin": 3064,
      "anda": 3065,
      "Qu": 3066,
      "##tedir": 3067,
      "Nehri": 3068,
      "ekip": 3069,
      "rah": 3070,
      "ekonomik": 3071,
      "Ordu": 3072,
      "nı": 3073,
      "Nüf": 3074,
      "bay": 3075,
      "##olog": 3076,
      "kendisine": 3077,
      "yapmış": 3078,
      "Mas": 3079,
      "##eydi": 3080,
      "Demir": 3081,
      "tiyatro": 3082,
      "dar": 3083,
      "##ons": 3084,
      "##ğinden": 3085,
      "##dek": 3086,
      "eyaletinde": 3087,
      "##aması": 3088,
      "Portekiz": 3089,
      "sonrası": 3090,
      "ziyaret": 3091,
      "Jos": 3092,
      "fon": 3093,
      "Altın": 3094,
      "##ören": 3095,
      "Wind": 3096,
      "##siyonu": 3097,
      "##amil": 3098,
      "##kil": 3099,
      "olmasına": 3100,
      "##ph": 3101,
      "maçında": 3102,
      "Res": 3103,
      "Eurov": 3104,
      "Bro": 3105,
      "Kol": 3106,
      "##mada": 3107,
      "Şir": 3108,
      "Art": 3109,
      "yardımcı": 3110,
      "öner": 3111,
      "otom": 3112,
      "mu": 3113,
      "birinci": 3114,
      "İlç": 3115,
      "nokta": 3116,
      "Örneğin": 3117,
      "konser": 3118,
      "pozisyon": 3119,
      "Kuvvet": 3120,
      "##ihaz": 3121,
      "düzey": 3122,
      "##isel": 3123,
      "hızlı": 3124,
      "Mos": 3125,
      "##mızı": 3126,
      "kullanıl": 3127,
      "##yken": 3128,
      "Trab": 3129,
      "##arında": 3130,
      "Eurovision": 3131,
      "##nak": 3132,
      "ileri": 3133,
      "Do": 3134,
      "##esidir": 3135,
      "Parti": 3136,
      "Avusturya": 3137,
      "bugün": 3138,
      "FI": 3139,
      "Fin": 3140,
      "##menin": 3141,
      "hap": 3142,
      "Jo": 3143,
      "Mu": 3144,
      "##kün": 3145,
      "TV": 3146,
      "Lat": 3147,
      "Dr": 3148,
      "açı": 3149,
      "işgal": 3150,
      "Millî": 3151,
      "##dem": 3152,
      "Yahudi": 3153,
      "Günümüz": 3154,
      "terc": 3155,
      "katkı": 3156,
      "##alim": 3157,
      "Cem": 3158,
      "##ilerinin": 3159,
      "davran": 3160,
      "##kop": 3161,
      "Bor": 3162,
      "##emiş": 3163,
      "##iyah": 3164,
      "bes": 3165,
      "sinema": 3166,
      "Bah": 3167,
      "##üme": 3168,
      "##ona": 3169,
      "Müdür": 3170,
      "kapsam": 3171,
      "##ilebilir": 3172,
      "dünyanın": 3173,
      "asıl": 3174,
      "Kr": 3175,
      "##undaki": 3176,
      "##obil": 3177,
      "Buna": 3178,
      "Fener": 3179,
      "##meyen": 3180,
      "günümüzde": 3181,
      "##berg": 3182,
      "##bahçe": 3183,
      "yazarı": 3184,
      "##tiş": 3185,
      "duyur": 3186,
      "edilm": 3187,
      "Sovyetler": 3188,
      "verdiği": 3189,
      "li": 3190,
      "##kar": 3191,
      "ateş": 3192,
      "##ori": 3193,
      "##uç": 3194,
      "##fik": 3195,
      "yüzyılın": 3196,
      "politik": 3197,
      "kullanım": 3198,
      "malz": 3199,
      "Ot": 3200,
      "şarkısı": 3201,
      "başkenti": 3202,
      "İst": 3203,
      "##ight": 3204,
      "Ord": 3205,
      "başlangı": 3206,
      "İk": 3207,
      "Hristiyan": 3208,
      "##II": 3209,
      "##ğunu": 3210,
      "örgüt": 3211,
      "##zon": 3212,
      "Siv": 3213,
      "##engin": 3214,
      "imzal": 3215,
      "##üst": 3216,
      "##ames": 3217,
      "elektrik": 3218,
      "performans": 3219,
      "##tand": 3220,
      "bölümü": 3221,
      "##neği": 3222,
      "##cil": 3223,
      "uçak": 3224,
      "olab": 3225,
      "##imini": 3226,
      "popüler": 3227,
      "fak": 3228,
      "##ematik": 3229,
      "İr": 3230,
      "##isyen": 3231,
      "##lasik": 3232,
      "katı": 3233,
      "##yıldı": 3234,
      "sayımına": 3235,
      "##madan": 3236,
      "Çağ": 3237,
      "iliş": 3238,
      "tanıt": 3239,
      "astron": 3240,
      "maçı": 3241,
      "tük": 3242,
      "##NA": 3243,
      "gözlem": 3244,
      "##ded": 3245,
      "Merkezi": 3246,
      "yapılmıştır": 3247,
      "Ho": 3248,
      "ölçü": 3249,
      "Kıbr": 3250,
      "rap": 3251,
      "toplan": 3252,
      "##ena": 3253,
      "##asaray": 3254,
      "##dikten": 3255,
      "tipi": 3256,
      "Rum": 3257,
      "Kıbrıs": 3258,
      "Yahud": 3259,
      "Sc": 3260,
      "çıkış": 3261,
      "satın": 3262,
      "komün": 3263,
      "ey": 3264,
      "##aktadır": 3265,
      "çevir": 3266,
      "mahk": 3267,
      "değerlendir": 3268,
      "Galatasaray": 3269,
      "birleş": 3270,
      "##ülü": 3271,
      "##lamaya": 3272,
      "sunu": 3273,
      "##emin": 3274,
      "ih": 3275,
      "Avustralya": 3276,
      "eşit": 3277,
      "##SC": 3278,
      "satış": 3279,
      "##ker": 3280,
      "##dikleri": 3281,
      "takip": 3282,
      "galaksidir": 3283,
      "Yunanistan": 3284,
      "##yn": 3285,
      "Şah": 3286,
      "tasarım": 3287,
      "##dal": 3288,
      "civ": 3289,
      "Ver": 3290,
      "##edik": 3291,
      "##düncü": 3292,
      "Gran": 3293,
      "##uluğu": 3294,
      "##izasyon": 3295,
      "oda": 3296,
      "kötü": 3297,
      "çalışmaları": 3298,
      "Windows": 3299,
      "##may": 3300,
      "bağlantı": 3301,
      "Festiv": 3302,
      "##nes": 3303,
      "##ırlar": 3304,
      "##doğ": 3305,
      "Uy": 3306,
      "içerir": 3307,
      "##anlar": 3308,
      "##bat": 3309,
      "Belediy": 3310,
      "ner": 3311,
      "yılının": 3312,
      "Enstit": 3313,
      "şehirdir": 3314,
      "türü": 3315,
      "İspanyol": 3316,
      "Polonya": 3317,
      "Ol": 3318,
      "doktor": 3319,
      "Kültür": 3320,
      "##ill": 3321,
      "bunu": 3322,
      "karış": 3323,
      "müm": 3324,
      "##old": 3325,
      "Tim": 3326,
      "##ternet": 3327,
      "Hük": 3328,
      "alanında": 3329,
      "Eğitim": 3330,
      "karşısında": 3331,
      "##ash": 3332,
      "katıl": 3333,
      "yönelik": 3334,
      "stüdyo": 3335,
      "Fenerbahçe": 3336,
      "bileş": 3337,
      "teda": 3338,
      "single": 3339,
      "adına": 3340,
      "##urum": 3341,
      "Tr": 3342,
      "Yarışması": 3343,
      "mark": 3344,
      "ku": 3345,
      "##lov": 3346,
      "##lukla": 3347,
      "##ısız": 3348,
      "##ano": 3349,
      "biy": 3350,
      "yazdı": 3351,
      "enerji": 3352,
      "Hen": 3353,
      "arası": 3354,
      "parti": 3355,
      "Count": 3356,
      "Po": 3357,
      "söyledi": 3358,
      "yarışma": 3359,
      "##ileceği": 3360,
      "##erson": 3361,
      "tarihli": 3362,
      "##lılık": 3363,
      "sayesinde": 3364,
      "III": 3365,
      "ba": 3366,
      "yoktur": 3367,
      "##arken": 3368,
      "Demok": 3369,
      "Je": 3370,
      "Ermeni": 3371,
      "##alog": 3372,
      "Kam": 3373,
      "Kore": 3374,
      "siyasetçi": 3375,
      "birey": 3376,
      "ayrıldı": 3377,
      "gazete": 3378,
      "Tay": 3379,
      "alındı": 3380,
      "oyunu": 3381,
      "Süper": 3382,
      "şirketi": 3383,
      "Mc": 3384,
      "mümkün": 3385,
      "##arş": 3386,
      "Burada": 3387,
      "artık": 3388,
      "dünyaya": 3389,
      "##maları": 3390,
      "uzay": 3391,
      "metal": 3392,
      "Sim": 3393,
      "##ood": 3394,
      "##uru": 3395,
      "med": 3396,
      "##liğe": 3397,
      "öy": 3398,
      "Kah": 3399,
      "bilgisayar": 3400,
      "Çek": 3401,
      "Muham": 3402,
      "Hind": 3403,
      "##eleri": 3404,
      "edilmektedir": 3405,
      "hukuk": 3406,
      "##ölç": 3407,
      "##oya": 3408,
      "felsef": 3409,
      "##ıcı": 3410,
      "##ğinin": 3411,
      "Kons": 3412,
      "hesap": 3413,
      "##öv": 3414,
      "##uyordu": 3415,
      "Geç": 3416,
      "##ita": 3417,
      "##ukarı": 3418,
      "Say": 3419,
      "canlı": 3420,
      "##eld": 3421,
      "Arn": 3422,
      "Van": 3423,
      "le": 3424,
      "halinde": 3425,
      "demir": 3426,
      "##altı": 3427,
      "diye": 3428,
      "Erz": 3429,
      "çevre": 3430,
      "değişiklik": 3431,
      "yüzey": 3432,
      "kendini": 3433,
      "##mür": 3434,
      "##nam": 3435,
      "Final": 3436,
      "karşılık": 3437,
      "beste": 3438,
      "Brez": 3439,
      "##aspor": 3440,
      "##tandart": 3441,
      "kür": 3442,
      "Britan": 3443,
      "yum": 3444,
      "Hayatı": 3445,
      "Ama": 3446,
      "mec": 3447,
      "Trabzon": 3448,
      "tamamladı": 3449,
      "veri": 3450,
      "Akadem": 3451,
      "gösterir": 3452,
      "##teki": 3453,
      "vatanda": 3454,
      "fir": 3455,
      "##onik": 3456,
      "##ümüş": 3457,
      "Kulüp": 3458,
      "##iden": 3459,
      "miktar": 3460,
      "kop": 3461,
      "başk": 3462,
      "##yası": 3463,
      "##idi": 3464,
      "kazanan": 3465,
      "##köy": 3466,
      "Cor": 3467,
      "Hava": 3468,
      "ışık": 3469,
      "ayır": 3470,
      "konusu": 3471,
      "Ros": 3472,
      "Samsun": 3473,
      "fotoğraf": 3474,
      "Tor": 3475,
      "County": 3476,
      "üzerindeki": 3477,
      "Ödülleri": 3478,
      "ticaret": 3479,
      "Uk": 3480,
      "Kale": 3481,
      "korum": 3482,
      "tas": 3483,
      "kesin": 3484,
      "ordusu": 3485,
      "tav": 3486,
      "##ratik": 3487,
      "##sine": 3488,
      "##ier": 3489,
      "##do": 3490,
      "yeri": 3491,
      "##uli": 3492,
      "geleneksel": 3493,
      "zengin": 3494,
      "kişinin": 3495,
      "Böylece": 3496,
      "yapmak": 3497,
      "##lya": 3498,
      "kazanmıştır": 3499,
      "Mez": 3500,
      "Bununla": 3501,
      "##olis": 3502,
      "sekiz": 3503,
      "Köyün": 3504,
      "yazdığı": 3505,
      "tahmin": 3506,
      "resmî": 3507,
      "şid": 3508,
      "Devleti": 3509,
      "cumhur": 3510,
      "##ice": 3511,
      "def": 3512,
      "##alığı": 3513,
      "belirli": 3514,
      "##laşması": 3515,
      "komp": 3516,
      "ilçesinde": 3517,
      "çünkü": 3518,
      "takımyıldı": 3519,
      "Pal": 3520,
      "##ger": 3521,
      "##işi": 3522,
      "bölgede": 3523,
      "Ahmet": 3524,
      "Kim": 3525,
      "gök": 3526,
      "Ale": 3527,
      "##BA": 3528,
      "Mark": 3529,
      "ip": 3530,
      "mimar": 3531,
      "tat": 3532,
      "idari": 3533,
      "Sah": 3534,
      "İnsan": 3535,
      "dek": 3536,
      "sürekli": 3537,
      "##oni": 3538,
      "##elt": 3539,
      "##uyor": 3540,
      "Küçük": 3541,
      "oynanan": 3542,
      "Sav": 3543,
      "##gue": 3544,
      "teş": 3545,
      "dolay": 3546,
      "Şehrin": 3547,
      "Belediye": 3548,
      "altına": 3549,
      "Hindistan": 3550,
      "##asıl": 3551,
      "sim": 3552,
      "mekan": 3553,
      "eg": 3554,
      "##lenme": 3555,
      "kurulmuş": 3556,
      "##aları": 3557,
      "geçmiş": 3558,
      "##ografi": 3559,
      "Ermen": 3560,
      "normal": 3561,
      "##adır": 3562,
      "soğ": 3563,
      "Dar": 3564,
      "taşıyan": 3565,
      "durumda": 3566,
      "##lıkla": 3567,
      "##sam": 3568,
      "Erkek": 3569,
      "Min": 3570,
      "Pas": 3571,
      "##tesi": 3572,
      "orman": 3573,
      "Seç": 3574,
      "gelmiştir": 3575,
      "kök": 3576,
      "Beyaz": 3577,
      "UE": 3578,
      "süreç": 3579,
      "yerleştir": 3580,
      "listesi": 3581,
      "çıkmıştır": 3582,
      "Kut": 3583,
      "ortalama": 3584,
      "yaşadı": 3585,
      "kişilik": 3586,
      "Sak": 3587,
      "ülkede": 3588,
      "teki": 3589,
      "FC": 3590,
      "##illa": 3591,
      "yeti": 3592,
      "indir": 3593,
      "##tul": 3594,
      "tale": 3595,
      "##çak": 3596,
      "##ins": 3597,
      "Irak": 3598,
      "Gre": 3599,
      "bakım": 3600,
      "oyuncusu": 3601,
      "po": 3602,
      "kitabı": 3603,
      "##ts": 3604,
      "ortam": 3605,
      "Muhammed": 3606,
      "##enek": 3607,
      "Tarihi": 3608,
      "##ınar": 3609,
      "##meler": 3610,
      "kara": 3611,
      "kendisi": 3612,
      "gösteren": 3613,
      "##ucu": 3614,
      "Tat": 3615,
      "lim": 3616,
      "Rom": 3617,
      "##iyel": 3618,
      "##deniz": 3619,
      "kolay": 3620,
      "UEFA": 3621,
      "Pan": 3622,
      "attı": 3623,
      "##ıyordu": 3624,
      "Ukray": 3625,
      "##rosu": 3626,
      "yanlı": 3627,
      "Mir": 3628,
      "##fesör": 3629,
      "basın": 3630,
      "bahs": 3631,
      "##form": 3632,
      "açıkladı": 3633,
      "##likle": 3634,
      "Micha": 3635,
      "##my": 3636,
      "dağıt": 3637,
      "##isinden": 3638,
      "##yse": 3639,
      "Berlin": 3640,
      "Ort": 3641,
      "görevi": 3642,
      "##ırken": 3643,
      "##mesinden": 3644,
      "öne": 3645,
      "anal": 3646,
      "lisans": 3647,
      "Özel": 3648,
      "##ındır": 3649,
      "di": 3650,
      "##cistan": 3651,
      "##mar": 3652,
      "görüntü": 3653,
      "Kemal": 3654,
      "##rada": 3655,
      "##emektedir": 3656,
      "Fat": 3657,
      "se": 3658,
      "##tepe": 3659,
      "Gürcü": 3660,
      "Tele": 3661,
      "hakim": 3662,
      "kurtar": 3663,
      "##enc": 3664,
      "yabancı": 3665,
      "##usal": 3666,
      "Tok": 3667,
      "##kel": 3668,
      "Muhareb": 3669,
      "stat": 3670,
      "raki": 3671,
      "politika": 3672,
      "han": 3673,
      "dönemi": 3674,
      "Nik": 3675,
      "##raman": 3676,
      "katılım": 3677,
      "##ura": 3678,
      "gece": 3679,
      "##ayi": 3680,
      "##lıklı": 3681,
      "siv": 3682,
      "yedi": 3683,
      "##çiler": 3684,
      "adında": 3685,
      "İsviç": 3686,
      "kullanarak": 3687,
      "##ğından": 3688,
      "##tion": 3689,
      "pazar": 3690,
      "Paul": 3691,
      "Kurulu": 3692,
      "tarz": 3693,
      "astronom": 3694,
      "##lanmaktadır": 3695,
      "deste": 3696,
      "sey": 3697,
      "Profesyonel": 3698,
      "yapmaktadır": 3699,
      "hast": 3700,
      "tarım": 3701,
      "##lament": 3702,
      "##liğine": 3703,
      "Başkanlığı": 3704,
      "terk": 3705,
      "Pap": 3706,
      "##teydi": 3707,
      "ihtiy": 3708,
      "##lıca": 3709,
      "##tis": 3710,
      "İsviçre": 3711,
      "##yar": 3712,
      "birleştir": 3713,
      "azal": 3714,
      "tercih": 3715,
      "belediy": 3716,
      "süren": 3717,
      "ah": 3718,
      "karşılaş": 3719,
      "grubun": 3720,
      "##lında": 3721,
      "##adaki": 3722,
      "Gürcistan": 3723,
      "fonk": 3724,
      "David": 3725,
      "etraf": 3726,
      "ıs": 3727,
      "##esindeki": 3728,
      "tarihleri": 3729,
      "min": 3730,
      "gitti": 3731,
      "bölümünde": 3732,
      "##eyn": 3733,
      "##diğini": 3734,
      "sek": 3735,
      "Sev": 3736,
      "hastalık": 3737,
      "Hüs": 3738,
      "##okal": 3739,
      "kasab": 3740,
      "Gazi": 3741,
      "doğrudan": 3742,
      "nerede": 3743,
      "##aden": 3744,
      "mar": 3745,
      "kork": 3746,
      "arkadaşı": 3747,
      "derin": 3748,
      "##sim": 3749,
      "##ive": 3750,
      "Mosk": 3751,
      "yör": 3752,
      "Harek": 3753,
      "edebiyat": 3754,
      "rast": 3755,
      "takımyıldızı": 3756,
      "cihaz": 3757,
      "Sür": 3758,
      "##taki": 3759,
      "oluştu": 3760,
      "##oft": 3761,
      "siyah": 3762,
      "##zi": 3763,
      "Cumhurbaş": 3764,
      "Robert": 3765,
      "doğr": 3766,
      "iy": 3767,
      "inç": 3768,
      "James": 3769,
      "gelmektedir": 3770,
      "##yap": 3771,
      "Tom": 3772,
      "Millet": 3773,
      "ölçüde": 3774,
      "sağlar": 3775,
      "eriş": 3776,
      "##ira": 3777,
      "##lesi": 3778,
      "kullanılmaktadır": 3779,
      "etmeye": 3780,
      "kendisini": 3781,
      "##arlı": 3782,
      "sırasıyla": 3783,
      "##lediği": 3784,
      "Bölgesi": 3785,
      "##ida": 3786,
      "##mayan": 3787,
      "gid": 3788,
      "plat": 3789,
      "koşul": 3790,
      "##teri": 3791,
      "dü": 3792,
      "Kuvvetleri": 3793,
      "Beşik": 3794,
      "radyo": 3795,
      "kapat": 3796,
      "hep": 3797,
      "##ney": 3798,
      "buz": 3799,
      "##ille": 3800,
      "etme": 3801,
      "donan": 3802,
      "çocuğu": 3803,
      "yılındaki": 3804,
      "görülür": 3805,
      "Lit": 3806,
      "Taş": 3807,
      "Çal": 3808,
      "çoğ": 3809,
      "kısım": 3810,
      "Enstitüsü": 3811,
      "sap": 3812,
      "ettir": 3813,
      "kateg": 3814,
      "##lemi": 3815,
      "etkili": 3816,
      "verilmiştir": 3817,
      "kanıt": 3818,
      "Aşağı": 3819,
      "ordus": 3820,
      "Sü": 3821,
      "teles": 3822,
      "çaplı": 3823,
      "##tılı": 3824,
      "##udu": 3825,
      "etkisi": 3826,
      "##şte": 3827,
      "Bakanı": 3828,
      "##lenmesi": 3829,
      "üs": 3830,
      "açısından": 3831,
      "##erkes": 3832,
      "Feder": 3833,
      "sok": 3834,
      "##ester": 3835,
      "hip": 3836,
      "##abı": 3837,
      "prot": 3838,
      "##ata": 3839,
      "kıyı": 3840,
      "##bistan": 3841,
      "psik": 3842,
      "Gr": 3843,
      "düşünül": 3844,
      "kons": 3845,
      "##çısı": 3846,
      "##avut": 3847,
      "keşfedilmiştir": 3848,
      "söyler": 3849,
      "Tanrı": 3850,
      "bölgesi": 3851,
      "##oru": 3852,
      "oluşturur": 3853,
      "##antin": 3854,
      "dördüncü": 3855,
      "seviy": 3856,
      "emek": 3857,
      "göl": 3858,
      "almış": 3859,
      "Ülk": 3860,
      "yerini": 3861,
      "Güneş": 3862,
      "madalya": 3863,
      "Sağ": 3864,
      "Tun": 3865,
      "##ington": 3866,
      "nasıl": 3867,
      "##ult": 3868,
      "##own": 3869,
      "özgür": 3870,
      "şehrinde": 3871,
      "Cen": 3872,
      "şiddet": 3873,
      "test": 3874,
      "yasa": 3875,
      "eşi": 3876,
      "yıllar": 3877,
      "kullanılmıştır": 3878,
      "Arj": 3879,
      "Okulu": 3880,
      "Jack": 3881,
      "ruh": 3882,
      "##başı": 3883,
      "işaret": 3884,
      "birim": 3885,
      "milletvekili": 3886,
      "Kürt": 3887,
      "Kaf": 3888,
      "kırmızı": 3889,
      "Öğ": 3890,
      "##onomi": 3891,
      "kuşat": 3892,
      "Yardım": 3893,
      "Günümüzde": 3894,
      "##ilme": 3895,
      "dol": 3896,
      "gider": 3897,
      "##mesinin": 3898,
      "##yüzünde": 3899,
      "gür": 3900,
      "Lisesi": 3901,
      "eğitimi": 3902,
      "bulunmuştur": 3903,
      "durumu": 3904,
      "İrlanda": 3905,
      "Moskova": 3906,
      "##lamaktadır": 3907,
      "ağaç": 3908,
      "doğum": 3909,
      "##danı": 3910,
      "bina": 3911,
      "Michael": 3912,
      "##lığına": 3913,
      "tanrı": 3914,
      "Hers": 3915,
      "##lerce": 3916,
      "kaydet": 3917,
      "telef": 3918,
      "unvan": 3919,
      "Arnavut": 3920,
      "Beşiktaş": 3921,
      "resim": 3922,
      "güc": 3923,
      "annesi": 3924,
      "Kariyeri": 3925,
      "şim": 3926,
      "kullanıcı": 3927,
      "duvar": 3928,
      "##isar": 3929,
      "##ılığı": 3930,
      "Birinci": 3931,
      "Nüfus": 3932,
      "aktif": 3933,
      "orij": 3934,
      "etkilen": 3935,
      "kum": 3936,
      "erken": 3937,
      "bazen": 3938,
      "malzeme": 3939,
      "Vak": 3940,
      "Akdeniz": 3941,
      "Rad": 3942,
      "görevini": 3943,
      "yüzden": 3944,
      "yenil": 3945,
      "korun": 3946,
      "Milli": 3947,
      "diy": 3948,
      "böylece": 3949,
      "serg": 3950,
      "Yarı": 3951,
      "yetiştir": 3952,
      "##bu": 3953,
      "##eliği": 3954,
      "vermiştir": 3955,
      "Da": 3956,
      "##bek": 3957,
      "Park": 3958,
      "kalı": 3959,
      "day": 3960,
      "Grubu": 3961,
      "balık": 3962,
      "Gi": 3963,
      "mm": 3964,
      "kamu": 3965,
      "teleskop": 3966,
      "sınırları": 3967,
      "##pek": 3968,
      "hayatını": 3969,
      "##amaya": 3970,
      "kararı": 3971,
      "taşım": 3972,
      "Men": 3973,
      "bal": 3974,
      "ef": 3975,
      "Diy": 3976,
      "##ela": 3977,
      "Ordusu": 3978,
      "ham": 3979,
      "denk": 3980,
      "cins": 3981,
      "Bla": 3982,
      "FIFA": 3983,
      "Bursa": 3984,
      "My": 3985,
      "Ac": 3986,
      "##ruz": 3987,
      "aktar": 3988,
      "Lis": 3989,
      "Mag": 3990,
      "For": 3991,
      "##bin": 3992,
      "standart": 3993,
      "Yönet": 3994,
      "takımında": 3995,
      "kup": 3996,
      "mevcuttur": 3997,
      "yayınladı": 3998,
      "##say": 3999,
      "Arjantin": 4000,
      "##rev": 4001,
      "Başkan": 4002,
      "Öl": 4003,
      "dışı": 4004,
      "##lâ": 4005,
      "##ileceğini": 4006,
      "Söz": 4007,
      "Mem": 4008,
      "Festivali": 4009,
      "meş": 4010,
      "sağlayan": 4011,
      "Aç": 4012,
      "enerj": 4013,
      "adamı": 4014,
      "mas": 4015,
      "dizisi": 4016,
      "yapılmış": 4017,
      "üretilen": 4018,
      "Gar": 4019,
      "sub": 4020,
      "aşağıdaki": 4021,
      "##amaz": 4022,
      "##tiğini": 4023,
      "tutuk": 4024,
      "arka": 4025,
      "şöyle": 4026,
      "pil": 4027,
      "Küt": 4028,
      "giren": 4029,
      "Sab": 4030,
      "##lom": 4031,
      "denir": 4032,
      "yeter": 4033,
      "buna": 4034,
      "kural": 4035,
      "dili": 4036,
      "Kend": 4037,
      "##amış": 4038,
      "geçirdi": 4039,
      "bilimsel": 4040,
      "We": 4041,
      "öncesi": 4042,
      "Başbak": 4043,
      "##BM": 4044,
      "sabit": 4045,
      "yapılır": 4046,
      "hane": 4047,
      "derec": 4048,
      "hayatı": 4049,
      "##acık": 4050,
      "##daş": 4051,
      "##dat": 4052,
      "Selç": 4053,
      "lı": 4054,
      "orijinal": 4055,
      "dip": 4056,
      "İdar": 4057,
      "Belç": 4058,
      "mesaf": 4059,
      "to": 4060,
      "Oyuncu": 4061,
      "kategor": 4062,
      "filmin": 4063,
      "##ükle": 4064,
      "yasak": 4065,
      "Fo": 4066,
      "sahn": 4067,
      "Vol": 4068,
      "Stad": 4069,
      "##ban": 4070,
      "Ukrayna": 4071,
      "Çocuk": 4072,
      "şar": 4073,
      "akadem": 4074,
      "Krallığı": 4075,
      "val": 4076,
      "kapas": 4077,
      "Çok": 4078,
      "yavaş": 4079,
      "Özellikle": 4080,
      "nün": 4081,
      "##dık": 4082,
      "Yayın": 4083,
      "Komut": 4084,
      "kış": 4085,
      "götür": 4086,
      "Dil": 4087,
      "sözleşme": 4088,
      "gitar": 4089,
      "başrol": 4090,
      "Wal": 4091,
      "Cami": 4092,
      "##cret": 4093,
      "##adan": 4094,
      "##ilerde": 4095,
      "dalga": 4096,
      "şair": 4097,
      "##nan": 4098,
      "it": 4099,
      "matematik": 4100,
      "üyeleri": 4101,
      "yurt": 4102,
      "başta": 4103,
      "vatandaş": 4104,
      "kaf": 4105,
      "müs": 4106,
      "str": 4107,
      "ulaştı": 4108,
      "şun": 4109,
      "içindeki": 4110,
      "çatışma": 4111,
      "çoğunlukla": 4112,
      "ölmüştür": 4113,
      "diren": 4114,
      "alınan": 4115,
      "Air": 4116,
      "be": 4117,
      "##olik": 4118,
      "##açlı": 4119,
      "rahat": 4120,
      "almak": 4121,
      "##ess": 4122,
      "##cağı": 4123,
      "Kıs": 4124,
      "##afer": 4125,
      "si": 4126,
      "isyan": 4127,
      "içine": 4128,
      "##ld": 4129,
      "##üny": 4130,
      "hid": 4131,
      "neredeyse": 4132,
      "yemek": 4133,
      "ilçesi": 4134,
      "İlçenin": 4135,
      "Dönem": 4136,
      "sit": 4137,
      "Britanya": 4138,
      "##ündeki": 4139,
      "mon": 4140,
      "##ling": 4141,
      "Los": 4142,
      "You": 4143,
      "yu": 4144,
      "endü": 4145,
      "##ati": 4146,
      "takımın": 4147,
      "cev": 4148,
      "gizli": 4149,
      "##andı": 4150,
      "Uzun": 4151,
      "Hukuk": 4152,
      "işlev": 4153,
      "aracılığı": 4154,
      "kökenli": 4155,
      "Kir": 4156,
      "##düğü": 4157,
      "Teknik": 4158,
      "eylem": 4159,
      "##yasal": 4160,
      "Phil": 4161,
      "yaşadığı": 4162,
      "polis": 4163,
      "sağlamak": 4164,
      "Cez": 4165,
      "Sezon": 4166,
      "yetiş": 4167,
      "yapıl": 4168,
      "yönetimi": 4169,
      "cam": 4170,
      "mit": 4171,
      "oluşturul": 4172,
      "##çu": 4173,
      "##har": 4174,
      "##ette": 4175,
      "finalde": 4176,
      "##ife": 4177,
      "Frank": 4178,
      "##kas": 4179,
      "Bill": 4180,
      "Lou": 4181,
      "Yaşamı": 4182,
      "basketbol": 4183,
      "##apın": 4184,
      "bilinmektedir": 4185,
      "Cal": 4186,
      "##bur": 4187,
      "onay": 4188,
      "teslim": 4189,
      "##ann": 4190,
      "Tah": 4191,
      "atandı": 4192,
      "##liğin": 4193,
      "odak": 4194,
      "##ştan": 4195,
      "##raz": 4196,
      "baskı": 4197,
      "##ât": 4198,
      "yayımlanan": 4199,
      "kulübünde": 4200,
      "##isiyle": 4201,
      "klasik": 4202,
      "##gesel": 4203,
      "kaynağı": 4204,
      "Bölge": 4205,
      "##ish": 4206,
      "Tab": 4207,
      "Hır": 4208,
      "##kale": 4209,
      "kuzeyinde": 4210,
      "Kab": 4211,
      "Cam": 4212,
      "otur": 4213,
      "oynadığı": 4214,
      "olmadığı": 4215,
      "##araj": 4216,
      "çapında": 4217,
      "yazılım": 4218,
      "Lib": 4219,
      "Moğ": 4220,
      "Antal": 4221,
      "##zerk": 4222,
      "kullanıldı": 4223,
      "göstermektedir": 4224,
      "lerin": 4225,
      "Araştırma": 4226,
      "makale": 4227,
      "##akistan": 4228,
      "##leyman": 4229,
      "Rich": 4230,
      "Alex": 4231,
      "Peter": 4232,
      "Din": 4233,
      "akım": 4234,
      "##ace": 4235,
      "hala": 4236,
      "başlarında": 4237,
      "##ört": 4238,
      "men": 4239,
      "Takım": 4240,
      "##mut": 4241,
      "Meclisi": 4242,
      "belli": 4243,
      "kesim": 4244,
      "etkinlik": 4245,
      "Wh": 4246,
      "açtı": 4247,
      "seviye": 4248,
      "##ern": 4249,
      "yerde": 4250,
      "dans": 4251,
      "Boy": 4252,
      "araya": 4253,
      "takımının": 4254,
      "Bunlar": 4255,
      "uçuş": 4256,
      "Olimpiyatları": 4257,
      "##eyin": 4258,
      "##ırım": 4259,
      "sebebiyle": 4260,
      "##ıma": 4261,
      "bölün": 4262,
      "##rahim": 4263,
      "##gor": 4264,
      "araştır": 4265,
      "öğretmen": 4266,
      "Siyas": 4267,
      "##ılımı": 4268,
      "##los": 4269,
      "mekt": 4270,
      "Ba": 4271,
      "##ford": 4272,
      "onları": 4273,
      "düşman": 4274,
      "paylaş": 4275,
      "sağladı": 4276,
      "Alan": 4277,
      "Bank": 4278,
      "tehlik": 4279,
      "özellikleri": 4280,
      "##deb": 4281,
      "Türkmen": 4282,
      "##lerindeki": 4283,
      "Süleyman": 4284,
      "yaptır": 4285,
      "hen": 4286,
      "##ole": 4287,
      "##ayıf": 4288,
      "##etin": 4289,
      "Gör": 4290,
      "Kas": 4291,
      "Star": 4292,
      "##cilik": 4293,
      "edi": 4294,
      "edin": 4295,
      "##nalı": 4296,
      "##lardaki": 4297,
      "Pe": 4298,
      "dini": 4299,
      "##anak": 4300,
      "##ague": 4301,
      "dönüştür": 4302,
      "ilgi": 4303,
      "tartış": 4304,
      "Ta": 4305,
      "##gre": 4306,
      "##üstü": 4307,
      "istif": 4308,
      "ikti": 4309,
      "##şe": 4310,
      "ücret": 4311,
      "Rec": 4312,
      "sava": 4313,
      "Brezilya": 4314,
      "##malı": 4315,
      "sorumlu": 4316,
      "##ıştır": 4317,
      "hatta": 4318,
      "yönetic": 4319,
      "açıklama": 4320,
      "Bos": 4321,
      "##ott": 4322,
      "egemen": 4323,
      "##irler": 4324,
      "Aydın": 4325,
      "##üyor": 4326,
      "mühendis": 4327,
      "kurucu": 4328,
      "##che": 4329,
      "geçiş": 4330,
      "mezar": 4331,
      "dakika": 4332,
      "basit": 4333,
      "bitk": 4334,
      "biçimde": 4335,
      "yükseldi": 4336,
      "Gül": 4337,
      "##imiz": 4338,
      "ndeki": 4339,
      "##fat": 4340,
      "Sivas": 4341,
      "ekran": 4342,
      "kendine": 4343,
      "##yaleti": 4344,
      "iletiş": 4345,
      "Wor": 4346,
      "##ayla": 4347,
      "##alandı": 4348,
      "Thom": 4349,
      "##atürk": 4350,
      "City": 4351,
      "del": 4352,
      "Mahk": 4353,
      "Macaristan": 4354,
      "üniversite": 4355,
      "##veç": 4356,
      "##iter": 4357,
      "girişim": 4358,
      "Akademisi": 4359,
      "Ve": 4360,
      "Sonr": 4361,
      "Ken": 4362,
      "sürüm": 4363,
      "Derneği": 4364,
      "hafif": 4365,
      "ters": 4366,
      "##lığa": 4367,
      "ır": 4368,
      "##car": 4369,
      "ticari": 4370,
      "insanların": 4371,
      "Boğ": 4372,
      "teknoloj": 4373,
      "Muharebesi": 4374,
      "ref": 4375,
      "##aşık": 4376,
      "kişiler": 4377,
      "aşk": 4378,
      "Ex": 4379,
      "##çev": 4380,
      "günlük": 4381,
      "Ana": 4382,
      "##del": 4383,
      "##şah": 4384,
      "senar": 4385,
      "##lerdeki": 4386,
      "diş": 4387,
      "Maç": 4388,
      "##doğu": 4389,
      "##ısal": 4390,
      "##atistik": 4391,
      "çalışmalar": 4392,
      "##ruk": 4393,
      "Hasan": 4394,
      "sert": 4395,
      "ib": 4396,
      "##uel": 4397,
      "##larıdır": 4398,
      "tane": 4399,
      "Sat": 4400,
      "sur": 4401,
      "Atatürk": 4402,
      "yayımlandı": 4403,
      "##öğ": 4404,
      "##ima": 4405,
      "##SA": 4406,
      "Sey": 4407,
      "başkanlı": 4408,
      "##lili": 4409,
      "##ala": 4410,
      "sektör": 4411,
      "teleskopla": 4412,
      "Norveç": 4413,
      "sivil": 4414,
      "Play": 4415,
      "##leyerek": 4416,
      "uzman": 4417,
      "Med": 4418,
      "##adir": 4419,
      "kod": 4420,
      "##bey": 4421,
      "##ple": 4422,
      "##iro": 4423,
      "dönemin": 4424,
      "alanda": 4425,
      "oluşmaktadır": 4426,
      "Konstan": 4427,
      "George": 4428,
      "Sup": 4429,
      "müziği": 4430,
      "benim": 4431,
      "##olf": 4432,
      "mağlu": 4433,
      "kullanımı": 4434,
      "hastan": 4435,
      "ab": 4436,
      "##lenin": 4437,
      "başarısız": 4438,
      "Katalog": 4439,
      "Jon": 4440,
      "Flor": 4441,
      "oranı": 4442,
      "ilgilen": 4443,
      "yoluyla": 4444,
      "yakal": 4445,
      "##lemesi": 4446,
      "##liler": 4447,
      "kalmıştır": 4448,
      "Yine": 4449,
      "Gökyüzünde": 4450,
      "çekir": 4451,
      "kilomet": 4452,
      "edilmesi": 4453,
      "Mik": 4454,
      "##dılar": 4455,
      "##ota": 4456,
      "##ullah": 4457,
      "yapmaya": 4458,
      "Güven": 4459,
      "Micros": 4460,
      "nüfusunun": 4461,
      "yarar": 4462,
      "Na": 4463,
      "##layıcı": 4464,
      "güzel": 4465,
      "##yetik": 4466,
      "##bert": 4467,
      "##ny": 4468,
      "Sw": 4469,
      "##lıdır": 4470,
      "Tam": 4471,
      "fab": 4472,
      "şart": 4473,
      "##landığı": 4474,
      "artır": 4475,
      "##sika": 4476,
      "##ski": 4477,
      "##ian": 4478,
      "Göz": 4479,
      "olac": 4480,
      "General": 4481,
      "düşünce": 4482,
      "Var": 4483,
      "##imli": 4484,
      "gelecek": 4485,
      "##mon": 4486,
      "oluştuğu": 4487,
      "programı": 4488,
      "tören": 4489,
      "##gon": 4490,
      "Fars": 4491,
      "##mişlerdir": 4492,
      "##rafik": 4493,
      "öğretim": 4494,
      "##ğünü": 4495,
      "oluşturan": 4496,
      "##adeniz": 4497,
      "Ange": 4498,
      "Yas": 4499,
      "geçmektedir": 4500,
      "##ante": 4501,
      "##yumu": 4502,
      "cid": 4503,
      "çalışmaya": 4504,
      "##uth": 4505,
      "##use": 4506,
      "saf": 4507,
      "Microsoft": 4508,
      "##mamış": 4509,
      "ins": 4510,
      "##iklet": 4511,
      "seçimleri": 4512,
      "rapor": 4513,
      "öldürül": 4514,
      "zayıf": 4515,
      "prob": 4516,
      "başlangıç": 4517,
      "telefon": 4518,
      "Müzesi": 4519,
      "##rit": 4520,
      "eseri": 4521,
      "barış": 4522,
      "davranış": 4523,
      "kültürel": 4524,
      "ihtiyaç": 4525,
      "araz": 4526,
      "sağlık": 4527,
      "ilet": 4528,
      "##çesi": 4529,
      "##abet": 4530,
      "sonradan": 4531,
      "uğr": 4532,
      "olmadığını": 4533,
      "civarında": 4534,
      "##ılıp": 4535,
      "topluluk": 4536,
      "##imark": 4537,
      "Sonuç": 4538,
      "##elim": 4539,
      "getirildi": 4540,
      "##ward": 4541,
      "des": 4542,
      "Danimark": 4543,
      "listesinde": 4544,
      "Arapça": 4545,
      "muhtem": 4546,
      "TBM": 4547,
      "##engi": 4548,
      "Karadeniz": 4549,
      "Topl": 4550,
      "başlamış": 4551,
      "##uri": 4552,
      "##astır": 4553,
      "Balık": 4554,
      "##cının": 4555,
      "başbak": 4556,
      "teklif": 4557,
      "arada": 4558,
      "Fransızca": 4559,
      "katılan": 4560,
      "Eli": 4561,
      "##amily": 4562,
      "##amb": 4563,
      "pozisyonunda": 4564,
      "##erler": 4565,
      "sürec": 4566,
      "##oley": 4567,
      "cinsel": 4568,
      "TBMM": 4569,
      "Kent": 4570,
      "##lendiği": 4571,
      "Doktor": 4572,
      "süt": 4573,
      "##malar": 4574,
      "lerde": 4575,
      "dakik": 4576,
      "kayded": 4577,
      "Naz": 4578,
      "yere": 4579,
      "Yıldı": 4580,
      "vak": 4581,
      "##ational": 4582,
      "Sm": 4583,
      "sene": 4584,
      "##dit": 4585,
      "##ideri": 4586,
      "örneğin": 4587,
      "Dur": 4588,
      "##birliği": 4589,
      "web": 4590,
      "##ılış": 4591,
      "##AT": 4592,
      "Geli": 4593,
      "devr": 4594,
      "sınıflandır": 4595,
      "##don": 4596,
      "##yolu": 4597,
      "İbrahim": 4598,
      "Bol": 4599,
      "##şu": 4600,
      "##elli": 4601,
      "fiziksel": 4602,
      "Sy": 4603,
      "##ezi": 4604,
      "##içek": 4605,
      "profesör": 4606,
      "Bölüm": 4607,
      "##unlu": 4608,
      "ndaki": 4609,
      "filminde": 4610,
      "aracılığıyla": 4611,
      "gücü": 4612,
      "##dağ": 4613,
      "filmde": 4614,
      "Lov": 4615,
      "durdur": 4616,
      "yapar": 4617,
      "Charles": 4618,
      "güvenlik": 4619,
      "güneş": 4620,
      "##desi": 4621,
      "##ja": 4622,
      "güneyinde": 4623,
      "Zaman": 4624,
      "böyle": 4625,
      "ailesi": 4626,
      "##ağa": 4627,
      "buldu": 4628,
      "ış": 4629,
      "Kaynak": 4630,
      "dolayısıyla": 4631,
      "henüz": 4632,
      "Şey": 4633,
      "##ato": 4634,
      "Venedik": 4635,
      "##ica": 4636,
      "World": 4637,
      "saray": 4638,
      "Adam": 4639,
      "##asıdır": 4640,
      "gerekli": 4641,
      "esn": 4642,
      "insanlar": 4643,
      "##amet": 4644,
      "##leyici": 4645,
      "olduğuna": 4646,
      "öde": 4647,
      "##madı": 4648,
      "yüzünden": 4649,
      "bor": 4650,
      "##mur": 4651,
      "kaybetti": 4652,
      "fonksiyon": 4653,
      "Jean": 4654,
      "Hor": 4655,
      "##rid": 4656,
      "##iet": 4657,
      "Birçok": 4658,
      "bitki": 4659,
      "Dağı": 4660,
      "başv": 4661,
      "Yeşil": 4662,
      "net": 4663,
      "pas": 4664,
      "##ulur": 4665,
      "verilir": 4666,
      "##lıklar": 4667,
      "uzunluğ": 4668,
      "Yol": 4669,
      "##sas": 4670,
      "Eğer": 4671,
      "ölümünden": 4672,
      "##şi": 4673,
      "antik": 4674,
      "##isa": 4675,
      "##iel": 4676,
      "yaptık": 4677,
      "yapısı": 4678,
      "Belçika": 4679,
      "##lemeye": 4680,
      "##lıkları": 4681,
      "##eği": 4682,
      "fikir": 4683,
      "##ölçümü": 4684,
      "CO": 4685,
      "Şirket": 4686,
      "maçına": 4687,
      "Bulgaristan": 4688,
      "çizgi": 4689,
      "##ğının": 4690,
      "rak": 4691,
      "yaparak": 4692,
      "gerekir": 4693,
      "Konstantin": 4694,
      "versiyon": 4695,
      "Bilim": 4696,
      "olduğundan": 4697,
      "saha": 4698,
      "tor": 4699,
      "##sü": 4700,
      "sıral": 4701,
      "##eyle": 4702,
      "gezeg": 4703,
      "##liğinden": 4704,
      "Efendi": 4705,
      "Meksika": 4706,
      "nü": 4707,
      "rock": 4708,
      "tr": 4709,
      "##kur": 4710,
      "Komün": 4711,
      "##maşık": 4712,
      "kilise": 4713,
      "Kilisesi": 4714,
      "karşın": 4715,
      "Div": 4716,
      "Ze": 4717,
      "Prens": 4718,
      "ton": 4719,
      "kemer": 4720,
      "yandan": 4721,
      "##ulları": 4722,
      "kanun": 4723,
      "ilinde": 4724,
      "##istin": 4725,
      "War": 4726,
      "harf": 4727,
      "milli": 4728,
      "bölgesine": 4729,
      "sayılı": 4730,
      "belge": 4731,
      "##tarı": 4732,
      "Erzurum": 4733,
      "kentinde": 4734,
      "##vin": 4735,
      "ant": 4736,
      "Far": 4737,
      "Pers": 4738,
      "Franc": 4739,
      "heykel": 4740,
      "bomb": 4741,
      "##prü": 4742,
      "rö": 4743,
      "Karak": 4744,
      "Maked": 4745,
      "gösterdi": 4746,
      "dokuz": 4747,
      "##ath": 4748,
      "##alimanı": 4749,
      "Elek": 4750,
      "Sem": 4751,
      "bazıları": 4752,
      "Bölümü": 4753,
      "##larca": 4754,
      "Tic": 4755,
      "Müdürlüğü": 4756,
      "Vil": 4757,
      "##oleybol": 4758,
      "Edeb": 4759,
      "hikây": 4760,
      "##isti": 4761,
      "vokal": 4762,
      "##ited": 4763,
      "##cık": 4764,
      "##lad": 4765,
      "Kafkas": 4766,
      "çök": 4767,
      "##ütte": 4768,
      "zarar": 4769,
      "##geç": 4770,
      "aslında": 4771,
      "aşırı": 4772,
      "zir": 4773,
      "##bet": 4774,
      "##yahat": 4775,
      "Dal": 4776,
      "antr": 4777,
      "üretimi": 4778,
      "sahipliği": 4779,
      "##rich": 4780,
      "Adana": 4781,
      "##mann": 4782,
      "etmesi": 4783,
      "Ra": 4784,
      "##RT": 4785,
      "galib": 4786,
      "Ardından": 4787,
      "altyap": 4788,
      "Babası": 4789,
      "içeri": 4790,
      "Pop": 4791,
      "seri": 4792,
      "##day": 4793,
      "adlandırılan": 4794,
      "##ius": 4795,
      "##erçev": 4796,
      "##sak": 4797,
      "yılda": 4798,
      "halkı": 4799,
      "##mit": 4800,
      "##insel": 4801,
      "Yen": 4802,
      "tartışma": 4803,
      "Konseyi": 4804,
      "Sistem": 4805,
      "Tu": 4806,
      "mül": 4807,
      "Tal": 4808,
      "orada": 4809,
      "önünde": 4810,
      "##luğunu": 4811,
      "Angeles": 4812,
      "##ever": 4813,
      "platform": 4814,
      "##batı": 4815,
      "Ur": 4816,
      "Karab": 4817,
      "hikâye": 4818,
      "Op": 4819,
      "##ırh": 4820,
      "dolar": 4821,
      "##vis": 4822,
      "lideri": 4823,
      "molek": 4824,
      "##koç": 4825,
      "görülen": 4826,
      "Rock": 4827,
      "özelliği": 4828,
      "Meclis": 4829,
      "##sur": 4830,
      "diplom": 4831,
      "vaz": 4832,
      "üz": 4833,
      "##ven": 4834,
      "Balkan": 4835,
      "Kitap": 4836,
      "Abd": 4837,
      "proje": 4838,
      "çıkart": 4839,
      "akıl": 4840,
      "Diyar": 4841,
      "Fu": 4842,
      "internet": 4843,
      "küm": 4844,
      "##oto": 4845,
      "##lit": 4846,
      "Hint": 4847,
      "emekli": 4848,
      "Mey": 4849,
      "mahal": 4850,
      "sıv": 4851,
      "##âh": 4852,
      "Tiyatro": 4853,
      "Hitler": 4854,
      "##oth": 4855,
      "endüstr": 4856,
      "hapis": 4857,
      "##lanabilir": 4858,
      "##ülebilir": 4859,
      "Sırp": 4860,
      "belirtti": 4861,
      "pet": 4862,
      "kadros": 4863,
      "##ecik": 4864,
      "##ıda": 4865,
      "Kadınlar": 4866,
      "rüt": 4867,
      "adım": 4868,
      "ic": 4869,
      "nedeni": 4870,
      "Bit": 4871,
      "kişisel": 4872,
      "yanlış": 4873,
      "post": 4874,
      "##kim": 4875,
      "evlendi": 4876,
      "Grand": 4877,
      "Kuş": 4878,
      "esas": 4879,
      "nak": 4880,
      "##süz": 4881,
      "##tip": 4882,
      "##üttefik": 4883,
      "kişidir": 4884,
      "gerçekleştirilen": 4885,
      "barındır": 4886,
      "büny": 4887,
      "##retim": 4888,
      "hakkı": 4889,
      "Dışişleri": 4890,
      "##board": 4891,
      "savunma": 4892,
      "Emir": 4893,
      "##lenmektedir": 4894,
      "kütle": 4895,
      "##ıyı": 4896,
      "Str": 4897,
      "Max": 4898,
      "yılın": 4899,
      "##örf": 4900,
      "kanat": 4901,
      "Konya": 4902,
      "birinc": 4903,
      "atom": 4904,
      "Poli": 4905,
      "##vik": 4906,
      "makine": 4907,
      "hasta": 4908,
      "şah": 4909,
      "Dir": 4910,
      "##ese": 4911,
      "yetk": 4912,
      "aşam": 4913,
      "kralı": 4914,
      "ciddi": 4915,
      "Chris": 4916,
      "çıkardı": 4917,
      "kapsamında": 4918,
      "ismini": 4919,
      "NBA": 4920,
      "Plan": 4921,
      "çizg": 4922,
      "atı": 4923,
      "Yıldız": 4924,
      "##ame": 4925,
      "##amadı": 4926,
      "Hane": 4927,
      "plak": 4928,
      "giydi": 4929,
      "merkezli": 4930,
      "yaşındayken": 4931,
      "ların": 4932,
      "Del": 4933,
      "ısı": 4934,
      "kalın": 4935,
      "##iyatrosu": 4936,
      "Yo": 4937,
      "##elek": 4938,
      "Richard": 4939,
      "evren": 4940,
      "##vanya": 4941,
      "##amik": 4942,
      "yardı": 4943,
      "talep": 4944,
      "Hot": 4945,
      "Haçlı": 4946,
      "geçmiştir": 4947,
      "##lon": 4948,
      "may": 4949,
      "##aket": 4950,
      "##umb": 4951,
      "sürdü": 4952,
      "hiss": 4953,
      "##emez": 4954,
      "Mit": 4955,
      "üstün": 4956,
      "##ys": 4957,
      "##unma": 4958,
      "Hüseyin": 4959,
      "büyü": 4960,
      "biraz": 4961,
      "müdür": 4962,
      "otomobil": 4963,
      "Sol": 4964,
      "terim": 4965,
      "genelde": 4966,
      "To": 4967,
      "cep": 4968,
      "Tep": 4969,
      "Katolik": 4970,
      "ettiler": 4971,
      "metin": 4972,
      "##ijital": 4973,
      "##ebek": 4974,
      "Antalya": 4975,
      "seçilmiştir": 4976,
      "dram": 4977,
      "##sul": 4978,
      "çerçev": 4979,
      "pan": 4980,
      "düşür": 4981,
      "Federasyonu": 4982,
      "tir": 4983,
      "##enler": 4984,
      "##ederal": 4985,
      "olmaya": 4986,
      "sonlarında": 4987,
      "anlay": 4988,
      "müzisyen": 4989,
      "çağr": 4990,
      "etkileş": 4991,
      "tır": 4992,
      "ortadan": 4993,
      "kurulu": 4994,
      "bunların": 4995,
      "doğumlu": 4996,
      "güreş": 4997,
      "##acağı": 4998,
      "öğrenc": 4999,
      "cis": 5000,
      "Bon": 5001,
      "aksine": 5002,
      "Ker": 5003,
      "aktiv": 5004,
      "giden": 5005,
      "##ois": 5006,
      "mens": 5007,
      "##abil": 5008,
      "Basketbol": 5009,
      "imzaladı": 5010,
      "Kralı": 5011,
      "kullanılabilir": 5012,
      "ilişkin": 5013,
      "takımına": 5014,
      "milyar": 5015,
      "reak": 5016,
      "kaya": 5017,
      "##ony": 5018,
      "##tans": 5019,
      "##ıza": 5020,
      "##isyonu": 5021,
      "Komünist": 5022,
      "Ob": 5023,
      "IV": 5024,
      "Alek": 5025,
      "prens": 5026,
      "##orf": 5027,
      "##likleri": 5028,
      "Şu": 5029,
      "Lin": 5030,
      "##oslav": 5031,
      "toplamda": 5032,
      "vir": 5033,
      "Black": 5034,
      "##wood": 5035,
      "Record": 5036,
      "Moğol": 5037,
      "Yunanca": 5038,
      "Selçuklu": 5039,
      "##ero": 5040,
      "kans": 5041,
      "Lev": 5042,
      "taht": 5043,
      "##que": 5044,
      "Cas": 5045,
      "kimyasal": 5046,
      "Ban": 5047,
      "op": 5048,
      "olas": 5049,
      "genişlet": 5050,
      "babasının": 5051,
      "Düz": 5052,
      "göm": 5053,
      "Yönetim": 5054,
      "tuz": 5055,
      "##bakır": 5056,
      "vermektedir": 5057,
      "Antik": 5058,
      "Kurul": 5059,
      "oynayan": 5060,
      "gereken": 5061,
      "dizisinde": 5062,
      "giderek": 5063,
      "ide": 5064,
      "getirdi": 5065,
      "Filmin": 5066,
      "Belediyesi": 5067,
      "iletişim": 5068,
      "Açık": 5069,
      "Alp": 5070,
      "##mo": 5071,
      "gerektir": 5072,
      "Sun": 5073,
      "kullanan": 5074,
      "sarı": 5075,
      "Denizi": 5076,
      "##liğinin": 5077,
      "Miss": 5078,
      "reddet": 5079,
      "##sta": 5080,
      "inc": 5081,
      "asit": 5082,
      "Diyarbakır": 5083,
      "İskoç": 5084,
      "Camii": 5085,
      "dos": 5086,
      "imk": 5087,
      "ikisi": 5088,
      "hükümdar": 5089,
      "tesis": 5090,
      "tıp": 5091,
      "müda": 5092,
      "ressam": 5093,
      "girmiştir": 5094,
      "Kısa": 5095,
      "Şark": 5096,
      "başardı": 5097,
      "hızla": 5098,
      "##örü": 5099,
      "kelime": 5100,
      "##net": 5101,
      "Biy": 5102,
      "##gü": 5103,
      "ban": 5104,
      "Sosyalist": 5105,
      "dam": 5106,
      "tahta": 5107,
      "finans": 5108,
      "Andre": 5109,
      "##emli": 5110,
      "tank": 5111,
      "Ermenistan": 5112,
      "bö": 5113,
      "çekildi": 5114,
      "##leyic": 5115,
      "##ure": 5116,
      "Pri": 5117,
      "##arya": 5118,
      "Evli": 5119,
      "MS": 5120,
      "yeşil": 5121,
      "şampiyonu": 5122,
      "onların": 5123,
      "doğan": 5124,
      "tüket": 5125,
      "sözcü": 5126,
      "durumunda": 5127,
      "##uncu": 5128,
      "kli": 5129,
      "klip": 5130,
      "##mışlardır": 5131,
      "##sat": 5132,
      "Cumhurbaşkanı": 5133,
      "yukarı": 5134,
      "##espor": 5135,
      "##ku": 5136,
      "##fab": 5137,
      "##tez": 5138,
      "istedi": 5139,
      "karmaşık": 5140,
      "du": 5141,
      "bitirdi": 5142,
      "vermek": 5143,
      "İli": 5144,
      "nu": 5145,
      "ikin": 5146,
      "Fri": 5147,
      "West": 5148,
      "##culu": 5149,
      "##off": 5150,
      "##var": 5151,
      "##fı": 5152,
      "Bin": 5153,
      "Slov": 5154,
      "Gölü": 5155,
      "cumhurbaş": 5156,
      "depo": 5157,
      "birbirine": 5158,
      "Hırvat": 5159,
      "Ka": 5160,
      "kadro": 5161,
      "düştü": 5162,
      "##ilerden": 5163,
      "##bar": 5164,
      "##tic": 5165,
      "döv": 5166,
      "Bek": 5167,
      "içi": 5168,
      "Saf": 5169,
      "sıcaklık": 5170,
      "edilebilir": 5171,
      "##layıp": 5172,
      "bl": 5173,
      "etki": 5174,
      "birden": 5175,
      "##ora": 5176,
      "Milletler": 5177,
      "##ence": 5178,
      "Sonra": 5179,
      "Filistin": 5180,
      "oynan": 5181,
      "düzenli": 5182,
      "##elendir": 5183,
      "Stadyumu": 5184,
      "##akya": 5185,
      "azalt": 5186,
      "Fi": 5187,
      "##ıb": 5188,
      "##kender": 5189,
      "koruma": 5190,
      "birisi": 5191,
      "tablo": 5192,
      "Boz": 5193,
      "ayrılır": 5194,
      "bölgeye": 5195,
      "İlçe": 5196,
      "##lüğünü": 5197,
      "halka": 5198,
      "##rem": 5199,
      "Vir": 5200,
      "kullandı": 5201,
      "Vic": 5202,
      "##tısı": 5203,
      "finale": 5204,
      "##pa": 5205,
      "##rip": 5206,
      "Fre": 5207,
      "dök": 5208,
      "sarmal": 5209,
      "ediyor": 5210,
      "##fak": 5211,
      "##ydi": 5212,
      "operasyon": 5213,
      "##ersiz": 5214,
      "güncel": 5215,
      "Oper": 5216,
      "fay": 5217,
      "Proj": 5218,
      "Mün": 5219,
      "##aza": 5220,
      "##lığın": 5221,
      "ann": 5222,
      "devre": 5223,
      "devrim": 5224,
      "albümün": 5225,
      "çözüm": 5226,
      "danış": 5227,
      "Silah": 5228,
      "Anton": 5229,
      "ışı": 5230,
      "family": 5231,
      "##tle": 5232,
      "##ila": 5233,
      "##so": 5234,
      "Gro": 5235,
      "Il": 5236,
      "Ag": 5237,
      "Nazi": 5238,
      "hac": 5239,
      "##trik": 5240,
      "##ilerinde": 5241,
      "von": 5242,
      "##laz": 5243,
      "şehridir": 5244,
      "etik": 5245,
      "çalışması": 5246,
      "##sch": 5247,
      "##inç": 5248,
      "İskender": 5249,
      "Mehmed": 5250,
      "Eş": 5251,
      "##leridir": 5252,
      "Ahmed": 5253,
      "##ID": 5254,
      "öğrenciler": 5255,
      "askerî": 5256,
      "çalıştır": 5257,
      "Est": 5258,
      "Finland": 5259,
      "##öre": 5260,
      "##cük": 5261,
      "davet": 5262,
      "ettik": 5263,
      "öğrenci": 5264,
      "kurucusu": 5265,
      "asıllı": 5266,
      "Danimarka": 5267,
      "##ilenin": 5268,
      "sergil": 5269,
      "istasyon": 5270,
      "Hem": 5271,
      "kart": 5272,
      "isten": 5273,
      "kilometre": 5274,
      "Sek": 5275,
      "kolek": 5276,
      "Kırım": 5277,
      "göv": 5278,
      "yaşan": 5279,
      "parlak": 5280,
      "##way": 5281,
      "##ehr": 5282,
      "##tifak": 5283,
      "organizasyon": 5284,
      "taşındı": 5285,
      "##mıyla": 5286,
      "semt": 5287,
      "amaçlı": 5288,
      "##tain": 5289,
      "bıraktı": 5290,
      "##lerdi": 5291,
      "rom": 5292,
      "##ush": 5293,
      "problem": 5294,
      "demok": 5295,
      "seyahat": 5296,
      "##ilmesini": 5297,
      "##ecektir": 5298,
      "##lemiştir": 5299,
      "Hükûmet": 5300,
      "##mos": 5301,
      "temiz": 5302,
      "Eser": 5303,
      "Mih": 5304,
      "depr": 5305,
      "yayınlanmıştır": 5306,
      "Adası": 5307,
      "WW": 5308,
      "çalışır": 5309,
      "##tuluş": 5310,
      "evlilik": 5311,
      "noktası": 5312,
      "##mail": 5313,
      "vb": 5314,
      "Nap": 5315,
      "geldiği": 5316,
      "iklim": 5317,
      "Ph": 5318,
      "Kos": 5319,
      "ödülü": 5320,
      "galibiyet": 5321,
      "Genellikle": 5322,
      "arttır": 5323,
      "##çisi": 5324,
      "##arruz": 5325,
      "köyü": 5326,
      "Sor": 5327,
      "larda": 5328,
      "##ebe": 5329,
      "Henry": 5330,
      "gerektiğini": 5331,
      "Kav": 5332,
      "##düs": 5333,
      "babasıdır": 5334,
      "Kulüb": 5335,
      "gerçekleşen": 5336,
      "tedavi": 5337,
      "##OS": 5338,
      "dile": 5339,
      "##ulmuş": 5340,
      "##igür": 5341,
      "##ald": 5342,
      "öldürüldü": 5343,
      "##ulmuştur": 5344,
      "eleme": 5345,
      "kullanılarak": 5346,
      "Anay": 5347,
      "akış": 5348,
      "hidro": 5349,
      "Thomas": 5350,
      "##ükleer": 5351,
      "##atür": 5352,
      "Mahal": 5353,
      "##led": 5354,
      "gümüş": 5355,
      "League": 5356,
      "##esto": 5357,
      "zırh": 5358,
      "##bas": 5359,
      "önde": 5360,
      "aynalı": 5361,
      "United": 5362,
      "sanatçısı": 5363,
      "etnik": 5364,
      "farklılık": 5365,
      "send": 5366,
      "##BC": 5367,
      "##mamıştır": 5368,
      "##iller": 5369,
      "Eskişehir": 5370,
      "##ilmesine": 5371,
      "İsa": 5372,
      "##üphan": 5373,
      "##lanarak": 5374,
      "##ternatif": 5375,
      "günümüze": 5376,
      "karbon": 5377,
      "##ceği": 5378,
      "günde": 5379,
      "Ün": 5380,
      "asist": 5381,
      "ayrıl": 5382,
      "##içe": 5383,
      "Çift": 5384,
      "##ander": 5385,
      "Lo": 5386,
      "Ast": 5387,
      "yerli": 5388,
      "Almanca": 5389,
      "Nev": 5390,
      "##line": 5391,
      "##acılık": 5392,
      "##oyu": 5393,
      "ört": 5394,
      "düğ": 5395,
      "yazılan": 5396,
      "seçimlerinde": 5397,
      "ces": 5398,
      "##lağ": 5399,
      "başlıca": 5400,
      "strate": 5401,
      "Tiyatrosu": 5402,
      "ister": 5403,
      "teşk": 5404,
      "##isiklet": 5405,
      "##fet": 5406,
      "##uvarı": 5407,
      "Liv": 5408,
      "kg": 5409,
      "Güzel": 5410,
      "başlandı": 5411,
      "köyün": 5412,
      "##ux": 5413,
      "parçacık": 5414,
      "gören": 5415,
      "Ke": 5416,
      "önceleri": 5417,
      "dep": 5418,
      "##abor": 5419,
      "##we": 5420,
      "Bilg": 5421,
      "Çanak": 5422,
      "Rusça": 5423,
      "Çev": 5424,
      "petrol": 5425,
      "Pek": 5426,
      "Sk": 5427,
      "Billboard": 5428,
      "yaşanan": 5429,
      "eline": 5430,
      "Sarı": 5431,
      "medya": 5432,
      "rej": 5433,
      "park": 5434,
      "Mich": 5435,
      "##areti": 5436,
      "almaya": 5437,
      "Abdül": 5438,
      "##ülmüştür": 5439,
      "rest": 5440,
      "teşkil": 5441,
      "Diz": 5442,
      "türüdür": 5443,
      "##ls": 5444,
      "King": 5445,
      "##ılıç": 5446,
      "kuvvetleri": 5447,
      "rütb": 5448,
      "sonuna": 5449,
      "istifa": 5450,
      "Mel": 5451,
      "##chel": 5452,
      "elinde": 5453,
      "zamanında": 5454,
      "Ni": 5455,
      "##caktır": 5456,
      "beşinci": 5457,
      "faktör": 5458,
      "Romanya": 5459,
      "ekiplerinden": 5460,
      "olumlu": 5461,
      "halde": 5462,
      "mektup": 5463,
      "Juli": 5464,
      "gerçekleşti": 5465,
      "Finlandiya": 5466,
      "##ceğini": 5467,
      "oldukları": 5468,
      "Latin": 5469,
      "##illi": 5470,
      "com": 5471,
      "Çalışma": 5472,
      "##tro": 5473,
      "##ıldığında": 5474,
      "Dom": 5475,
      "##wa": 5476,
      "batısında": 5477,
      "nehir": 5478,
      "##no": 5479,
      "##by": 5480,
      "##umsuz": 5481,
      "Martin": 5482,
      "Parlament": 5483,
      "Ölümü": 5484,
      "kapasit": 5485,
      "##gılan": 5486,
      "Kole": 5487,
      "anlaşma": 5488,
      "yir": 5489,
      "Tür": 5490,
      "##cağını": 5491,
      "##vir": 5492,
      "oyla": 5493,
      "kuy": 5494,
      "Romalı": 5495,
      "önceden": 5496,
      "bask": 5497,
      "Cer": 5498,
      "stad": 5499,
      "yaşamı": 5500,
      "zamanlarda": 5501,
      "Seri": 5502,
      "katıldığı": 5503,
      "doğusunda": 5504,
      "numara": 5505,
      "isteyen": 5506,
      "##lılar": 5507,
      "üretic": 5508,
      "Yug": 5509,
      "geçici": 5510,
      "Red": 5511,
      "görevlendir": 5512,
      "yayınlan": 5513,
      "şef": 5514,
      "##ikal": 5515,
      "Fa": 5516,
      "Okyan": 5517,
      "tehdit": 5518,
      "Yüzölçümü": 5519,
      "##uman": 5520,
      "kayıp": 5521,
      "İt": 5522,
      "Milletvek": 5523,
      "##ağına": 5524,
      "Records": 5525,
      "rekor": 5526,
      "analiz": 5527,
      "kalıntı": 5528,
      "Net": 5529,
      "##öm": 5530,
      "##rag": 5531,
      "##mekteydi": 5532,
      "bunlar": 5533,
      "##án": 5534,
      "edecek": 5535,
      "pilot": 5536,
      "anay": 5537,
      "Cap": 5538,
      "Eyaleti": 5539,
      "Wash": 5540,
      "ez": 5541,
      "muhareb": 5542,
      "sezonunun": 5543,
      "bölgenin": 5544,
      "Viy": 5545,
      "Cla": 5546,
      "enf": 5547,
      "kayıtlarında": 5548,
      "hükûmeti": 5549,
      "Kast": 5550,
      "yönetmenliğini": 5551,
      "##eter": 5552,
      "Of": 5553,
      "##ğünde": 5554,
      "komşu": 5555,
      "Lim": 5556,
      "##rimi": 5557,
      "Farsça": 5558,
      "coğraf": 5559,
      "aralarında": 5560,
      "Mühendis": 5561,
      "tedav": 5562,
      "görülmektedir": 5563,
      "Saint": 5564,
      "Hey": 5565,
      "Li": 5566,
      "##rac": 5567,
      "##dy": 5568,
      "adlandırılır": 5569,
      "Antlaşması": 5570,
      "Modern": 5571,
      "bakımından": 5572,
      "benzeri": 5573,
      "Jac": 5574,
      "##TV": 5575,
      "##ersin": 5576,
      "dalında": 5577,
      "potans": 5578,
      "nesne": 5579,
      "SS": 5580,
      "numaraya": 5581,
      "##lığının": 5582,
      "##ademi": 5583,
      "yaprak": 5584,
      "Program": 5585,
      "sk": 5586,
      "##ağın": 5587,
      "seyir": 5588,
      "##vanı": 5589,
      "Kudüs": 5590,
      "kalp": 5591,
      "versiyonu": 5592,
      "Louis": 5593,
      "##üce": 5594,
      "olanak": 5595,
      "##lenebilir": 5596,
      "toplumsal": 5597,
      "Love": 5598,
      "##ülasyon": 5599,
      "ağı": 5600,
      "süs": 5601,
      "##ücu": 5602,
      "SSC": 5603,
      "##HP": 5604,
      "Nur": 5605,
      "muhaf": 5606,
      "katılmıştır": 5607,
      "##jik": 5608,
      "##wn": 5609,
      "DNA": 5610,
      "Cel": 5611,
      "sezonda": 5612,
      "Ray": 5613,
      "Üy": 5614,
      "Bugün": 5615,
      "Yugoslav": 5616,
      "##esir": 5617,
      "Mev": 5618,
      "Çay": 5619,
      "##onun": 5620,
      "yatırım": 5621,
      "ilaç": 5622,
      "süper": 5623,
      "Sırbistan": 5624,
      "Pen": 5625,
      "uc": 5626,
      "##rad": 5627,
      "ailesinin": 5628,
      "leh": 5629,
      "Yerli": 5630,
      "Mada": 5631,
      "saç": 5632,
      "Ür": 5633,
      "Aşk": 5634,
      "gar": 5635,
      "sahipti": 5636,
      "mağlup": 5637,
      "olmadan": 5638,
      "Fatih": 5639,
      "yazılmış": 5640,
      "Şampiyonlar": 5641,
      "muhtemelen": 5642,
      "##itik": 5643,
      "##cus": 5644,
      "##otik": 5645,
      "meclis": 5646,
      "##illiği": 5647,
      "Big": 5648,
      "kazandır": 5649,
      "eksik": 5650,
      "oynamıştır": 5651,
      "Saray": 5652,
      "efsan": 5653,
      "anlamda": 5654,
      "##ps": 5655,
      "dost": 5656,
      "soğuk": 5657,
      "##cıları": 5658,
      "Washington": 5659,
      "beğ": 5660,
      "idam": 5661,
      "alma": 5662,
      "kendisinin": 5663,
      "dağılım": 5664,
      "başladığı": 5665,
      "Murat": 5666,
      "hatır": 5667,
      "##ğun": 5668,
      "##ukat": 5669,
      "##lel": 5670,
      "dünyada": 5671,
      "bugünkü": 5672,
      "##ğunda": 5673,
      "maça": 5674,
      "Tıp": 5675,
      "kalma": 5676,
      "##orth": 5677,
      "mesaj": 5678,
      "gemi": 5679,
      "##iyade": 5680,
      "Dep": 5681,
      "festiv": 5682,
      "Du": 5683,
      "dışarı": 5684,
      "##ileb": 5685,
      "duyurdu": 5686,
      "##ülük": 5687,
      "Koca": 5688,
      "##gisi": 5689,
      "ilişkiler": 5690,
      "##oda": 5691,
      "yönettiği": 5692,
      "biz": 5693,
      "Jan": 5694,
      "kapı": 5695,
      "hek": 5696,
      "##seri": 5697,
      "##mel": 5698,
      "ilişki": 5699,
      "hatt": 5700,
      "toplantı": 5701,
      "bağış": 5702,
      "##gusal": 5703,
      "reklam": 5704,
      "sinir": 5705,
      "sıvı": 5706,
      "uğra": 5707,
      "##ılmasına": 5708,
      "maruz": 5709,
      "esir": 5710,
      "karakteri": 5711,
      "##uki": 5712,
      "yaklaşım": 5713,
      "##doğan": 5714,
      "Sez": 5715,
      "sürdürdü": 5716,
      "Viyana": 5717,
      "##uml": 5718,
      "sezonun": 5719,
      "##ogle": 5720,
      "Ren": 5721,
      "müdaha": 5722,
      "##hal": 5723,
      "##sar": 5724,
      "##ücut": 5725,
      "##oug": 5726,
      "niş": 5727,
      "Bundan": 5728,
      "oluşum": 5729,
      "emir": 5730,
      "yakınlarında": 5731,
      "Donan": 5732,
      "##portaj": 5733,
      "##dere": 5734,
      "##etti": 5735,
      "kullanır": 5736,
      "tay": 5737,
      "kullandığı": 5738,
      "unsur": 5739,
      "çekti": 5740,
      "Mi": 5741,
      "##memiş": 5742,
      "Afrik": 5743,
      "Atina": 5744,
      "zafer": 5745,
      "Nat": 5746,
      "##memektedir": 5747,
      "oyunun": 5748,
      "modeli": 5749,
      "elektronik": 5750,
      "pen": 5751,
      "Yazar": 5752,
      "gösterildi": 5753,
      "renkli": 5754,
      "anah": 5755,
      "Komitesi": 5756,
      "One": 5757,
      "rolü": 5758,
      "aracı": 5759,
      "varsay": 5760,
      "bilgiler": 5761,
      "altındaki": 5762,
      "mikro": 5763,
      "##CA": 5764,
      "##ileştir": 5765,
      "Aziz": 5766,
      "Özg": 5767,
      "##cia": 5768,
      "Havalimanı": 5769,
      "konuşma": 5770,
      "şüp": 5771,
      "##kır": 5772,
      "##lenerek": 5773,
      "Oyunları": 5774,
      "Joseph": 5775,
      "pap": 5776,
      "taşımaktadır": 5777,
      "birliği": 5778,
      "teşvik": 5779,
      "Ölüm": 5780,
      "##imin": 5781,
      "bulundur": 5782,
      "takımları": 5783,
      "##olojisi": 5784,
      "Sad": 5785,
      "##ılığında": 5786,
      "##liliği": 5787,
      "Hacı": 5788,
      "takv": 5789,
      "sporcu": 5790,
      "Sağlık": 5791,
      "##ube": 5792,
      "hakları": 5793,
      "yola": 5794,
      "İsmail": 5795,
      "##ovi": 5796,
      "dijital": 5797,
      "Birleşmiş": 5798,
      "Üçüncü": 5799,
      "yaşamaktadır": 5800,
      "Apple": 5801,
      "antren": 5802,
      "##esiz": 5803,
      "Kullan": 5804,
      "##zade": 5805,
      "Toplam": 5806,
      "Madrid": 5807,
      "##aborat": 5808,
      "Yan": 5809,
      "Mimar": 5810,
      "zamanlar": 5811,
      "not": 5812,
      "nö": 5813,
      "çub": 5814,
      "ilişkili": 5815,
      "kaçır": 5816,
      "##ştık": 5817,
      "##uşu": 5818,
      "Fır": 5819,
      "##uke": 5820,
      "Adaları": 5821,
      "##urdu": 5822,
      "çaba": 5823,
      "tren": 5824,
      "Christ": 5825,
      "katkıda": 5826,
      "##aklı": 5827,
      "başla": 5828,
      "oynamaktadır": 5829,
      "kulübü": 5830,
      "##lası": 5831,
      "##iti": 5832,
      "kulüplerinde": 5833,
      "Google": 5834,
      "ceza": 5835,
      "yörün": 5836,
      "kuz": 5837,
      "birimi": 5838,
      "Çanakkale": 5839,
      "bür": 5840,
      "tec": 5841,
      "alfab": 5842,
      "sürede": 5843,
      "##iyatı": 5844,
      "tarzı": 5845,
      "bastır": 5846,
      "Ala": 5847,
      "Kış": 5848,
      "##inler": 5849,
      "alınmıştır": 5850,
      "##ısıt": 5851,
      "ülkeler": 5852,
      "eserleri": 5853,
      "##lie": 5854,
      "##omo": 5855,
      "Çünkü": 5856,
      "yetkil": 5857,
      "Tw": 5858,
      "tez": 5859,
      "Ang": 5860,
      "##giller": 5861,
      "Des": 5862,
      "Sir": 5863,
      "Körf": 5864,
      "##ilendir": 5865,
      "yasal": 5866,
      "##ue": 5867,
      "fayda": 5868,
      "cami": 5869,
      "eğer": 5870,
      "##güne": 5871,
      "ödülünü": 5872,
      "ölümü": 5873,
      "Stan": 5874,
      "çevresinde": 5875,
      "Haf": 5876,
      "##kür": 5877,
      "##chi": 5878,
      "köle": 5879,
      "sinyal": 5880,
      "Arnavutluk": 5881,
      "röportaj": 5882,
      "istem": 5883,
      "kahraman": 5884,
      "Video": 5885,
      "açıldı": 5886,
      "okudu": 5887,
      "Ir": 5888,
      "##uva": 5889,
      "##chester": 5890,
      "Lee": 5891,
      "uzan": 5892,
      "yönetmeni": 5893,
      "ederken": 5894,
      "##ımız": 5895,
      "dedi": 5896,
      "##ılmasını": 5897,
      "serisi": 5898,
      "Kn": 5899,
      "Ty": 5900,
      "gelişmiş": 5901,
      "##ike": 5902,
      "Bunların": 5903,
      "mensup": 5904,
      "##türü": 5905,
      "türleri": 5906,
      "Wat": 5907,
      "##TA": 5908,
      "eleştirmen": 5909,
      "Kutsal": 5910,
      "şer": 5911,
      "##okul": 5912,
      "gay": 5913,
      "Vakfı": 5914,
      "sembol": 5915,
      "başkent": 5916,
      "küresel": 5917,
      "Kayseri": 5918,
      "Balıkesir": 5919,
      "Dört": 5920,
      "şif": 5921,
      "##ors": 5922,
      "##ild": 5923,
      "##acağını": 5924,
      "Super": 5925,
      "istih": 5926,
      "Francis": 5927,
      "Mut": 5928,
      "##anları": 5929,
      "imza": 5930,
      "Stal": 5931,
      "Savunma": 5932,
      "Güvenlik": 5933,
      "mavi": 5934,
      "##üyordu": 5935,
      "boğ": 5936,
      "hükümet": 5937,
      "Mersin": 5938,
      "halkın": 5939,
      "##alanan": 5940,
      "grubunun": 5941,
      "herkes": 5942,
      "##elle": 5943,
      "##ayarak": 5944,
      "Aug": 5945,
      "Ceph": 5946,
      "##ferans": 5947,
      "Jackson": 5948,
      "ligi": 5949,
      "vurgu": 5950,
      "Lan": 5951,
      "Ga": 5952,
      "hayatına": 5953,
      "tepk": 5954,
      "Roy": 5955,
      "##lemektedir": 5956,
      "tapın": 5957,
      "birer": 5958,
      "disk": 5959,
      "##steri": 5960,
      "sahil": 5961,
      "düzenleme": 5962,
      "Leon": 5963,
      "##igh": 5964,
      "Yılın": 5965,
      "Herschel": 5966,
      "yargı": 5967,
      "miktarda": 5968,
      "tekli": 5969,
      "##ilt": 5970,
      "All": 5971,
      "##lamadı": 5972,
      "##gör": 5973,
      "görevine": 5974,
      "Ömer": 5975,
      "##cy": 5976,
      "zinc": 5977,
      "##isp": 5978,
      "etrafında": 5979,
      "figür": 5980,
      "hareketi": 5981,
      "kilis": 5982,
      "##tim": 5983,
      "Kiş": 5984,
      "##ğiyle": 5985,
      "Erken": 5986,
      "##ristal": 5987,
      "sanayi": 5988,
      "değeri": 5989,
      "şarkının": 5990,
      "tel": 5991,
      "mezunu": 5992,
      "Hit": 5993,
      "Düş": 5994,
      "##mey": 5995,
      "yüzde": 5996,
      "incelen": 5997,
      "uğraş": 5998,
      "hoş": 5999,
      "Chan": 6000,
      "kadınlar": 6001,
      "bağlıdır": 6002,
      "Okul": 6003,
      "kapalı": 6004,
      "Vik": 6005,
      "##abilen": 6006,
      "onur": 6007,
      "Fir": 6008,
      "komedi": 6009,
      "Si": 6010,
      "##dun": 6011,
      "Rod": 6012,
      "şunlardır": 6013,
      "bozuk": 6014,
      "sözleş": 6015,
      "inşaat": 6016,
      "yans": 6017,
      "Dağları": 6018,
      "gelmiş": 6019,
      "##şim": 6020,
      "##gat": 6021,
      "açılan": 6022,
      "cem": 6023,
      "##lasman": 6024,
      "Adalet": 6025,
      "kov": 6026,
      "üyesidir": 6027,
      "giyen": 6028,
      "romanı": 6029,
      "açıdan": 6030,
      "##ekt": 6031,
      "sınırlı": 6032,
      "eğitimini": 6033,
      "görür": 6034,
      "Enter": 6035,
      "fi": 6036,
      "##adişah": 6037,
      "WWE": 6038,
      "##malıdır": 6039,
      "Gazet": 6040,
      "##lığında": 6041,
      "##danın": 6042,
      "kenti": 6043,
      "##liye": 6044,
      "Barış": 6045,
      "tanınan": 6046,
      "Edir": 6047,
      "Nas": 6048,
      "olmakla": 6049,
      "onlara": 6050,
      "protein": 6051,
      "Önce": 6052,
      "Edward": 6053,
      "Eb": 6054,
      "geçerek": 6055,
      "yardımcısı": 6056,
      "hayran": 6057,
      "mim": 6058,
      "##ont": 6059,
      "##okulu": 6060,
      "sergilen": 6061,
      "çiçek": 6062,
      "yetene": 6063,
      "rakip": 6064,
      "bakış": 6065,
      "ob": 6066,
      "kıyısında": 6067,
      "ailenin": 6068,
      "bahsed": 6069,
      "yeterli": 6070,
      "yanına": 6071,
      "Yukarı": 6072,
      "Show": 6073,
      "önder": 6074,
      "esnasında": 6075,
      "##pınar": 6076,
      "ötürü": 6077,
      "##ilerinden": 6078,
      "##diğinde": 6079,
      "##low": 6080,
      "##ech": 6081,
      "Büyükşehir": 6082,
      "birlikleri": 6083,
      "tarafında": 6084,
      "suyu": 6085,
      "edildiği": 6086,
      "Telev": 6087,
      "Demokrat": 6088,
      "rüz": 6089,
      "UN": 6090,
      "##field": 6091,
      "alk": 6092,
      "Sı": 6093,
      "yolcu": 6094,
      "Nob": 6095,
      "mac": 6096,
      "adayı": 6097,
      "##ilmeye": 6098,
      "süreli": 6099,
      "aj": 6100,
      "Bosna": 6101,
      "Ameri": 6102,
      "ekibi": 6103,
      "düşünc": 6104,
      "edip": 6105,
      "oluşturdu": 6106,
      "geçirdiği": 6107,
      "##ae": 6108,
      "reform": 6109,
      "Makedonya": 6110,
      "unvanını": 6111,
      "Şam": 6112,
      "temsilcisi": 6113,
      "korumak": 6114,
      "##itir": 6115,
      "çeş": 6116,
      "##sizlik": 6117,
      "mür": 6118,
      "ata": 6119,
      "takımlarından": 6120,
      "Ticaret": 6121,
      "gönderildi": 6122,
      "ilişkileri": 6123,
      "##rav": 6124,
      "gruba": 6125,
      "##gresi": 6126,
      "##eksiyon": 6127,
      "eşlik": 6128,
      "ülkelerde": 6129,
      "bağlantılar": 6130,
      "Hüküm": 6131,
      "yönlendir": 6132,
      "aydın": 6133,
      "bünyesinde": 6134,
      "hit": 6135,
      "olmadı": 6136,
      "sağlam": 6137,
      "Sonraki": 6138,
      "Afgan": 6139,
      "##ordin": 6140,
      "oluşturulan": 6141,
      "yaratı": 6142,
      "savaşı": 6143,
      "şehirde": 6144,
      "Cat": 6145,
      "##osunu": 6146,
      "Akademi": 6147,
      "birisidir": 6148,
      "Adı": 6149,
      "yazılı": 6150,
      "sınıfı": 6151,
      "yapılmaktadır": 6152,
      "rahatsız": 6153,
      "Kardeş": 6154,
      "yetenek": 6155,
      "elektron": 6156,
      "Latince": 6157,
      "Let": 6158,
      "oluşturduğu": 6159,
      "sinem": 6160,
      "##yu": 6161,
      "##iber": 6162,
      "##lub": 6163,
      "kısıt": 6164,
      "yürüy": 6165,
      "nadir": 6166,
      "taarruz": 6167,
      "Demokratik": 6168,
      "çıkmış": 6169,
      "aittir": 6170,
      "organiz": 6171,
      "##ón": 6172,
      "Başk": 6173,
      "Edebiyat": 6174,
      "İd": 6175,
      "##mesinde": 6176,
      "doldur": 6177,
      "başkanlığı": 6178,
      "gezegen": 6179,
      "org": 6180,
      "zirv": 6181,
      "Plat": 6182,
      "iktidar": 6183,
      "##tre": 6184,
      "##ory": 6185,
      "##ısındaki": 6186,
      "sonuçları": 6187,
      "##darı": 6188,
      "##ii": 6189,
      "numaralı": 6190,
      "##lağan": 6191,
      "yapma": 6192,
      "kenar": 6193,
      "##usuf": 6194,
      "vol": 6195,
      "##ılmasıyla": 6196,
      "düşünülmektedir": 6197,
      "özerk": 6198,
      "##lüğe": 6199,
      "sakat": 6200,
      "##mamaktadır": 6201,
      "hayatta": 6202,
      "idare": 6203,
      "Atlan": 6204,
      "görüldü": 6205,
      "forması": 6206,
      "co": 6207,
      "alternatif": 6208,
      "##fan": 6209,
      "üstlendi": 6210,
      "hazırlık": 6211,
      "kalab": 6212,
      "##bil": 6213,
      "##okol": 6214,
      "müsab": 6215,
      "türlü": 6216,
      "filmidir": 6217,
      "##ulması": 6218,
      "##ella": 6219,
      "ışın": 6220,
      "Kastam": 6221,
      "komutanı": 6222,
      "Vad": 6223,
      "karşılaştır": 6224,
      "liman": 6225,
      "değildi": 6226,
      "otob": 6227,
      "Litvanya": 6228,
      "ikili": 6229,
      "çıktığı": 6230,
      "senesinde": 6231,
      "Ref": 6232,
      "Selim": 6233,
      "silahlı": 6234,
      "karşılığında": 6235,
      "tarihsel": 6236,
      "##cher": 6237,
      "##aşı": 6238,
      "tamamı": 6239,
      "toplu": 6240,
      "Gerçek": 6241,
      "karşılaşma": 6242,
      "prodük": 6243,
      "Kraliyet": 6244,
      "fos": 6245,
      "##çilik": 6246,
      "##rian": 6247,
      "Cad": 6248,
      "##bilim": 6249,
      "alış": 6250,
      "belirgin": 6251,
      "kampan": 6252,
      "##pt": 6253,
      "##ates": 6254,
      "##rey": 6255,
      "sıf": 6256,
      "vazgeç": 6257,
      "Özgür": 6258,
      "Kurtuluş": 6259,
      "olacaktır": 6260,
      "##ric": 6261,
      "subay": 6262,
      "Ask": 6263,
      "##tıcı": 6264,
      "je": 6265,
      "değişken": 6266,
      "çalışmalarına": 6267,
      "denklem": 6268,
      "çey": 6269,
      "##acaktır": 6270,
      "Erkekler": 6271,
      "alanları": 6272,
      "Wr": 6273,
      "gelişme": 6274,
      "güz": 6275,
      "ayrılmıştır": 6276,
      "##astik": 6277,
      "##lence": 6278,
      "Gaziante": 6279,
      "Onun": 6280,
      "ente": 6281,
      "tarihinin": 6282,
      "Gaziantep": 6283,
      "##nu": 6284,
      "##amin": 6285,
      "hattı": 6286,
      "sistemleri": 6287,
      "yükselt": 6288,
      "##ayıp": 6289,
      "yönt": 6290,
      "arke": 6291,
      "##iskop": 6292,
      "yirmi": 6293,
      "##ılarak": 6294,
      "##gam": 6295,
      "##ülür": 6296,
      "dergi": 6297,
      "CD": 6298,
      "çoğunluğu": 6299,
      "ordusunun": 6300,
      "bundan": 6301,
      "##eryal": 6302,
      "boyu": 6303,
      "özgü": 6304,
      "Mahkemesi": 6305,
      "ırk": 6306,
      "Kalesi": 6307,
      "##üllü": 6308,
      "##sini": 6309,
      "##kes": 6310,
      "değişim": 6311,
      "makam": 6312,
      "##ağında": 6313,
      "##ipp": 6314,
      "Rap": 6315,
      "gelişim": 6316,
      "Ul": 6317,
      "sözcük": 6318,
      "##dükten": 6319,
      "Kahraman": 6320,
      "##itz": 6321,
      "takımlar": 6322,
      "##likte": 6323,
      "##iki": 6324,
      "##over": 6325,
      "bölümde": 6326,
      "Buff": 6327,
      "yakıt": 6328,
      "sisteminin": 6329,
      "ma": 6330,
      "##ukur": 6331,
      "süresi": 6332,
      "açıklandı": 6333,
      "olumsuz": 6334,
      "cevap": 6335,
      "Rol": 6336,
      "önüne": 6337,
      "öncesinde": 6338,
      "Blu": 6339,
      "##unk": 6340,
      "##rağı": 6341,
      "Form": 6342,
      "##urta": 6343,
      "Nic": 6344,
      "##abilecek": 6345,
      "soruml": 6346,
      "yönetilen": 6347,
      "Fe": 6348,
      "Dün": 6349,
      "yazılmıştır": 6350,
      "göstermiştir": 6351,
      "kaydetti": 6352,
      "##gur": 6353,
      "Ca": 6354,
      "beden": 6355,
      "durumlarda": 6356,
      "fiyat": 6357,
      "##ılabilir": 6358,
      "##odoks": 6359,
      "Ekonomi": 6360,
      "##emeye": 6361,
      "artış": 6362,
      "kolon": 6363,
      "Gelen": 6364,
      "##ılmaya": 6365,
      "##opolis": 6366,
      "yazmıştır": 6367,
      "kıt": 6368,
      "Türkç": 6369,
      "##uni": 6370,
      "Angel": 6371,
      "##eceği": 6372,
      "Çar": 6373,
      "##etiyle": 6374,
      "off": 6375,
      "Yusuf": 6376,
      "kuruluşu": 6377,
      "##ome": 6378,
      "karışık": 6379,
      "##lamaz": 6380,
      "evlen": 6381,
      "Bunlardan": 6382,
      "seçilen": 6383,
      "uzanan": 6384,
      "manyetik": 6385,
      "adının": 6386,
      "ortasında": 6387,
      "##ronz": 6388,
      "birik": 6389,
      "sürüldü": 6390,
      "mercek": 6391,
      "öykü": 6392,
      "Mahalle": 6393,
      "Yal": 6394,
      "##ilerle": 6395,
      "##ks": 6396,
      "##eller": 6397,
      "Bart": 6398,
      "##likler": 6399,
      "Bern": 6400,
      "anne": 6401,
      "denilen": 6402,
      "geliştirilen": 6403,
      "Kurt": 6404,
      "Real": 6405,
      "Kazakistan": 6406,
      "nesil": 6407,
      "karıştır": 6408,
      "dayanan": 6409,
      "Cup": 6410,
      "Asker": 6411,
      "refer": 6412,
      "göreve": 6413,
      "yitir": 6414,
      "ettiğini": 6415,
      "Nec": 6416,
      "Music": 6417,
      "##idir": 6418,
      "mod": 6419,
      "person": 6420,
      "vücut": 6421,
      "ayar": 6422,
      "süreci": 6423,
      "kalır": 6424,
      "##sand": 6425,
      "olaylar": 6426,
      "TRT": 6427,
      "unvanı": 6428,
      "çekim": 6429,
      "sokak": 6430,
      "Kulübü": 6431,
      "hangi": 6432,
      "piyan": 6433,
      "inanç": 6434,
      "şov": 6435,
      "içerik": 6436,
      "gıda": 6437,
      "##eff": 6438,
      "Dis": 6439,
      "artan": 6440,
      "hasar": 6441,
      "Tes": 6442,
      "saniye": 6443,
      "hastalı": 6444,
      "Devrimi": 6445,
      "mir": 6446,
      "Kastamonu": 6447,
      "##paşa": 6448,
      "Ail": 6449,
      "kabile": 6450,
      "işletim": 6451,
      "##istler": 6452,
      "uzat": 6453,
      "Ege": 6454,
      "dayalı": 6455,
      "##aga": 6456,
      "Tatar": 6457,
      "tipik": 6458,
      "Edirne": 6459,
      "kalk": 6460,
      "karşılaştı": 6461,
      "##ayolu": 6462,
      "yaşlı": 6463,
      "Parkı": 6464,
      "çab": 6465,
      "istatistik": 6466,
      "ederler": 6467,
      "Victor": 6468,
      "Tour": 6469,
      "Üst": 6470,
      "##iyer": 6471,
      "##meli": 6472,
      "Mezar": 6473,
      "milliyet": 6474,
      "Devrim": 6475,
      "olduktan": 6476,
      "zamanla": 6477,
      "frek": 6478,
      "##üman": 6479,
      "yöntemi": 6480,
      "##isip": 6481,
      "##memiştir": 6482,
      "derecede": 6483,
      "##makla": 6484,
      "salon": 6485,
      "Ele": 6486,
      "yayımladı": 6487,
      "gelin": 6488,
      "Not": 6489,
      "solo": 6490,
      "risk": 6491,
      "##alandır": 6492,
      "Ram": 6493,
      "hakkındaki": 6494,
      "nükleer": 6495,
      "protesto": 6496,
      "çocukları": 6497,
      "Kart": 6498,
      "##lal": 6499,
      "kısmında": 6500,
      "kısmını": 6501,
      "ürünleri": 6502,
      "Day": 6503,
      "##tian": 6504,
      "Hastan": 6505,
      "Örgüt": 6506,
      "Prot": 6507,
      "Bakü": 6508,
      "köş": 6509,
      "Bankası": 6510,
      "molekül": 6511,
      "ac": 6512,
      "uzaklıkta": 6513,
      "sıklıkla": 6514,
      "nitelendir": 6515,
      "°C": 6516,
      "Konser": 6517,
      "şampiyonluğu": 6518,
      "Orhan": 6519,
      "uzunluğunda": 6520,
      "##itör": 6521,
      "aray": 6522,
      "birinin": 6523,
      "devletin": 6524,
      "##avy": 6525,
      "Ori": 6526,
      "suy": 6527,
      "otor": 6528,
      "##erken": 6529,
      "##ğuz": 6530,
      "##ûm": 6531,
      "##eten": 6532,
      "paralel": 6533,
      "aileden": 6534,
      "yapılması": 6535,
      "köpek": 6536,
      "##kia": 6537,
      "sürümü": 6538,
      "Sarayı": 6539,
      "Gram": 6540,
      "nüfusun": 6541,
      "taban": 6542,
      "Gil": 6543,
      "müşt": 6544,
      "yaşamış": 6545,
      "vücu": 6546,
      "##ömür": 6547,
      "##ağının": 6548,
      "##adağ": 6549,
      "Manisa": 6550,
      "sad": 6551,
      "##ilmişti": 6552,
      "sın": 6553,
      "##veriş": 6554,
      "Sayımı": 6555,
      "##ted": 6556,
      "gazeteci": 6557,
      "##ding": 6558,
      "Köpr": 6559,
      "mekaniz": 6560,
      "Abdullah": 6561,
      "Bütün": 6562,
      "fer": 6563,
      "arz": 6564,
      "##dün": 6565,
      "##dae": 6566,
      "##ben": 6567,
      "yansı": 6568,
      "ulaşım": 6569,
      "Gençlik": 6570,
      "##itif": 6571,
      "tarihte": 6572,
      "##uyucu": 6573,
      "##avar": 6574,
      "jür": 6575,
      "##VD": 6576,
      "kâ": 6577,
      "##batısında": 6578,
      "##okrat": 6579,
      "Görev": 6580,
      "bölgelerde": 6581,
      "okum": 6582,
      "Smith": 6583,
      "lay": 6584,
      "##zo": 6585,
      "##hel": 6586,
      "##osh": 6587,
      "çekirdek": 6588,
      "Trans": 6589,
      "Mary": 6590,
      "desteği": 6591,
      "##uc": 6592,
      "##ğla": 6593,
      "##paz": 6594,
      "##liğindeki": 6595,
      "SSCB": 6596,
      "meslek": 6597,
      "performansı": 6598,
      "öyk": 6599,
      "lak": 6600,
      "##je": 6601,
      "set": 6602,
      "yenilen": 6603,
      "şans": 6604,
      "kendilerini": 6605,
      "meyve": 6606,
      "yla": 6607,
      "Yugoslavya": 6608,
      "soya": 6609,
      "ölümüne": 6610,
      "Oğuz": 6611,
      "yerlerde": 6612,
      "şeker": 6613,
      "play": 6614,
      "biriydi": 6615,
      "yarım": 6616,
      "##AR": 6617,
      "uygulan": 6618,
      "attığı": 6619,
      "Sas": 6620,
      "başkanlık": 6621,
      "Hil": 6622,
      "ge": 6623,
      "baskın": 6624,
      "Komutanlığı": 6625,
      "##çileri": 6626,
      "Hy": 6627,
      "intih": 6628,
      "Pier": 6629,
      "##oku": 6630,
      "araba": 6631,
      "yılların": 6632,
      "##halef": 6633,
      "Şeyh": 6634,
      "Manchester": 6635,
      "potansiyel": 6636,
      "It": 6637,
      "##ıf": 6638,
      "##elin": 6639,
      "anı": 6640,
      "merkezinde": 6641,
      "mi": 6642,
      "Altı": 6643,
      "##zan": 6644,
      "tarihlerinde": 6645,
      "Intern": 6646,
      "Eyalet": 6647,
      "anim": 6648,
      "olmasını": 6649,
      "akra": 6650,
      "terimi": 6651,
      "evinde": 6652,
      "Hayat": 6653,
      "iptal": 6654,
      "anıt": 6655,
      "varlığı": 6656,
      "kısmen": 6657,
      "##iyecek": 6658,
      "Boğaz": 6659,
      "Hab": 6660,
      "Rey": 6661,
      "Web": 6662,
      "tasvir": 6663,
      "Just": 6664,
      "Zey": 6665,
      "Ortodoks": 6666,
      "##iği": 6667,
      "##emedi": 6668,
      "paket": 6669,
      "##bola": 6670,
      "##eta": 6671,
      "senary": 6672,
      "##sky": 6673,
      "Aşağıdaki": 6674,
      "Cephesi": 6675,
      "Özbek": 6676,
      "aktör": 6677,
      "karakterini": 6678,
      "##dırım": 6679,
      "aralık": 6680,
      "kuram": 6681,
      "feth": 6682,
      "##tek": 6683,
      "alet": 6684,
      "özgün": 6685,
      "##sem": 6686,
      "##antum": 6687,
      "kısaca": 6688,
      "çalışmalarını": 6689,
      "gruplar": 6690,
      "Hale": 6691,
      "konuk": 6692,
      "##laşık": 6693,
      "yağış": 6694,
      "##ado": 6695,
      "genelinde": 6696,
      "emr": 6697,
      "şarap": 6698,
      "Gümüş": 6699,
      "Lak": 6700,
      "##mara": 6701,
      "##denin": 6702,
      "Prof": 6703,
      "kasaba": 6704,
      "Fizik": 6705,
      "Ki": 6706,
      "tabanlı": 6707,
      "karısı": 6708,
      "##cılığını": 6709,
      "dergisi": 6710,
      "görünt": 6711,
      "Karl": 6712,
      "Fab": 6713,
      "ap": 6714,
      "##çılık": 6715,
      "##irli": 6716,
      "parlament": 6717,
      "büt": 6718,
      "sos": 6719,
      "mahkeme": 6720,
      "anahtar": 6721,
      "##cın": 6722,
      "##ign": 6723,
      "yapıldığı": 6724,
      "Hon": 6725,
      "koc": 6726,
      "hayal": 6727,
      "güçlendir": 6728,
      "darbe": 6729,
      "esin": 6730,
      "oyunculuk": 6731,
      "Baba": 6732,
      "büyüm": 6733,
      "bölgesinin": 6734,
      "kutsal": 6735,
      "Üs": 6736,
      "Seb": 6737,
      "##TC": 6738,
      "##langıç": 6739,
      "kabil": 6740,
      "Kariyer": 6741,
      "rady": 6742,
      "dosya": 6743,
      "arasına": 6744,
      "Hakk": 6745,
      "Mid": 6746,
      "Turnuv": 6747,
      "basınç": 6748,
      "mant": 6749,
      "çay": 6750,
      "##ville": 6751,
      "kazandığı": 6752,
      "##resi": 6753,
      "denet": 6754,
      "turda": 6755,
      "görevinden": 6756,
      "başarısı": 6757,
      "Konusu": 6758,
      "komündür": 6759,
      "tanınmış": 6760,
      "aylarında": 6761,
      "içermektedir": 6762,
      "gövde": 6763,
      "baraj": 6764,
      "tüy": 6765,
      "##iba": 6766,
      "eserler": 6767,
      "##ydu": 6768,
      "Laz": 6769,
      "##uda": 6770,
      "##ifik": 6771,
      "kanalı": 6772,
      "his": 6773,
      "##win": 6774,
      "çekilen": 6775,
      "Sef": 6776,
      "gösterilmiştir": 6777,
      "dolaş": 6778,
      "Yerel": 6779,
      "satışa": 6780,
      "Başbakan": 6781,
      "fabrik": 6782,
      "Aj": 6783,
      "tanıştı": 6784,
      "anlayış": 6785,
      "layık": 6786,
      "zehir": 6787,
      "Çeşit": 6788,
      "##omen": 6789,
      "##aten": 6790,
      "golünü": 6791,
      "Maria": 6792,
      "Hanım": 6793,
      "okun": 6794,
      "Tekn": 6795,
      "##ble": 6796,
      "görsel": 6797,
      "hızı": 6798,
      "restor": 6799,
      "ker": 6800,
      "Euro": 6801,
      "İdari": 6802,
      "##ınız": 6803,
      "çalışmıştır": 6804,
      "Harry": 6805,
      "tepe": 6806,
      "Ağa": 6807,
      "##aklar": 6808,
      "##mosfer": 6809,
      "Entertain": 6810,
      "##uf": 6811,
      "##ağan": 6812,
      "Malat": 6813,
      "Hanedanı": 6814,
      "öv": 6815,
      "insanları": 6816,
      "##ito": 6817,
      "uğram": 6818,
      "##esh": 6819,
      "She": 6820,
      "bölümünü": 6821,
      "Askeri": 6822,
      "##ımlı": 6823,
      "##kent": 6824,
      "Ses": 6825,
      "##ty": 6826,
      "##reter": 6827,
      "Uzay": 6828,
      "varlık": 6829,
      "##awa": 6830,
      "##omer": 6831,
      "##ciğer": 6832,
      "Gor": 6833,
      "sayf": 6834,
      "iyon": 6835,
      "festival": 6836,
      "tanınır": 6837,
      "yapımcı": 6838,
      "Kaynakça": 6839,
      "##ilip": 6840,
      "cumhuriyet": 6841,
      "##edildi": 6842,
      "Hel": 6843,
      "dışındaki": 6844,
      "##mini": 6845,
      "taşıma": 6846,
      "anlamı": 6847,
      "listesine": 6848,
      "##mik": 6849,
      "pir": 6850,
      "##barat": 6851,
      "##iyen": 6852,
      "yarısında": 6853,
      "##mediği": 6854,
      "kurduğu": 6855,
      "fen": 6856,
      "##cunun": 6857,
      "VII": 6858,
      "ka": 6859,
      "savaşın": 6860,
      "##ografik": 6861,
      "##oma": 6862,
      "Bob": 6863,
      "erdi": 6864,
      "lise": 6865,
      "üstünde": 6866,
      "Def": 6867,
      "det": 6868,
      "dizinin": 6869,
      "arab": 6870,
      "##şam": 6871,
      "##layacak": 6872,
      "Allah": 6873,
      "hariç": 6874,
      "dük": 6875,
      "Ark": 6876,
      "ith": 6877,
      "insanın": 6878,
      "Medi": 6879,
      "Albümün": 6880,
      "Papa": 6881,
      "sırt": 6882,
      "Dre": 6883,
      "##eddin": 6884,
      "##iner": 6885,
      "Bunu": 6886,
      "Entertainment": 6887,
      "Köyü": 6888,
      "##muştu": 6889,
      "kaybol": 6890,
      "uydu": 6891,
      "##ios": 6892,
      "Teş": 6893,
      "##aze": 6894,
      "kendilerine": 6895,
      "dağılımı": 6896,
      "alanlarda": 6897,
      "hastalığı": 6898,
      "başlattı": 6899,
      "##ept": 6900,
      "katılımcı": 6901,
      "##lege": 6902,
      "##lamalar": 6903,
      "kişilerin": 6904,
      "geliştirme": 6905,
      "anti": 6906,
      "##adet": 6907,
      "dolu": 6908,
      "Kum": 6909,
      "Bilimler": 6910,
      "##pat": 6911,
      "olmaktadır": 6912,
      "başvur": 6913,
      "yenerek": 6914,
      "avukat": 6915,
      "küme": 6916,
      "bulur": 6917,
      "demiryolu": 6918,
      "yerleşti": 6919,
      "Çoğu": 6920,
      "##lacağı": 6921,
      "akademik": 6922,
      "##isiz": 6923,
      "Dam": 6924,
      "Arka": 6925,
      "nih": 6926,
      "Komünün": 6927,
      "Yapım": 6928,
      "felsefe": 6929,
      "Sadece": 6930,
      "doğa": 6931,
      "doğrult": 6932,
      "Lad": 6933,
      "Sib": 6934,
      "Yav": 6935,
      "suik": 6936,
      "BM": 6937,
      "anlatır": 6938,
      "lib": 6939,
      "##düz": 6940,
      "Doğan": 6941,
      "Bran": 6942,
      "işçi": 6943,
      "##par": 6944,
      "ayı": 6945,
      "sığın": 6946,
      "kazı": 6947,
      "görülmüştür": 6948,
      "Sic": 6949,
      "özellikler": 6950,
      "##laştırma": 6951,
      "Ertesi": 6952,
      "kazanarak": 6953,
      "Oda": 6954,
      "ekonomi": 6955,
      "##irken": 6956,
      "EP": 6957,
      "meydan": 6958,
      "kaleme": 6959,
      "tüf": 6960,
      "kalit": 6961,
      "##besi": 6962,
      "##mat": 6963,
      "##mud": 6964,
      "Prix": 6965,
      "yenilg": 6966,
      "Buffy": 6967,
      "Motor": 6968,
      "doğmuştur": 6969,
      "opera": 6970,
      "Post": 6971,
      "takımda": 6972,
      "##cht": 6973,
      "otomatik": 6974,
      "Jim": 6975,
      "##ezer": 6976,
      "Eleştir": 6977,
      "dönen": 6978,
      "stadyum": 6979,
      "##luğun": 6980,
      "sunucu": 6981,
      "Fen": 6982,
      "erkekler": 6983,
      "ilerle": 6984,
      "evrim": 6985,
      "inceleme": 6986,
      "statüsü": 6987,
      "belde": 6988,
      "##doğusunda": 6989,
      "itir": 6990,
      "koleksiyon": 6991,
      "mevki": 6992,
      "Zelanda": 6993,
      "Pi": 6994,
      "sayılabilir": 6995,
      "##mun": 6996,
      "mümkündür": 6997,
      "yürür": 6998,
      "füz": 6999,
      "Çat": 7000,
      "koyu": 7001,
      "Kosova": 7002,
      "##kınma": 7003,
      "sebebi": 7004,
      "##bor": 7005,
      "Champ": 7006,
      "bölgesel": 7007,
      "Kes": 7008,
      "Bağımsız": 7009,
      "Tro": 7010,
      "Kel": 7011,
      "vil": 7012,
      "etkileri": 7013,
      "sıkı": 7014,
      "kemik": 7015,
      "Böyle": 7016,
      "##ings": 7017,
      "tanış": 7018,
      "işe": 7019,
      "kaldığı": 7020,
      "getiren": 7021,
      "gördüğü": 7022,
      "tanr": 7023,
      "##ope": 7024,
      "danışman": 7025,
      "##cileri": 7026,
      "dür": 7027,
      "nitelik": 7028,
      "alana": 7029,
      "piş": 7030,
      "##esiydi": 7031,
      "doktora": 7032,
      "Komisyonu": 7033,
      "başlangıçta": 7034,
      "ölen": 7035,
      "yüks": 7036,
      "hazırlanan": 7037,
      "##ref": 7038,
      "##lastik": 7039,
      "##erg": 7040,
      "Ep": 7041,
      "##tra": 7042,
      "Başlangıç": 7043,
      "##yer": 7044,
      "##VID": 7045,
      "ep": 7046,
      "kristal": 7047,
      "##ua": 7048,
      "yardımıyla": 7049,
      "şimdi": 7050,
      "zih": 7051,
      "sig": 7052,
      "şarkıyı": 7053,
      "müttefik": 7054,
      "takıma": 7055,
      "kıyas": 7056,
      "kitabında": 7057,
      "şampiyonluk": 7058,
      "kahver": 7059,
      "##ular": 7060,
      "formasını": 7061,
      "bağlantılı": 7062,
      "ir": 7063,
      "kontrolü": 7064,
      "##çilerin": 7065,
      "kanser": 7066,
      "servis": 7067,
      "kapsayan": 7068,
      "Koz": 7069,
      "yumuş": 7070,
      "Baz": 7071,
      "Lüb": 7072,
      "##ardı": 7073,
      "Federal": 7074,
      "Soy": 7075,
      "maliyet": 7076,
      "reh": 7077,
      "Hizmet": 7078,
      "kalmış": 7079,
      "Tokyo": 7080,
      "Özellik": 7081,
      "##edek": 7082,
      "##lamaları": 7083,
      "bulut": 7084,
      "vek": 7085,
      "işbirliği": 7086,
      "dönemlerde": 7087,
      "karşılan": 7088,
      "atlet": 7089,
      "##ysa": 7090,
      "##zığ": 7091,
      "Fas": 7092,
      "##tak": 7093,
      "##usundaki": 7094,
      "bulunmaktaydı": 7095,
      "bisiklet": 7096,
      "Ekonom": 7097,
      "altıncı": 7098,
      "bölgedeki": 7099,
      "köyünde": 7100,
      "yaşamını": 7101,
      "##edinci": 7102,
      "mülk": 7103,
      "Pazar": 7104,
      "çağır": 7105,
      "göçmen": 7106,
      "##oper": 7107,
      "tekni": 7108,
      "bo": 7109,
      "rakam": 7110,
      "Bra": 7111,
      "başlayarak": 7112,
      "dilleri": 7113,
      "Pir": 7114,
      "Dük": 7115,
      "dom": 7116,
      "yapılacak": 7117,
      "yaptıkları": 7118,
      "##ileş": 7119,
      "kaptan": 7120,
      "bileşen": 7121,
      "sip": 7122,
      "##asız": 7123,
      "Münih": 7124,
      "th": 7125,
      "##roid": 7126,
      "Belediyespor": 7127,
      "Lor": 7128,
      "##türk": 7129,
      "koz": 7130,
      "##ihan": 7131,
      "kişiden": 7132,
      "mezunudur": 7133,
      "Daniel": 7134,
      "Yılmaz": 7135,
      "ölçek": 7136,
      "oluşturmak": 7137,
      "boyutlu": 7138,
      "Sta": 7139,
      "sömür": 7140,
      "##heim": 7141,
      "çıkardığı": 7142,
      "Silahlı": 7143,
      "Mahallenin": 7144,
      "dilinde": 7145,
      "COVID": 7146,
      "oksi": 7147,
      "kopya": 7148,
      "Ten": 7149,
      "Çam": 7150,
      "Yaklaşık": 7151,
      "halen": 7152,
      "Yaşam": 7153,
      "Sing": 7154,
      "Çele": 7155,
      "##aport": 7156,
      "Şim": 7157,
      "rolünü": 7158,
      "##ote": 7159,
      "Asyalı": 7160,
      "öğrencisi": 7161,
      "teorisi": 7162,
      "dakikada": 7163,
      "##kal": 7164,
      "bronz": 7165,
      "söylen": 7166,
      "##yle": 7167,
      "yetersiz": 7168,
      "Ebu": 7169,
      "ligde": 7170,
      "İşçi": 7171,
      "Fr": 7172,
      "dey": 7173,
      "##fe": 7174,
      "##çının": 7175,
      "##well": 7176,
      "Nokia": 7177,
      "##cinsel": 7178,
      "yakalan": 7179,
      "bölgelerinde": 7180,
      "yarışması": 7181,
      "best": 7182,
      "Öğren": 7183,
      "imkân": 7184,
      "vergi": 7185,
      "Kütah": 7186,
      "lu": 7187,
      "Kanal": 7188,
      "çözün": 7189,
      "##ozof": 7190,
      "birini": 7191,
      "yerinde": 7192,
      "arkadaşları": 7193,
      "Live": 7194,
      "##ower": 7195,
      "Ron": 7196,
      "eğilim": 7197,
      "voleybol": 7198,
      "Univers": 7199,
      "Viet": 7200,
      "Büyükelç": 7201,
      "grafik": 7202,
      "bulgu": 7203,
      "tıb": 7204,
      "##yaspor": 7205,
      "##tron": 7206,
      "okulu": 7207,
      "IS": 7208,
      "Afganistan": 7209,
      "##hisar": 7210,
      "##alif": 7211,
      "albümüdür": 7212,
      "##eceğini": 7213,
      "##maması": 7214,
      "zorunlu": 7215,
      "bol": 7216,
      "ilçedir": 7217,
      "sığ": 7218,
      "duygu": 7219,
      "Televizyon": 7220,
      "Um": 7221,
      "##ail": 7222,
      "hizmete": 7223,
      "##veti": 7224,
      "arasındadır": 7225,
      "sabah": 7226,
      "Fried": 7227,
      "avan": 7228,
      "Pla": 7229,
      "##ılıyor": 7230,
      "sorgu": 7231,
      "dava": 7232,
      "Ceza": 7233,
      "komutasındaki": 7234,
      "Nak": 7235,
      "sıradan": 7236,
      "ittifak": 7237,
      "##anus": 7238,
      "Sakarya": 7239,
      "eğlence": 7240,
      "##sinin": 7241,
      "Johan": 7242,
      "disip": 7243,
      "Sus": 7244,
      "##stein": 7245,
      "Üniversite": 7246,
      "uyan": 7247,
      "##une": 7248,
      "halkının": 7249,
      "##vel": 7250,
      "cinsiyet": 7251,
      "uzunluğu": 7252,
      "##imet": 7253,
      "Kafkasya": 7254,
      "varlığını": 7255,
      "Matt": 7256,
      "gösterdiği": 7257,
      "oyuncular": 7258,
      "dalg": 7259,
      "##indir": 7260,
      "yapımcısı": 7261,
      "oluşturmaktadır": 7262,
      "başlanmıştır": 7263,
      "başladılar": 7264,
      "Demografi": 7265,
      "karşıya": 7266,
      "gökada": 7267,
      "Buz": 7268,
      "Premi": 7269,
      "Pin": 7270,
      "ilham": 7271,
      "sağlamıştır": 7272,
      "muhalef": 7273,
      "Sel": 7274,
      "kıl": 7275,
      "Marmara": 7276,
      "blok": 7277,
      "beğen": 7278,
      "yüzölç": 7279,
      "haft": 7280,
      "sendrom": 7281,
      "Hum": 7282,
      "ulaşan": 7283,
      "Nüfusu": 7284,
      "##gâr": 7285,
      "Trabzonspor": 7286,
      "işletme": 7287,
      "savaşa": 7288,
      "Mağ": 7289,
      "Nov": 7290,
      "tepki": 7291,
      "Kurumu": 7292,
      "port": 7293,
      "Yarımada": 7294,
      "imparatorluk": 7295,
      "spek": 7296,
      "Bölg": 7297,
      "##ico": 7298,
      "değiştirildi": 7299,
      "##izmin": 7300,
      "şarkıları": 7301,
      "Sinan": 7302,
      "örneği": 7303,
      "##lendirme": 7304,
      "eşya": 7305,
      "çağdaş": 7306,
      "değerli": 7307,
      "kimya": 7308,
      "##şev": 7309,
      "##osa": 7310,
      "ceph": 7311,
      "intihar": 7312,
      "kaynakları": 7313,
      "##razam": 7314,
      "kitle": 7315,
      "organize": 7316,
      "demek": 7317,
      "olacağını": 7318,
      "reaksiyon": 7319,
      "Win": 7320,
      "ondan": 7321,
      "mis": 7322,
      "Gab": 7323,
      "Nar": 7324,
      "##ão": 7325,
      "ülkesi": 7326,
      "Dor": 7327,
      "yiyecek": 7328,
      "sundu": 7329,
      "Gençler": 7330,
      "Temsil": 7331,
      "##ğeri": 7332,
      "konferans": 7333,
      "yumurta": 7334,
      "mük": 7335,
      "komünist": 7336,
      "BA": 7337,
      "##log": 7338,
      "Güç": 7339,
      "Ann": 7340,
      "memur": 7341,
      "mimari": 7342,
      "iyileştir": 7343,
      "Organ": 7344,
      "gerçekleştirildi": 7345,
      "Hac": 7346,
      "Çelebi": 7347,
      "gösterime": 7348,
      "aylık": 7349,
      "##idge": 7350,
      "başı": 7351,
      "katılma": 7352,
      "Uç": 7353,
      "##ugh": 7354,
      "yükselen": 7355,
      "kadınların": 7356,
      "cephe": 7357,
      "yanıt": 7358,
      "##ges": 7359,
      "vererek": 7360,
      "Tarım": 7361,
      "Amatör": 7362,
      "rok": 7363,
      "kullanılması": 7364,
      "müdahale": 7365,
      "Nobel": 7366,
      "karşıtı": 7367,
      "coğrafi": 7368,
      "oğl": 7369,
      "deneme": 7370,
      "##ğuna": 7371,
      "kurtul": 7372,
      "düşen": 7373,
      "##ago": 7374,
      "düzenlendi": 7375,
      "toprakları": 7376,
      "albümünü": 7377,
      "Bi": 7378,
      "Ov": 7379,
      "eyaletinin": 7380,
      "Riv": 7381,
      "##siy": 7382,
      "Anne": 7383,
      "cilt": 7384,
      "Chica": 7385,
      "Konstantinopolis": 7386,
      "teker": 7387,
      "van": 7388,
      "ağırlıklı": 7389,
      "Albert": 7390,
      "gönderdi": 7391,
      "Koç": 7392,
      "Uygu": 7393,
      "stil": 7394,
      "rekabet": 7395,
      "teknoloji": 7396,
      "##ikat": 7397,
      "girer": 7398,
      "##tikten": 7399,
      "Abbas": 7400,
      "Pasifik": 7401,
      "Les": 7402,
      "Ela": 7403,
      "pr": 7404,
      "komplek": 7405,
      "görünüm": 7406,
      "Muhaf": 7407,
      "Pakistan": 7408,
      "istek": 7409,
      "Radyo": 7410,
      "##hak": 7411,
      "##şap": 7412,
      "duruma": 7413,
      "fet": 7414,
      "hayata": 7415,
      "Filip": 7416,
      "site": 7417,
      "çeken": 7418,
      "müze": 7419,
      "sözleri": 7420,
      "##abeth": 7421,
      "zam": 7422,
      "taraftar": 7423,
      "çalıştığı": 7424,
      "onunla": 7425,
      "cinayet": 7426,
      "##öğretim": 7427,
      "##wig": 7428,
      "devleti": 7429,
      "manastır": 7430,
      "kade": 7431,
      "Sanayi": 7432,
      "##tt": 7433,
      "##abilmektedir": 7434,
      "istik": 7435,
      "Chicago": 7436,
      "##lob": 7437,
      "keşif": 7438,
      "Tut": 7439,
      "ayrılan": 7440,
      "üste": 7441,
      "##sis": 7442,
      "gösteri": 7443,
      "katman": 7444,
      "hâl": 7445,
      "Niş": 7446,
      "Yazı": 7447,
      "yönetiminde": 7448,
      "alınarak": 7449,
      "İskoçya": 7450,
      "##TP": 7451,
      "##olk": 7452,
      "sayfa": 7453,
      "senarist": 7454,
      "##sus": 7455,
      "yönel": 7456,
      "araştırmalar": 7457,
      "sonraları": 7458,
      "Tokat": 7459,
      "değişikliğinden": 7460,
      "##uya": 7461,
      "konuda": 7462,
      "Hırvatistan": 7463,
      "Gra": 7464,
      "##hol": 7465,
      "edilerek": 7466,
      "anılan": 7467,
      "Kars": 7468,
      "##edeki": 7469,
      "ülkelerin": 7470,
      "##gn": 7471,
      "olasılık": 7472,
      "olsun": 7473,
      "koordin": 7474,
      "Çık": 7475,
      "Seçim": 7476,
      "##row": 7477,
      "Dok": 7478,
      "açılış": 7479,
      "köylü": 7480,
      "sakin": 7481,
      "##ase": 7482,
      "gerekç": 7483,
      "şehrinin": 7484,
      "olmuştu": 7485,
      "ölü": 7486,
      "Club": 7487,
      "Şarkının": 7488,
      "Sof": 7489,
      "eleman": 7490,
      "güçleri": 7491,
      "Williams": 7492,
      "Dik": 7493,
      "alacak": 7494,
      "##şiv": 7495,
      "##asya": 7496,
      "öngör": 7497,
      "kamera": 7498,
      "##ezya": 7499,
      "OS": 7500,
      "beyin": 7501,
      "##gir": 7502,
      "belgesel": 7503,
      "bırakıldı": 7504,
      "Halil": 7505,
      "Küb": 7506,
      "##nel": 7507,
      "alıp": 7508,
      "DVD": 7509,
      "terör": 7510,
      "ayrılarak": 7511,
      "savaşta": 7512,
      "albümde": 7513,
      "Dol": 7514,
      "buluş": 7515,
      "pozitif": 7516,
      "Berk": 7517,
      "Rev": 7518,
      "##usya": 7519,
      "##ibe": 7520,
      "##utbola": 7521,
      "vermeye": 7522,
      "ayrım": 7523,
      "##eck": 7524,
      "köprü": 7525,
      "beklen": 7526,
      "Compan": 7527,
      "posta": 7528,
      "yaşındaki": 7529,
      "Hir": 7530,
      "müzikal": 7531,
      "Kütahya": 7532,
      "arama": 7533,
      "##ilmesiyle": 7534,
      "ikna": 7535,
      "kısalt": 7536,
      "Mol": 7537,
      "dizide": 7538,
      "albümleri": 7539,
      "Lenin": 7540,
      "atmosfer": 7541,
      "Inter": 7542,
      "##imal": 7543,
      "bakan": 7544,
      "senaryo": 7545,
      "cüm": 7546,
      "kapan": 7547,
      "vad": 7548,
      "İbran": 7549,
      "VI": 7550,
      "çam": 7551,
      "toplama": 7552,
      "resmen": 7553,
      "dersleri": 7554,
      "##lot": 7555,
      "doğrultusunda": 7556,
      "endi": 7557,
      "cemaat": 7558,
      "US": 7559,
      "##grad": 7560,
      "Olay": 7561,
      "##onyalı": 7562,
      "kola": 7563,
      "mahkûm": 7564,
      "şub": 7565,
      "olası": 7566,
      "algı": 7567,
      "Çağı": 7568,
      "##mond": 7569,
      "##cer": 7570,
      "##ılmaz": 7571,
      "Altay": 7572,
      "zamana": 7573,
      "Toprak": 7574,
      "Dub": 7575,
      "oldular": 7576,
      "##dim": 7577,
      "Vietnam": 7578,
      "FA": 7579,
      "Fred": 7580,
      "##akları": 7581,
      "İnternet": 7582,
      "Grubun": 7583,
      "sayede": 7584,
      "Haw": 7585,
      "elektro": 7586,
      "direniş": 7587,
      "##ıklı": 7588,
      "Meg": 7589,
      "Alf": 7590,
      "evli": 7591,
      "ikiye": 7592,
      "Stalin": 7593,
      "##rü": 7594,
      "Green": 7595,
      "Helen": 7596,
      "##con": 7597,
      "##ülmüş": 7598,
      "frekans": 7599,
      "maçın": 7600,
      "maden": 7601,
      "Rah": 7602,
      "Kocaeli": 7603,
      "##aboratuvar": 7604,
      "Nil": 7605,
      "açılmıştır": 7606,
      "kavramı": 7607,
      "makin": 7608,
      "NAT": 7609,
      "##diki": 7610,
      "Tel": 7611,
      "takdir": 7612,
      "seçimi": 7613,
      "geomet": 7614,
      "fikr": 7615,
      "##ülmektedir": 7616,
      "tarihindeki": 7617,
      "İm": 7618,
      "##ect": 7619,
      "tasarımı": 7620,
      "Şanlı": 7621,
      "##üphane": 7622,
      "forvet": 7623,
      "olayları": 7624,
      "Örnek": 7625,
      "tatlı": 7626,
      "Vadisi": 7627,
      "hab": 7628,
      "kaçın": 7629,
      "yüzyıldan": 7630,
      "Vlad": 7631,
      "##ecer": 7632,
      "isimler": 7633,
      "Bağdat": 7634,
      "Mans": 7635,
      "kolu": 7636,
      "##unus": 7637,
      "##itre": 7638,
      "so": 7639,
      "##demir": 7640,
      "##asi": 7641,
      "taşır": 7642,
      "cen": 7643,
      "ertesi": 7644,
      "sorunları": 7645,
      "Hür": 7646,
      "familyasından": 7647,
      "sıfır": 7648,
      "Hill": 7649,
      "Tev": 7650,
      "##ardo": 7651,
      "Erdoğan": 7652,
      "yürüttü": 7653,
      "düzeyde": 7654,
      "şirketin": 7655,
      "##usunu": 7656,
      "##luğuna": 7657,
      "##das": 7658,
      "##ebilecek": 7659,
      "belirtir": 7660,
      "##yl": 7661,
      "Siyasi": 7662,
      "satan": 7663,
      "kelimesi": 7664,
      "bireysel": 7665,
      "akademisyen": 7666,
      "Körfezi": 7667,
      "statüs": 7668,
      "Android": 7669,
      "Türkler": 7670,
      "Kongresi": 7671,
      "had": 7672,
      "şekli": 7673,
      "tabak": 7674,
      "söylemiştir": 7675,
      "vide": 7676,
      "##AM": 7677,
      "gerilim": 7678,
      "##kestr": 7679,
      "nef": 7680,
      "kıya": 7681,
      "Hu": 7682,
      "##ikler": 7683,
      "ağırlık": 7684,
      "gemisi": 7685,
      "olağan": 7686,
      "##ayeti": 7687,
      "##diz": 7688,
      "##masıdır": 7689,
      "##ET": 7690,
      "programında": 7691,
      "August": 7692,
      "oranda": 7693,
      "bulan": 7694,
      "International": 7695,
      "işlemi": 7696,
      "filmleri": 7697,
      "geçerli": 7698,
      "mitoloj": 7699,
      "tarihine": 7700,
      "##izmi": 7701,
      "şiddetli": 7702,
      "Klasik": 7703,
      "pey": 7704,
      "oyunları": 7705,
      "Koleji": 7706,
      "##ülmesi": 7707,
      "##ria": 7708,
      "binlerce": 7709,
      "harekete": 7710,
      "Yardımcısı": 7711,
      "Ulu": 7712,
      "ray": 7713,
      "##iliyor": 7714,
      "deprem": 7715,
      "Raw": 7716,
      "##iğ": 7717,
      "Karadağ": 7718,
      "##pen": 7719,
      "şüph": 7720,
      "karanlık": 7721,
      "##opa": 7722,
      "Sanatlar": 7723,
      "Sub": 7724,
      "amatör": 7725,
      "Cemiyeti": 7726,
      "##leye": 7727,
      "##luğa": 7728,
      "yel": 7729,
      "parçaları": 7730,
      "Kub": 7731,
      "##uyan": 7732,
      "Pav": 7733,
      "##gia": 7734,
      "uygulam": 7735,
      "cer": 7736,
      "##oph": 7737,
      "çalışmaktadır": 7738,
      "yarışı": 7739,
      "valisi": 7740,
      "Alexander": 7741,
      "arazi": 7742,
      "Emin": 7743,
      "Clar": 7744,
      "nisp": 7745,
      "##ederasyon": 7746,
      "aya": 7747,
      "Theod": 7748,
      "gücünü": 7749,
      "CE": 7750,
      "Jer": 7751,
      "Konu": 7752,
      "bayrak": 7753,
      "inf": 7754,
      "Özerk": 7755,
      "Santa": 7756,
      "vefat": 7757,
      "döner": 7758,
      "##estra": 7759,
      "Devletler": 7760,
      "parçasıdır": 7761,
      "padişah": 7762,
      "yetişkin": 7763,
      "Hun": 7764,
      "Yağ": 7765,
      "Sanatçı": 7766,
      "Sum": 7767,
      "Malatya": 7768,
      "müsabaka": 7769,
      "arasından": 7770,
      "##ento": 7771,
      "kalıcı": 7772,
      "açıkça": 7773,
      "uçağı": 7774,
      "projesi": 7775,
      "genetik": 7776,
      "Kamp": 7777,
      "##siye": 7778,
      "Studi": 7779,
      "Hersek": 7780,
      "Çeşitli": 7781,
      "##mekle": 7782,
      "Avrupalı": 7783,
      "##uzu": 7784,
      "Company": 7785,
      "sınav": 7786,
      "şiş": 7787,
      "görünür": 7788,
      "turizm": 7789,
      "##ool": 7790,
      "olayı": 7791,
      "Camp": 7792,
      "Vas": 7793,
      "##ıntılı": 7794,
      "Kadı": 7795,
      "##aşır": 7796,
      "İmparatorluk": 7797,
      "hanedan": 7798,
      "##ct": 7799,
      "##şak": 7800,
      "Royal": 7801,
      "##ekim": 7802,
      "bulunmuş": 7803,
      "ortalarında": 7804,
      "Som": 7805,
      "unut": 7806,
      "düzenlen": 7807,
      "gec": 7808,
      "##ahisar": 7809,
      "Karay": 7810,
      "Teksas": 7811,
      "Afrikan": 7812,
      "IP": 7813,
      "Suudi": 7814,
      "penc": 7815,
      "soruştur": 7816,
      "Yıldırım": 7817,
      "##cası": 7818,
      "List": 7819,
      "##bahar": 7820,
      "Cezay": 7821,
      "Sınıf": 7822,
      "Çak": 7823,
      "##üğü": 7824,
      "##reteri": 7825,
      "##larus": 7826,
      "görülebilir": 7827,
      "##yıla": 7828,
      "köyde": 7829,
      "Pot": 7830,
      "Trak": 7831,
      "gidi": 7832,
      "anlatan": 7833,
      "kahverengi": 7834,
      "vermiş": 7835,
      "filmler": 7836,
      "##lyası": 7837,
      "acı": 7838,
      "Temel": 7839,
      "tayin": 7840,
      "detay": 7841,
      "Cy": 7842,
      "##acı": 7843,
      "İstatistik": 7844,
      "##lüğünde": 7845,
      "Cev": 7846,
      "olmasından": 7847,
      "üstlenmiştir": 7848,
      "Bes": 7849,
      "Yarışma": 7850,
      "kültürü": 7851,
      "Holly": 7852,
      "Brown": 7853,
      "kesi": 7854,
      "peş": 7855,
      "eşcinsel": 7856,
      "birbirinden": 7857,
      "İmparatoru": 7858,
      "tabi": 7859,
      "kriz": 7860,
      "##gız": 7861,
      "Oğ": 7862,
      "##ses": 7863,
      "##zat": 7864,
      "Alas": 7865,
      "ödüllendir": 7866,
      "köpr": 7867,
      "Champion": 7868,
      "uygulaması": 7869,
      "##elerek": 7870,
      "gelene": 7871,
      "##radan": 7872,
      "albümünde": 7873,
      "Cha": 7874,
      "##sında": 7875,
      "hakimiyet": 7876,
      "##ülte": 7877,
      "ilerleyen": 7878,
      "avantaj": 7879,
      "bank": 7880,
      "yav": 7881,
      "National": 7882,
      "filozof": 7883,
      "tarif": 7884,
      "Sinema": 7885,
      "Üyeliği": 7886,
      "##abi": 7887,
      "Arabistan": 7888,
      "temas": 7889,
      "Metal": 7890,
      "Ky": 7891,
      "Vat": 7892,
      "##apı": 7893,
      "gerçekleştirdi": 7894,
      "##rasi": 7895,
      "Şanlıur": 7896,
      "fabrika": 7897,
      "Lübnan": 7898,
      "##etler": 7899,
      "giymektedir": 7900,
      "##oza": 7901,
      "bölgeleri": 7902,
      "binası": 7903,
      "Orman": 7904,
      "Erzin": 7905,
      "Öğret": 7906,
      "NATO": 7907,
      "##ilmez": 7908,
      "Gelenek": 7909,
      "Soğ": 7910,
      "element": 7911,
      "şarkılar": 7912,
      "kanalında": 7913,
      "iP": 7914,
      "uyum": 7915,
      "sistemin": 7916,
      "korku": 7917,
      "##azz": 7918,
      "hepsi": 7919,
      "NA": 7920,
      "gerekçesiyle": 7921,
      "sözcüğü": 7922,
      "Dair": 7923,
      "Kaya": 7924,
      "komutan": 7925,
      "Mekte": 7926,
      "BBC": 7927,
      "besteci": 7928,
      "##ikleri": 7929,
      "edebilir": 7930,
      "##vey": 7931,
      "kurban": 7932,
      "Kırgız": 7933,
      "##lüğüne": 7934,
      "çeyrek": 7935,
      "##edral": 7936,
      "alması": 7937,
      "tarihçi": 7938,
      "CHP": 7939,
      "Slav": 7940,
      "##ball": 7941,
      "Nin": 7942,
      "kapsamlı": 7943,
      "Up": 7944,
      "kuyruk": 7945,
      "bağlam": 7946,
      "Fal": 7947,
      "lük": 7948,
      "Manastır": 7949,
      "turnuva": 7950,
      "partinin": 7951,
      "lık": 7952,
      "##lamı": 7953,
      "atmıştır": 7954,
      "Pic": 7955,
      "##âtı": 7956,
      "##ello": 7957,
      "netic": 7958,
      "##inen": 7959,
      "Çorum": 7960,
      "eb": 7961,
      "Prin": 7962,
      "ücretsiz": 7963,
      "##tanın": 7964,
      "Belarus": 7965,
      "İktis": 7966,
      "sonlarına": 7967,
      "sosyalist": 7968,
      "grupları": 7969,
      "Topluluğu": 7970,
      "Şili": 7971,
      "##sinde": 7972,
      "kaybed": 7973,
      "yakınlarındaki": 7974,
      "##ürken": 7975,
      "fırlat": 7976,
      "Liga": 7977,
      "##kaya": 7978,
      "yoğunluğu": 7979,
      "##agan": 7980,
      "##ship": 7981,
      "ilçesinin": 7982,
      "değişen": 7983,
      "konumunda": 7984,
      "##guay": 7985,
      "Tib": 7986,
      "yor": 7987,
      "istasyonu": 7988,
      "Gem": 7989,
      "Ülke": 7990,
      "AK": 7991,
      "Nij": 7992,
      "Ru": 7993,
      "##gini": 7994,
      "İşlet": 7995,
      "##arl": 7996,
      "##diklerini": 7997,
      "ölçüm": 7998,
      "Hein": 7999,
      "canlandırdığı": 8000,
      "mor": 8001,
      "bilgileri": 8002,
      "kuv": 8003,
      "Jones": 8004,
      "Örgütü": 8005,
      "Haber": 8006,
      "zincir": 8007,
      "##rum": 8008,
      "Indi": 8009,
      "Tasar": 8010,
      "kullanıldığı": 8011,
      "kişiye": 8012,
      "albümünün": 8013,
      "##öval": 8014,
      "şeyi": 8015,
      "ahşap": 8016,
      "Kâ": 8017,
      "##MS": 8018,
      "Eliz": 8019,
      "azın": 8020,
      "anlaşmaz": 8021,
      "Lar": 8022,
      "##amaç": 8023,
      "##ovan": 8024,
      "İçişleri": 8025,
      "etmeyi": 8026,
      "kullanılmaya": 8027,
      "okyan": 8028,
      "puanla": 8029,
      "mutf": 8030,
      "hizmeti": 8031,
      "savunu": 8032,
      "mutlak": 8033,
      "karşılıklı": 8034,
      "##çuk": 8035,
      "Çerkes": 8036,
      "##ebilen": 8037,
      "format": 8038,
      "Konservat": 8039,
      "##olitik": 8040,
      "üyeli": 8041,
      "##ecilik": 8042,
      "marka": 8043,
      "insanı": 8044,
      "Zir": 8045,
      "##IA": 8046,
      "##imir": 8047,
      "term": 8048,
      "yansıt": 8049,
      "Baraj": 8050,
      "##yat": 8051,
      "uygulamaları": 8052,
      "devir": 8053,
      "biçimi": 8054,
      "bağımsızlık": 8055,
      "##eda": 8056,
      "##oğulları": 8057,
      "gereği": 8058,
      "##onlar": 8059,
      "Florida": 8060,
      "sözü": 8061,
      "pasaport": 8062,
      "şifre": 8063,
      "Bru": 8064,
      "yaparken": 8065,
      "##pool": 8066,
      "##lıyor": 8067,
      "kub": 8068,
      "##his": 8069,
      "##azak": 8070,
      "Anna": 8071,
      "yaşamak": 8072,
      "##gamber": 8073,
      "##sit": 8074,
      "Norman": 8075,
      "Dig": 8076,
      "Hâ": 8077,
      "İspanyolca": 8078,
      "çekirde": 8079,
      "##ilyalı": 8080,
      "bulunuyordu": 8081,
      "gösterilen": 8082,
      "##SK": 8083,
      "##ESC": 8084,
      "yüzyıla": 8085,
      "sunuldu": 8086,
      "Kılıç": 8087,
      "##urlu": 8088,
      "Hik": 8089,
      "##ansa": 8090,
      "akars": 8091,
      "##anlığına": 8092,
      "sınırı": 8093,
      "##esun": 8094,
      "##ous": 8095,
      "verim": 8096,
      "##adık": 8097,
      "Tapın": 8098,
      "dikkate": 8099,
      "Carl": 8100,
      "bağımsızlığını": 8101,
      "Ec": 8102,
      "Wood": 8103,
      "Birlik": 8104,
      "alab": 8105,
      "toz": 8106,
      "Karşı": 8107,
      "American": 8108,
      "işi": 8109,
      "suikast": 8110,
      "##enos": 8111,
      "yaralan": 8112,
      "Stre": 8113,
      "mekanik": 8114,
      "Şeri": 8115,
      "##cal": 8116,
      "##üye": 8117,
      "Okyanusu": 8118,
      "geriye": 8119,
      "Saat": 8120,
      "anlamında": 8121,
      "Gön": 8122,
      "süreçte": 8123,
      "##nin": 8124,
      "materyal": 8125,
      "deneyim": 8126,
      "Bölgesel": 8127,
      "Grammy": 8128,
      "Leh": 8129,
      "##eton": 8130,
      "Karaman": 8131,
      "Şiir": 8132,
      "##raj": 8133,
      "dayanmaktadır": 8134,
      "alkol": 8135,
      "##diye": 8136,
      "##FC": 8137,
      "oyuna": 8138,
      "bellek": 8139,
      "Mahmud": 8140,
      "virüs": 8141,
      "Voleybol": 8142,
      "sonsuz": 8143,
      "ayaklanma": 8144,
      "ekib": 8145,
      "Para": 8146,
      "Tol": 8147,
      "dönüşüm": 8148,
      "Jeff": 8149,
      "##ason": 8150,
      "general": 8151,
      "filminin": 8152,
      "görüşme": 8153,
      "Ortak": 8154,
      "bez": 8155,
      "##pson": 8156,
      "Birkaç": 8157,
      "önemlidir": 8158,
      "Serbest": 8159,
      "Friedrich": 8160,
      "##osen": 8161,
      "Afyon": 8162,
      "eyaletine": 8163,
      "Philip": 8164,
      "bebek": 8165,
      "##celi": 8166,
      "##embe": 8167,
      "Cast": 8168,
      "Gol": 8169,
      "Law": 8170,
      "Night": 8171,
      "protokol": 8172,
      "üyeliği": 8173,
      "spons": 8174,
      "meşhur": 8175,
      "reddetti": 8176,
      "çıkarak": 8177,
      "Erzincan": 8178,
      "pul": 8179,
      "öncü": 8180,
      "atıf": 8181,
      "##rut": 8182,
      "Uygur": 8183,
      "##emmel": 8184,
      "ağız": 8185,
      "Scott": 8186,
      "ust": 8187,
      "God": 8188,
      "Yoz": 8189,
      "gelerek": 8190,
      "Pierre": 8191,
      "##zim": 8192,
      "gönüllü": 8193,
      "##uck": 8194,
      "##ques": 8195,
      "##oo": 8196,
      "katılmış": 8197,
      "kazanmış": 8198,
      "##gs": 8199,
      "Way": 8200,
      "##oka": 8201,
      "geçiren": 8202,
      "##ohum": 8203,
      "Tav": 8204,
      "##asıt": 8205,
      "Ston": 8206,
      "alınır": 8207,
      "Kolomb": 8208,
      "Ekonomik": 8209,
      "##nun": 8210,
      "##erse": 8211,
      "aşama": 8212,
      "olmasıdır": 8213,
      "##itt": 8214,
      "sahneye": 8215,
      "##alama": 8216,
      "yargılan": 8217,
      "ilişkisi": 8218,
      "tarihinden": 8219,
      "İzlanda": 8220,
      "zırhlı": 8221,
      "##eyt": 8222,
      "##otlar": 8223,
      "buzul": 8224,
      "##ović": 8225,
      "Halep": 8226,
      "mag": 8227,
      "##urlar": 8228,
      "ini": 8229,
      "ismiyle": 8230,
      "kalabalık": 8231,
      "Ağır": 8232,
      "Bayram": 8233,
      "Soci": 8234,
      "##usuna": 8235,
      "##luğunun": 8236,
      "##oj": 8237,
      "##önü": 8238,
      "piyade": 8239,
      "##üşü": 8240,
      "##MA": 8241,
      "##yonu": 8242,
      "Premier": 8243,
      "##ebir": 8244,
      "Mass": 8245,
      "kimi": 8246,
      "##ıklık": 8247,
      "dönüştü": 8248,
      "Yönetmen": 8249,
      "##layab": 8250,
      "##illeri": 8251,
      "ulaşmıştır": 8252,
      "isimleri": 8253,
      "biçiminde": 8254,
      "Bolşev": 8255,
      "Mezarlığı": 8256,
      "hed": 8257,
      "##BS": 8258,
      "paylaştı": 8259,
      "tanesi": 8260,
      "Giresun": 8261,
      "Ailesi": 8262,
      "bulmak": 8263,
      "Yozgat": 8264,
      "Life": 8265,
      "yedinci": 8266,
      "askerleri": 8267,
      "işleme": 8268,
      "dayanır": 8269,
      "değişiklikler": 8270,
      "Milletvekilliği": 8271,
      "##ater": 8272,
      "şansı": 8273,
      "##onna": 8274,
      "##ember": 8275,
      "baba": 8276,
      "Keş": 8277,
      "sonuçlar": 8278,
      "bildirdi": 8279,
      "yıldır": 8280,
      "Harp": 8281,
      "geldiğinde": 8282,
      "tutuklandı": 8283,
      "Maz": 8284,
      "##limi": 8285,
      "##laşmış": 8286,
      "fırsat": 8287,
      "zamanlı": 8288,
      "##ılıyordu": 8289,
      "Nam": 8290,
      "kimse": 8291,
      "Kendisi": 8292,
      "##rick": 8293,
      "Ayak": 8294,
      "##CD": 8295,
      "sanay": 8296,
      "yüzölçüm": 8297,
      "Balt": 8298,
      "Had": 8299,
      "süv": 8300,
      "topraklarına": 8301,
      "##öyük": 8302,
      "##ünce": 8303,
      "##liga": 8304,
      "Mardin": 8305,
      "animasyon": 8306,
      "Beh": 8307,
      "##roz": 8308,
      "Sig": 8309,
      "klibi": 8310,
      "##müştü": 8311,
      "serisinin": 8312,
      "##ESCO": 8313,
      "üstlendiği": 8314,
      "##gorit": 8315,
      "borç": 8316,
      "Kong": 8317,
      "İnş": 8318,
      "tutul": 8319,
      "arkasında": 8320,
      "##tel": 8321,
      "getirir": 8322,
      "belirtmiştir": 8323,
      "istediği": 8324,
      "Out": 8325,
      "Alaska": 8326,
      "saygı": 8327,
      "cisim": 8328,
      "af": 8329,
      "##die": 8330,
      "türet": 8331,
      "çatış": 8332,
      "kullanmak": 8333,
      "terfi": 8334,
      "ov": 8335,
      "##cilerin": 8336,
      "##madığı": 8337,
      "##ıydı": 8338,
      "denge": 8339,
      "niteli": 8340,
      "mahalles": 8341,
      "yeme": 8342,
      "sistemine": 8343,
      "böcek": 8344,
      "Spe": 8345,
      "getirmiştir": 8346,
      "ülkeye": 8347,
      "Lew": 8348,
      "##tıktan": 8349,
      "##redi": 8350,
      "yerleri": 8351,
      "mesafe": 8352,
      "Bl": 8353,
      "ediyordu": 8354,
      "mesle": 8355,
      "Hükûmeti": 8356,
      "öt": 8357,
      "kadının": 8358,
      "kurulması": 8359,
      "rolüyle": 8360,
      "finalinde": 8361,
      "Young": 8362,
      "##lamanın": 8363,
      "getirilmiştir": 8364,
      "İbn": 8365,
      "banka": 8366,
      "Yür": 8367,
      "soylu": 8368,
      "kuantum": 8369,
      "##iskopos": 8370,
      "kere": 8371,
      "##abilmek": 8372,
      "But": 8373,
      "Şer": 8374,
      "Vit": 8375,
      "##oid": 8376,
      "##cıların": 8377,
      "yapıt": 8378,
      "Hall": 8379,
      "konuşan": 8380,
      "UNESCO": 8381,
      "Wrest": 8382,
      "##general": 8383,
      "Bad": 8384,
      "##ğim": 8385,
      "önlemek": 8386,
      "##ronik": 8387,
      "hata": 8388,
      "mevsim": 8389,
      "##klarını": 8390,
      "Denizli": 8391,
      "##KK": 8392,
      "erişim": 8393,
      "Ruh": 8394,
      "dahi": 8395,
      "deng": 8396,
      "yayımlanmıştır": 8397,
      "seçilmiş": 8398,
      "defn": 8399,
      "Saldır": 8400,
      "dokun": 8401,
      "Aslan": 8402,
      "Kişisel": 8403,
      "Selan": 8404,
      "##rul": 8405,
      "kimlik": 8406,
      "Yarımadası": 8407,
      "Bül": 8408,
      "kentin": 8409,
      "uygulanan": 8410,
      "##ashi": 8411,
      "etkileşim": 8412,
      "verilerine": 8413,
      "Konf": 8414,
      "şarkısıyla": 8415,
      "Şanlıurfa": 8416,
      "Rh": 8417,
      "##lıktan": 8418,
      "Şek": 8419,
      "Endon": 8420,
      "nah": 8421,
      "anılır": 8422,
      "##tris": 8423,
      "çekilmiştir": 8424,
      "Kont": 8425,
      "##elenen": 8426,
      "Kırmızı": 8427,
      "##etleri": 8428,
      "sıralam": 8429,
      "Hip": 8430,
      "##feransı": 8431,
      "yakınında": 8432,
      "Koruma": 8433,
      "kızıl": 8434,
      "##abilirler": 8435,
      "Que": 8436,
      "##amba": 8437,
      "##ump": 8438,
      "##ics": 8439,
      "Başka": 8440,
      "Universit": 8441,
      "öğrenim": 8442,
      "kırsal": 8443,
      "Milliyet": 8444,
      "##mediğini": 8445,
      "diğerleri": 8446,
      "Sün": 8447,
      "##isindeki": 8448,
      "Evren": 8449,
      "birbirlerine": 8450,
      "Dönemi": 8451,
      "eskiden": 8452,
      "dışına": 8453,
      "yaban": 8454,
      "##lanmaya": 8455,
      "Musa": 8456,
      "##helm": 8457,
      "tamamlandı": 8458,
      "yağmur": 8459,
      "Başlangıçta": 8460,
      "HD": 8461,
      "Tip": 8462,
      "onar": 8463,
      "##lileri": 8464,
      "editör": 8465,
      "gül": 8466,
      "Şen": 8467,
      "girdiği": 8468,
      "##tikleri": 8469,
      "##landırma": 8470,
      "Yargı": 8471,
      "buraya": 8472,
      "##ğimiz": 8473,
      "##meliy": 8474,
      "kariyerini": 8475,
      "bölgeyi": 8476,
      "toplulu": 8477,
      "Azeri": 8478,
      "harekât": 8479,
      "maddi": 8480,
      "yazma": 8481,
      "riv": 8482,
      "##urken": 8483,
      "##rov": 8484,
      "nüfuslu": 8485,
      "##nie": 8486,
      "##lemiş": 8487,
      "Elazığ": 8488,
      "Turg": 8489,
      "caz": 8490,
      "kıyafet": 8491,
      "##makam": 8492,
      "toplanan": 8493,
      "düzelt": 8494,
      "Kanun": 8495,
      "Kalkınma": 8496,
      "ürünü": 8497,
      "Anti": 8498,
      "değin": 8499,
      "kıv": 8500,
      "mineral": 8501,
      "Şahin": 8502,
      "Annesi": 8503,
      "kurt": 8504,
      "ork": 8505,
      "##ersey": 8506,
      "##simum": 8507,
      "Polis": 8508,
      "lez": 8509,
      "ufak": 8510,
      "Ash": 8511,
      "üyelerinin": 8512,
      "krom": 8513,
      "koydu": 8514,
      "Kütüphan": 8515,
      "Prim": 8516,
      "ate": 8517,
      "##mes": 8518,
      "Maur": 8519,
      "##lop": 8520,
      "##yanı": 8521,
      "Bing": 8522,
      "evlili": 8523,
      "##ody": 8524,
      "Şehirdeki": 8525,
      "PC": 8526,
      "Elizabeth": 8527,
      "Aleksand": 8528,
      "Nih": 8529,
      "##onal": 8530,
      "atış": 8531,
      "##ily": 8532,
      "belirlenmiştir": 8533,
      "şehirler": 8534,
      "düşünür": 8535,
      "Cenev": 8536,
      "boya": 8537,
      "##uşturucu": 8538,
      "Kazak": 8539,
      "##ax": 8540,
      "yaşar": 8541,
      "görevinde": 8542,
      "bölgesinden": 8543,
      "##rüb": 8544,
      "no": 8545,
      "döneminin": 8546,
      "gelindiğinde": 8547,
      "yumuşak": 8548,
      "##mem": 8549,
      "##alanı": 8550,
      "bozul": 8551,
      "Selanik": 8552,
      "Sha": 8553,
      "##ER": 8554,
      "tamamlamıştır": 8555,
      "takımıyla": 8556,
      "Sistemi": 8557,
      "##ets": 8558,
      "##ağından": 8559,
      "Takımı": 8560,
      "Gold": 8561,
      "Mars": 8562,
      "##enko": 8563,
      "tör": 8564,
      "Ülkenin": 8565,
      "skor": 8566,
      "Francisco": 8567,
      "Cre": 8568,
      "##ín": 8569,
      "bunlardan": 8570,
      "##sburg": 8571,
      "##anlığın": 8572,
      "Sicilya": 8573,
      "sıraya": 8574,
      "sertif": 8575,
      "##TÜ": 8576,
      "Yahudiler": 8577,
      "Nes": 8578,
      "##uss": 8579,
      "esk": 8580,
      "Cezayir": 8581,
      "##nar": 8582,
      "Kanunu": 8583,
      "Mont": 8584,
      "Cav": 8585,
      "usul": 8586,
      "Kongre": 8587,
      "cumhurbaşkanı": 8588,
      "Dun": 8589,
      "olduklarını": 8590,
      "biyolojik": 8591,
      "##visi": 8592,
      "mahallesi": 8593,
      "dağıtım": 8594,
      "Hastanesi": 8595,
      "kadrosunda": 8596,
      "Time": 8597,
      "alanlar": 8598,
      "##içi": 8599,
      "##ies": 8600,
      "bulunması": 8601,
      "alanlarında": 8602,
      "çıkarılan": 8603,
      "tasarlanmış": 8604,
      "Ford": 8605,
      "üstüne": 8606,
      "tarihten": 8607,
      "kolayca": 8608,
      "yapay": 8609,
      "nispeten": 8610,
      "Oscar": 8611,
      "geliştirilmiş": 8612,
      "tüken": 8613,
      "vah": 8614,
      "##keli": 8615,
      "girmiş": 8616,
      "dizisinin": 8617,
      "antrenör": 8618,
      "deri": 8619,
      "yuvar": 8620,
      "##sia": 8621,
      "siyasal": 8622,
      "Yani": 8623,
      "saptan": 8624,
      "##kov": 8625,
      "##ılmıştı": 8626,
      "Yakın": 8627,
      "kadrosuna": 8628,
      "##ünc": 8629,
      "mali": 8630,
      "##asan": 8631,
      "çak": 8632,
      "##olar": 8633,
      "##lamadan": 8634,
      "ayrılmış": 8635,
      "Caddesi": 8636,
      "Salih": 8637,
      "Kendi": 8638,
      "akıllı": 8639,
      "##niyet": 8640,
      "verimli": 8641,
      "soru": 8642,
      "Işık": 8643,
      "##amamıştır": 8644,
      "Times": 8645,
      "şimdiki": 8646,
      "Estonya": 8647,
      "##ston": 8648,
      "maçları": 8649,
      "##engiz": 8650,
      "um": 8651,
      "kupa": 8652,
      "ülkeleri": 8653,
      "noktada": 8654,
      "sh": 8655,
      "##ison": 8656,
      "##omba": 8657,
      "##ED": 8658,
      "##lé": 8659,
      "olmayı": 8660,
      "Kızılder": 8661,
      "kalıp": 8662,
      "tıbbi": 8663,
      "##ubu": 8664,
      "buradan": 8665,
      "Bayan": 8666,
      "Geleneksel": 8667,
      "##laşım": 8668,
      "Buda": 8669,
      "Çank": 8670,
      "sistemini": 8671,
      "belirsiz": 8672,
      "yüksekliği": 8673,
      "##elenmiştir": 8674,
      "Por": 8675,
      "Elektrik": 8676,
      "Günü": 8677,
      "diğeri": 8678,
      "İlçesi": 8679,
      "Anayasa": 8680,
      "##oshi": 8681,
      "müh": 8682,
      "Dizi": 8683,
      "sitesi": 8684,
      "##ânı": 8685,
      "icra": 8686,
      "hâlâ": 8687,
      "kökeni": 8688,
      "Dünyanın": 8689,
      "yöre": 8690,
      "büyüy": 8691,
      "Hız": 8692,
      "Prusya": 8693,
      "##culuğu": 8694,
      "##lami": 8695,
      "anlatı": 8696,
      "##cili": 8697,
      "Ener": 8698,
      "saldırıya": 8699,
      "eserinde": 8700,
      "Brezilyalı": 8701,
      "zorluk": 8702,
      "otobüs": 8703,
      "##iyesi": 8704,
      "Sn": 8705,
      "##lini": 8706,
      "yönde": 8707,
      "optik": 8708,
      "parmak": 8709,
      "##sızın": 8710,
      "yoktu": 8711,
      "Virgini": 8712,
      "##gal": 8713,
      "bahçe": 8714,
      "Artvin": 8715,
      "Cin": 8716,
      "uyumlu": 8717,
      "eklen": 8718,
      "yerleşimi": 8719,
      "okyanus": 8720,
      "Ox": 8721,
      "buhar": 8722,
      "##mız": 8723,
      "Karş": 8724,
      "aşir": 8725,
      "Toplum": 8726,
      "zek": 8727,
      "Eng": 8728,
      "bakter": 8729,
      "##ğunun": 8730,
      "Profesör": 8731,
      "Donanması": 8732,
      "tüc": 8733,
      "Ez": 8734,
      "Gece": 8735,
      "Hans": 8736,
      "##laj": 8737,
      "##esse": 8738,
      "Aile": 8739,
      "##rap": 8740,
      "kariyerinin": 8741,
      "Kırk": 8742,
      "Napol": 8743,
      "##ía": 8744,
      "##dum": 8745,
      "##ozom": 8746,
      "yapılar": 8747,
      "diplomatik": 8748,
      "Ever": 8749,
      "lev": 8750,
      "Arda": 8751,
      "başkanlığını": 8752,
      "ard": 8753,
      "tamamlayan": 8754,
      "jüri": 8755,
      "Hong": 8756,
      "Wolf": 8757,
      "Arist": 8758,
      "olduğunda": 8759,
      "Brit": 8760,
      "miktarı": 8761,
      "Kamu": 8762,
      "Sava": 8763,
      "çelik": 8764,
      "besin": 8765,
      "izlen": 8766,
      "bunları": 8767,
      "huz": 8768,
      "verme": 8769,
      "##ansiyon": 8770,
      "motoru": 8771,
      "Yurt": 8772,
      "vektör": 8773,
      "##IS": 8774,
      "güvenli": 8775,
      "##opter": 8776,
      "verg": 8777,
      "Bilgi": 8778,
      "kullanılab": 8779,
      "Kenn": 8780,
      "Rize": 8781,
      "Dolay": 8782,
      "Müttefik": 8783,
      "boşluk": 8784,
      "derecesi": 8785,
      "Bang": 8786,
      "Key": 8787,
      "prop": 8788,
      "imal": 8789,
      "Resmi": 8790,
      "Wilhelm": 8791,
      "Hollywood": 8792,
      "gayet": 8793,
      "düzenledi": 8794,
      "Jor": 8795,
      "işleri": 8796,
      "gelip": 8797,
      "değişir": 8798,
      "ilişkilendir": 8799,
      "Yerleş": 8800,
      "Tunus": 8801,
      "bölümler": 8802,
      "gelişen": 8803,
      "##ando": 8804,
      "Reg": 8805,
      "kütüphan": 8806,
      "Timur": 8807,
      "##AP": 8808,
      "asla": 8809,
      "Rek": 8810,
      "Öte": 8811,
      "topladı": 8812,
      "Pil": 8813,
      "halklardan": 8814,
      "##ılmasından": 8815,
      "göğ": 8816,
      "gerekmektedir": 8817,
      "bilinç": 8818,
      "kule": 8819,
      "Yavuz": 8820,
      "nam": 8821,
      "##haz": 8822,
      "bölümleri": 8823,
      "oluşuyordu": 8824,
      "##ов": 8825,
      "Fox": 8826,
      "vez": 8827,
      "##ism": 8828,
      "girerek": 8829,
      "listelerinde": 8830,
      "donanım": 8831,
      "Pres": 8832,
      "dağı": 8833,
      "uğrat": 8834,
      "politikacı": 8835,
      "tecrüb": 8836,
      "Bet": 8837,
      "Rog": 8838,
      "Sok": 8839,
      "##iko": 8840,
      "kavuş": 8841,
      "alınması": 8842,
      "saldırısı": 8843,
      "faaliyetleri": 8844,
      "Hap": 8845,
      "hizmetleri": 8846,
      "Bundes": 8847,
      "Ars": 8848,
      "gerçekten": 8849,
      "yapımcılığını": 8850,
      "Veli": 8851,
      "Küba": 8852,
      "neticesinde": 8853,
      "atarak": 8854,
      "harit": 8855,
      "geçtiği": 8856,
      "Onur": 8857,
      "##övalye": 8858,
      "##tikçe": 8859,
      "Karabağ": 8860,
      "ziyade": 8861,
      "ideal": 8862,
      "AC": 8863,
      "oluşmuştur": 8864,
      "ال": 8865,
      "gerektiği": 8866,
      "Gazete": 8867,
      "Tif": 8868,
      "vit": 8869,
      "yedek": 8870,
      "##lılı": 8871,
      "planı": 8872,
      "adamları": 8873,
      "canlandırdı": 8874,
      "Formula": 8875,
      "Tren": 8876,
      "##ré": 8877,
      "##jinal": 8878,
      "##oter": 8879,
      "açan": 8880,
      "Murad": 8881,
      "mobil": 8882,
      "##AN": 8883,
      "destekleyen": 8884,
      "eleştiriler": 8885,
      "doku": 8886,
      "redded": 8887,
      "Dede": 8888,
      "Ye": 8889,
      "becer": 8890,
      "bilinmemektedir": 8891,
      "Polonyalı": 8892,
      "Doğal": 8893,
      "##üleb": 8894,
      "muharebe": 8895,
      "Alb": 8896,
      "çevrili": 8897,
      "Kitab": 8898,
      "simge": 8899,
      "Cumhurbaşkanlığı": 8900,
      "##cas": 8901,
      "Meş": 8902,
      "rengi": 8903,
      "##work": 8904,
      "##iliyordu": 8905,
      "intik": 8906,
      "##trop": 8907,
      "devamı": 8908,
      "DS": 8909,
      "##lamasına": 8910,
      "Matematik": 8911,
      "Ner": 8912,
      "muk": 8913,
      "veda": 8914,
      "##amayan": 8915,
      "kömür": 8916,
      "üreten": 8917,
      "kiralık": 8918,
      "kıta": 8919,
      "Liver": 8920,
      "oynamaya": 8921,
      "özgürlük": 8922,
      "kolayla": 8923,
      "##aro": 8924,
      "sürmüştür": 8925,
      "tanımlanır": 8926,
      "gazetesi": 8927,
      "evi": 8928,
      "formasıyla": 8929,
      "oradan": 8930,
      "Jane": 8931,
      "neg": 8932,
      "Marie": 8933,
      "kaynaklar": 8934,
      "Siyasal": 8935,
      "alınmış": 8936,
      "##memesi": 8937,
      "personel": 8938,
      "delik": 8939,
      "işgali": 8940,
      "çerçevesinde": 8941,
      "nişan": 8942,
      "Sul": 8943,
      "##kele": 8944,
      "isteği": 8945,
      "Çukur": 8946,
      "##vaz": 8947,
      "##osunda": 8948,
      "hidrojen": 8949,
      "pratik": 8950,
      "Virginia": 8951,
      "##oke": 8952,
      "görevlisi": 8953,
      "yarışmada": 8954,
      "Kuv": 8955,
      "püs": 8956,
      "bilimi": 8957,
      "bağır": 8958,
      "Dra": 8959,
      "##ebilmektedir": 8960,
      "Vah": 8961,
      "sürgün": 8962,
      "Mahmut": 8963,
      "hır": 8964,
      "köt": 8965,
      "Kilise": 8966,
      "Group": 8967,
      "topra": 8968,
      "uğradı": 8969,
      "vilayet": 8970,
      "##leştirme": 8971,
      "moda": 8972,
      "uzunluk": 8973,
      "hassas": 8974,
      "kullanmıştır": 8975,
      "Model": 8976,
      "tanındı": 8977,
      "merkezidir": 8978,
      "Lord": 8979,
      "Müf": 8980,
      "sız": 8981,
      "##irya": 8982,
      "olmalıdır": 8983,
      "dönemine": 8984,
      "açıklamıştır": 8985,
      "##usunun": 8986,
      "yıldan": 8987,
      "Deği": 8988,
      "Sand": 8989,
      "bölgesindeki": 8990,
      "rakibi": 8991,
      "içinden": 8992,
      "Öğretmen": 8993,
      "##amuk": 8994,
      "İh": 8995,
      "Turizm": 8996,
      "laboratuvar": 8997,
      "Festival": 8998,
      "ayırt": 8999,
      "Gel": 9000,
      "##ğundan": 9001,
      "##mişte": 9002,
      "Las": 9003,
      "Nah": 9004,
      "civar": 9005,
      "Rick": 9006,
      "##riz": 9007,
      "##çer": 9008,
      "Madonna": 9009,
      "redde": 9010,
      "olmasının": 9011,
      "Ts": 9012,
      "akın": 9013,
      "sürdürmektedir": 9014,
      "gide": 9015,
      "##memek": 9016,
      "kaynaklarda": 9017,
      "Portekizce": 9018,
      "##mekten": 9019,
      "School": 9020,
      "##name": 9021,
      "dövüş": 9022,
      "Mob": 9023,
      "##iyorum": 9024,
      "Kanadalı": 9025,
      "Joe": 9026,
      "Rio": 9027,
      "çekici": 9028,
      "çocuklar": 9029,
      "Sloven": 9030,
      "gruptan": 9031,
      "yenilik": 9032,
      "hâlen": 9033,
      "edici": 9034,
      "mükemmel": 9035,
      "zamanı": 9036,
      "Hikâ": 9037,
      "sağlamaktadır": 9038,
      "Sec": 9039,
      "Yet": 9040,
      "##alisyon": 9041,
      "önlem": 9042,
      "çalışırken": 9043,
      "tabaka": 9044,
      "oli": 9045,
      "Hayvan": 9046,
      "Malta": 9047,
      "Jersey": 9048,
      "Lef": 9049,
      "ch": 9050,
      "zaten": 9051,
      "görmüştür": 9052,
      "yangın": 9053,
      "şarkısını": 9054,
      "Yapı": 9055,
      "##igan": 9056,
      "alanına": 9057,
      "Muğla": 9058,
      "Kök": 9059,
      "yeğ": 9060,
      "College": 9061,
      "Ateş": 9062,
      "hop": 9063,
      "rejim": 9064,
      "şeri": 9065,
      "cezası": 9066,
      "büyüdü": 9067,
      "Vladimir": 9068,
      "##ıdır": 9069,
      "şehre": 9070,
      "sisteminde": 9071,
      "kutup": 9072,
      "defans": 9073,
      "sattı": 9074,
      "çoğunu": 9075,
      "alıyor": 9076,
      "##sey": 9077,
      "olursa": 9078,
      "Off": 9079,
      "uzaklaştır": 9080,
      "Len": 9081,
      "##lerken": 9082,
      "tuttu": 9083,
      "Hareket": 9084,
      "verilmektedir": 9085,
      "sağlan": 9086,
      "etkiler": 9087,
      "gereksin": 9088,
      "Johnson": 9089,
      "##ifer": 9090,
      "aldılar": 9091,
      "söylenir": 9092,
      "organik": 9093,
      "olacağı": 9094,
      "##rand": 9095,
      "kaza": 9096,
      "konak": 9097,
      "etkisiyle": 9098,
      "suçlu": 9099,
      "Reich": 9100,
      "Hazar": 9101,
      "##elendi": 9102,
      "katılımı": 9103,
      "##dadır": 9104,
      "yaşta": 9105,
      "getirilen": 9106,
      "tutar": 9107,
      "üzüm": 9108,
      "##indedir": 9109,
      "çıkarıldı": 9110,
      "müşter": 9111,
      "deneysel": 9112,
      "Villa": 9113,
      "denetim": 9114,
      "McC": 9115,
      "negatif": 9116,
      "otel": 9117,
      "Teşkil": 9118,
      "gösterilir": 9119,
      "getirdiği": 9120,
      "gönderilen": 9121,
      "yürürlüğe": 9122,
      "##üğ": 9123,
      "kurgu": 9124,
      "yönetici": 9125,
      "Parlamentosu": 9126,
      "FK": 9127,
      "algorit": 9128,
      "Aslında": 9129,
      "log": 9130,
      "##în": 9131,
      "kaybeden": 9132,
      "North": 9133,
      "olanlar": 9134,
      "Araç": 9135,
      "yörünge": 9136,
      "##çağ": 9137,
      "kurmuştur": 9138,
      "askerler": 9139,
      "Önc": 9140,
      "##ES": 9141,
      "Bud": 9142,
      "##uka": 9143,
      "öğrenimini": 9144,
      "Laur": 9145,
      "##jan": 9146,
      "ihrac": 9147,
      "İlişk": 9148,
      "küç": 9149,
      "##rez": 9150,
      "yolculuk": 9151,
      "piyano": 9152,
      "Endonezya": 9153,
      "gelişimi": 9154,
      "##orta": 9155,
      "##obi": 9156,
      "keşfet": 9157,
      "kurş": 9158,
      "Kupa": 9159,
      "##abir": 9160,
      "kaldırıldı": 9161,
      "deplasman": 9162,
      "##ury": 9163,
      "sevgil": 9164,
      "Liverpool": 9165,
      "Kaç": 9166,
      "muhalif": 9167,
      "sının": 9168,
      "##abileceği": 9169,
      "##omp": 9170,
      "kül": 9171,
      "vaka": 9172,
      "##bini": 9173,
      "##iral": 9174,
      "tavsiye": 9175,
      "##ezerv": 9176,
      "MTV": 9177,
      "##ude": 9178,
      "şampiyonluğunu": 9179,
      "##aft": 9180,
      "ülkeden": 9181,
      "Berg": 9182,
      "Mis": 9183,
      "##üd": 9184,
      "##amasına": 9185,
      "gibidir": 9186,
      "Ağrı": 9187,
      "Shak": 9188,
      "penaltı": 9189,
      "##ayn": 9190,
      "##oba": 9191,
      "##ough": 9192,
      "golle": 9193,
      "##amo": 9194,
      "##stri": 9195,
      "##inger": 9196,
      "##lete": 9197,
      "##larken": 9198,
      "sorunu": 9199,
      "How": 9200,
      "plastik": 9201,
      "SB": 9202,
      "tu": 9203,
      "##vad": 9204,
      "başlıklı": 9205,
      "kitapları": 9206,
      "kategorisinde": 9207,
      "Andrew": 9208,
      "dö": 9209,
      "##oment": 9210,
      "Anayas": 9211,
      "Kle": 9212,
      "uyuşturucu": 9213,
      "büyüme": 9214,
      "Hur": 9215,
      "denen": 9216,
      "komed": 9217,
      "başbakan": 9218,
      "ettikleri": 9219,
      "##tev": 9220,
      "yerler": 9221,
      "Robin": 9222,
      "Napolyon": 9223,
      "##yesi": 9224,
      "sanatı": 9225,
      "direktörü": 9226,
      "tehlikeli": 9227,
      "##port": 9228,
      "Kazan": 9229,
      "volkan": 9230,
      "SC": 9231,
      "bacak": 9232,
      "sultan": 9233,
      "firma": 9234,
      "kariyerinde": 9235,
      "köşe": 9236,
      "rüzgâr": 9237,
      "kus": 9238,
      "sesi": 9239,
      "ikil": 9240,
      "Simon": 9241,
      "Sezar": 9242,
      "##uhan": 9243,
      "özelliklerini": 9244,
      "etmişlerdir": 9245,
      "birç": 9246,
      "eksen": 9247,
      "##çılar": 9248,
      "Yok": 9249,
      "Osmanlılar": 9250,
      "Hollandalı": 9251,
      "##maraş": 9252,
      "müzak": 9253,
      "kaleci": 9254,
      "##yurt": 9255,
      "gelmesi": 9256,
      "Mül": 9257,
      "zemin": 9258,
      "Cey": 9259,
      "##mamak": 9260,
      "Ern": 9261,
      "püskür": 9262,
      "sessiz": 9263,
      "davul": 9264,
      "krizi": 9265,
      "Kahramanmaraş": 9266,
      "Nijer": 9267,
      "GS": 9268,
      "Holding": 9269,
      "cad": 9270,
      "programları": 9271,
      "Mihail": 9272,
      "Grek": 9273,
      "belirlemek": 9274,
      "Konferansı": 9275,
      "silindir": 9276,
      "dikkatini": 9277,
      "Ünlü": 9278,
      "XV": 9279,
      "Amasya": 9280,
      "akşam": 9281,
      "liberal": 9282,
      "giymiştir": 9283,
      "Nit": 9284,
      "konumu": 9285,
      "##üsünü": 9286,
      "formül": 9287,
      "##AS": 9288,
      "katılır": 9289,
      "##rib": 9290,
      "Sonunda": 9291,
      "Güneydoğu": 9292,
      "Metin": 9293,
      "kare": 9294,
      "manz": 9295,
      "disiplin": 9296,
      "Lewis": 9297,
      "Bus": 9298,
      "belirlen": 9299,
      "##ido": 9300,
      "Hatay": 9301,
      "gelebilir": 9302,
      "seslendirilen": 9303,
      "bant": 9304,
      "##lanmıştı": 9305,
      "Kh": 9306,
      "Radi": 9307,
      "porn": 9308,
      "açar": 9309,
      "Hatta": 9310,
      "yükselmiştir": 9311,
      "oğludur": 9312,
      "with": 9313,
      "##ettiş": 9314,
      "kurmak": 9315,
      "Başbakanı": 9316,
      "Bolu": 9317,
      "Eleme": 9318,
      "evine": 9319,
      "##lığından": 9320,
      "kuvvetlerinin": 9321,
      "çıkması": 9322,
      "uyarı": 9323,
      "dünyadaki": 9324,
      "istihbarat": 9325,
      "muhalefet": 9326,
[...]
