{
  "version": "1.0",
  "truncation": null,
  "padding": null,
  "added_tokens": [
    {
      "id": 0,
      "content": "[PAD]",
      "single_word": false,
      "lstrip": false,
      "rstrip": false,
      "normalized": false,
      "special": true
    },
    {
      "id": 1,
      "content": "[UNK]",
      "single_word": false,
      "lstrip": false,
      "rstrip": false,
      "normalized": false,
      "special": true
    },
    {
      "id": 2,
      "content": "[CLS]",
      "single_word": false,
      "lstrip": false,
      "rstrip": false,
      "normalized": false,
      "special": true
    },
    {
      "id": 3,
      "content": "[SEP]",
      "single_word": false,
      "lstrip": false,
      "rstrip": false,
      "normalized": false,
      "special": true
    },
    {
      "id": 4,
      "content": "[MASK]",
      "single_word": false,
      "lstrip": false,
      "rstrip": false,
      "normalized": false,
      "special": true
    }
  ],
  "normalizer": {
    "type": "Sequence",
    "normalizers": [
      {
        "type": "NFKC"
      }
    ]
  },
  "pre_tokenizer": {
    "type": "Sequence",
    "pretokenizers": [
      {
        "type": "WhitespaceSplit"
      },
      {
        "type": "Digits",
        "individual_digits": true
      },
      {
        "type": "Punctuation",
        "behavior": "Isolated"
      }
    ]
  },
  "post_processor": null,
  "decoder": {
    "type": "WordPiece",
    "prefix": "##",
    "cleanup": true
  },
  "model": {
    "type": "WordPiece",
    "unk_token": "[UNK]",
    "continuing_subword_prefix": "##",
    "max_input_chars_per_word": 100,
    "vocab": {
      "[PAD]": 0,
      "[UNK]": 1,
      "[CLS]": 2,
      "[SEP]": 3,
      "[MASK]": 4,
      "!": 5,
      "\"": 6,
      "$": 7,
      "%": 8,
      "&": 9,
      "'": 10,
      "(": 11,
      ")": 12,
      "*": 13,
      "+": 14,
      ",": 15,
      "-": 16,
      ".": 17,
      "/": 18,
      "0": 19,
      "1": 20,
      "2": 21,
      "3": 22,
      "4": 23,
      "5": 24,
      "6": 25,
      "7": 26,
      "8": 27,
      "9": 28,
      ":": 29,
      ";": 30,
      "=": 31,
      "?": 32,
      "A": 33,
      "B": 34,
      "C": 35,
      "D": 36,
      "E": 37,
      "F": 38,
      "G": 39,
      "H": 40,
      "I": 41,
      "J": 42,
      "K": 43,
      "L": 44,
      "M": 45,
      "N": 46,
      "O": 47,
      "P": 48,
      "Q": 49,
      "R": 50,
      "S": 51,
      "T": 52,
      "U": 53,
      "V": 54,
      "W": 55,
      "X": 56,
      "Y": 57,
      "Z": 58,
      "[": 59,
      "]": 60,
      "_": 61,
      "a": 62,
      "b": 63,
      "c": 64,
      "d": 65,
      "e": 66,
      "f": 67,
      "g": 68,
      "h": 69,
      "i": 70,
      "j": 71,
      "k": 72,
      "l": 73,
      "m": 74,
      "n": 75,
      "o": 76,
      "p": 77,
      "q": 78,
      "r": 79,
      "s": 80,
      "t": 81,
      "u": 82,
      "v": 83,
      "w": 84,
      "x": 85,
      "y": 86,
      "z": 87,
      "|": 88,
      "£": 89,
      "«": 90,
      "­": 91,
      "°": 92,
      "»": 93,
      "Â": 94,
      "Ç": 95,
      "É": 96,
      "Ö": 97,
      "Ü": 98,
      "ß": 99,
      "à": 100,
      "á": 101,
      "â": 102,
      "ã": 103,
      "ä": 104,
      "å": 105,
      "ç": 106,
      "è": 107,
      "é": 108,
      "ê": 109,
      "ë": 110,
      "í": 111,
      "î": 112,
      "ñ": 113,
      "ó": 114,
      "ö": 115,
      "ø": 116,
      "ú": 117,
      "û": 118,
      "ü": 119,
      "ā": 120,
      "ć": 121,
      "č": 122,
      "ğ": 123,
      "ī": 124,
      "İ": 125,
      "ı": 126,
      "ł": 127,
      "ń": 128,
      "ō": 129,
      "ř": 130,
      "Ş": 131,
      "ş": 132,
      "Š": 133,
      "š": 134,
      "ū": 135,
      "ž": 136,
      "ə": 137,
      "́": 138,
      "α": 139,
      "ι": 140,
      "κ": 141,
      "λ": 142,
      "μ": 143,
      "ν": 144,
      "ο": 145,
      "ρ": 146,
      "ς": 147,
      "σ": 148,
      "τ": 149,
      "υ": 150,
      "А": 151,
      "а": 152,
      "б": 153,
      "в": 154,
      "г": 155,
      "д": 156,
      "е": 157,
      "и": 158,
      "й": 159,
      "к": 160,
      "л": 161,
      "м": 162,
      "н": 163,
      "о": 164,
      "р": 165,
      "с": 166,
      "т": 167,
      "у": 168,
      "ч": 169,
      "ы": 170,
      "ь": 171,
      "я": 172,
      "ְ": 173,
      "ּ": 174,
      "י": 175,
      "ا": 176,
      "ب": 177,
      "ت": 178,
      "د": 179,
      "ر": 180,
      "س": 181,
      "ش": 182,
      "ع": 183,
      "ل": 184,
      "م": 185,
      "ن": 186,
      "ه": 187,
      "و": 188,
      "ي": 189,
      "ی": 190,
      "ა": 191,
      "ი": 192,
      "​": 193,
      "‎": 194,
      "–": 195,
      "—": 196,
      "‘": 197,
      "’": 198,
      "“": 199,
      "”": 200,
      "•": 201,
      "′": 202,
      "⁄": 203,
      "€": 204,
      "##E": 205,
      "##J": 206,
      "##O": 207,
      "##k": 208,
      "##s": 209,
      "##ü": 210,
      "##d": 211,
      "##a": 212,
      "##t": 213,
      "##i": 214,
      "##f": 215,
      "##ö": 216,
      "##l": 217,
      "##g": 218,
      "##e": 219,
      "##r": 220,
      "##n": 221,
      "##u": 222,
      "##ç": 223,
      "##o": 224,
      "##ğ": 225,
      "##A": 226,
      "##S": 227,
      "##ş": 228,
      "##ı": 229,
      "##m": 230,
      "##p": 231,
      "##h": 232,
      "##c": 233,
      "##v": 234,
      "##y": 235,
      "##z": 236,
      "##b": 237,
      "##j": 238,
      "##V": 239,
      "##I": 240,
      "##q": 241,
      "##w": 242,
      "##â": 243,
      "##U": 244,
      "##M": 245,
      "##L": 246,
      "##C": 247,
      "##û": 248,
      "##R": 249,
      "##G": 250,
      "##ä": 251,
      "##و": 252,
      "##ا": 253,
      "##x": 254,
      "##ū": 255,
      "##​": 256,
      "##é": 257,
      "##ć": 258,
      "##Ö": 259,
      "##Y": 260,
      "##Ü": 261,
      "##а": 262,
      "##т": 263,
      "##р": 264,
      "##T": 265,
      "##K": 266,
      "##ə": 267,
      "##š": 268,
      "##B": 269,
      "##о": 270,
      "##д": 271,
      "##и": 272,
      "##н": 273,
      "##D": 274,
      "##ي": 275,
      "##ل": 276,
      "##ن": 277,
      "##ë": 278,
      "##م": 279,
      "##د": 280,
      "##­": 281,
      "##î": 282,
      "##ō": 283,
      "##л": 284,
      "##е": 285,
      "##й": 286,
      "##è": 287,
      "##N": 288,
      "##‎": 289,
      "##Q": 290,
      "##W": 291,
      "##α": 292,
      "##ρ": 293,
      "##ο": 294,
      "##ν": 295,
      "##τ": 296,
      "##ς": 297,
      "##ּ": 298,
      "##ְ": 299,
      "##F": 300,
      "##в": 301,
      "##ч": 302,
      "##å": 303,
      "##P": 304,
      "##á": 305,
      "##İ": 306,
      "##ع": 307,
      "##ه": 308,
      "##ī": 309,
      "##ā": 310,
      "##ř": 311,
      "##ã": 312,
      "##X": 313,
      "##ó": 314,
      "##ь": 315,
      "##H": 316,
      "##с": 317,
      "##к": 318,
      "##ú": 319,
      "##ø": 320,
      "##°": 321,
      "##ب": 322,
      "##í": 323,
      "##י": 324,
      "##ი": 325,
      "##ა": 326,
      "##ß": 327,
      "##ñ": 328,
      "##б": 329,
      "##у": 330,
      "##́": 331,
      "##г": 332,
      "##à": 333,
      "##м": 334,
      "##ł": 335,
      "##Ş": 336,
      "##Z": 337,
      "##ы": 338,
      "##ر": 339,
      "##س": 340,
      "##σ": 341,
      "##č": 342,
      "##Š": 343,
      "##λ": 344,
      "##υ": 345,
      "##κ": 346,
      "##ی": 347,
      "##ت": 348,
      "##ž": 349,
      "##ش": 350,
      "##Ç": 351,
      "##ê": 352,
      "##я": 353,
      "##ι": 354,
      "##μ": 355,
      "##ń": 356,
      "##А": 357,
      "##É": 358,
      "##ar": 359,
      "##an": 360,
      "##er": 361,
      "##in": 362,
      "##ın": 363,
      "##ir": 364,
      "##en": 365,
      "##lar": 366,
      "##il": 367,
      "##ak": 368,
      "##le": 369,
      "##da": 370,
      "##al": 371,
      "##de": 372,
      "ve": 373,
      "##as": 374,
      "##ler": 375,
      "##on": 376,
      "##un": 377,
      "##ır": 378,
      "##la": 379,
      "##ek": 380,
      "##es": 381,
      "##li": 382,
      "bir": 383,
      "##ıl": 384,
      "##ay": 385,
      "##at": 386,
      "##et": 387,
      "##ur": 388,
      "##lan": 389,
      "##is": 390,
      "##şt": 391,
      "##el": 392,
      "##iy": 393,
      "##am": 394,
      "##or": 395,
      "##ik": 396,
      "##ul": 397,
      "##dı": 398,
      "##ında": 399,
      "##ün": 400,
      "##aş": 401,
      "##em": 402,
      "##ür": 403,
      "##lı": 404,
      "##im": 405,
      "da": 406,
      "de": 407,
      "##az": 408,
      "##it": 409,
      "##dan": 410,
      "##ap": 411,
      "##di": 412,
      "ol": 413,
      "##inde": 414,
      "##ol": 415,
      "##ya": 416,
      "##ey": 417,
      "##ma": 418,
      "##us": 419,
      "##ad": 420,
      "##den": 421,
      "##ra": 422,
      "##ine": 423,
      "##ası": 424,
      "##ah": 425,
      "##ları": 426,
      "##ık": 427,
      "##ış": 428,
      "##dir": 429,
      "##du": 430,
      "gö": 431,
      "##iz": 432,
      "##ların": 433,
      "##te": 434,
      "yıl": 435,
      "##ım": 436,
      "##ağ": 437,
      "##larak": 438,
      "##mi": 439,
      "##leri": 440,
      "##ti": 441,
      "iç": 442,
      "##ük": 443,
      "olarak": 444,
      "##esi": 445,
      "tar": 446,
      "##ab": 447,
      "##üm": 448,
      "##ini": 449,
      "al": 450,
      "##st": 451,
      "##um": 452,
      "son": 453,
      "##ev": 454,
      "ile": 455,
      "##ki": 456,
      "il": 457,
      "##ok": 458,
      "##ği": 459,
      "yap": 460,
      "##ez": 461,
      "##ıs": 462,
      "##inin": 463,
      "baş": 464,
      "##üz": 465,
      "##dır": 466,
      "##ştir": 467,
      "##ından": 468,
      "##ce": 469,
      "##af": 470,
      "##lik": 471,
      "in": 472,
      "##oğ": 473,
      "##av": 474,
      "##mak": 475,
      "##ğı": 476,
      "##ön": 477,
      "ar": 478,
      "##ştır": 479,
      "##ro": 480,
      "##ül": 481,
      "##iler": 482,
      "##ut": 483,
      "##me": 484,
      "an": 485,
      "kar": 486,
      "##mı": 487,
      "et": 488,
      "gör": 489,
      "bu": 490,
      "için": 491,
      "##man": 492,
      "##ist": 493,
      "##ını": 494,
      "##eç": 495,
      "olan": 496,
      "##lu": 497,
      "##aki": 498,
      "##ına": 499,
      "##os": 500,
      "##ih": 501,
      "##mek": 502,
      "##ca": 503,
      "yer": 504,
      "##op": 505,
      "##om": 506,
      "##ta": 507,
      "##tı": 508,
      "oldu": 509,
      "bul": 510,
      "##ru": 511,
      "##iş": 512,
      "##len": 513,
      "is": 514,
      "ay": 515,
      "##aya": 516,
      "##mıştır": 517,
      "ön": 518,
      "##eri": 519,
      "ed": 520,
      "taraf": 521,
      "Bu": 522,
      "##öl": 523,
      "##eh": 524,
      "yılında": 525,
      "##ark": 526,
      "bulun": 527,
      "##asında": 528,
      "##ip": 529,
      "##isi": 530,
      "##ib": 531,
      "##tad": 532,
      "##yon": 533,
      "##ic": 534,
      "en": 535,
      "##ha": 536,
      "##uş": 537,
      "tarafından": 538,
      "sonra": 539,
      "or": 540,
      "##ız": 541,
      "##iye": 542,
      "kul": 543,
      "##lık": 544,
      "##miştir": 545,
      "te": 546,
      "ver": 547,
      "##ürk": 548,
      "##cu": 549,
      "An": 550,
      "##cak": 551,
      "##üy": 552,
      "##ması": 553,
      "##zer": 554,
      "##yla": 555,
      "##tadır": 556,
      "##ans": 557,
      "kur": 558,
      "##ğu": 559,
      "##eş": 560,
      "##alı": 561,
      "##eli": 562,
      "Türk": 563,
      "##ının": 564,
      "##ör": 565,
      "##ed": 566,
      "##let": 567,
      "oy": 568,
      "##öy": 569,
      "##cı": 570,
      "##lerin": 571,
      "##uşt": 572,
      "##eni": 573,
      "##aç": 574,
      "bil": 575,
      "nın": 576,
      "##tan": 577,
      "kullan": 578,
      "Al": 579,
      "##ci": 580,
      "##uz": 581,
      "ilk": 582,
      "##anı": 583,
      "##ken": 584,
      "sür": 585,
      "edil": 586,
      "nin": 587,
      "##eb": 588,
      "tarih": 589,
      "##lay": 590,
      "kad": 591,
      "##ov": 592,
      "##uştur": 593,
      "##unda": 594,
      "daha": 595,
      "ın": 596,
      "##re": 597,
      "böl": 598,
      "çık": 599,
      "bağ": 600,
      "##üş": 601,
      "kon": 602,
      "dön": 603,
      "##laş": 604,
      "##art": 605,
      "##uk": 606,
      "##maktadır": 607,
      "gel": 608,
      "##unu": 609,
      "##daki": 610,
      "##arı": 611,
      "##ılan": 612,
      "##ilm": 613,
      "##lam": 614,
      "##ibi": 615,
      "##mekte": 616,
      "##ayı": 617,
      "##ers": 618,
      "##oy": 619,
      "geç": 620,
      "Ar": 621,
      "ad": 622,
      "üzer": 623,
      "##iv": 624,
      "##ilir": 625,
      "yaz": 626,
      "##üyük": 627,
      "##ec": 628,
      "##ot": 629,
      "sah": 630,
      "yön": 631,
      "##ili": 632,
      "yay": 633,
      "ken": 634,
      "##ada": 635,
      "ise": 636,
      "yaş": 637,
      "Bir": 638,
      "##ig": 639,
      "tak": 640,
      "##ilen": 641,
      "##miş": 642,
      "##erek": 643,
      "##mektedir": 644,
      "##iyle": 645,
      "##dığı": 646,
      "den": 647,
      "##ğer": 648,
      "doğ": 649,
      "ne": 650,
      "gün": 651,
      "##eler": 652,
      "##mış": 653,
      "gibi": 654,
      "##aman": 655,
      "yar": 656,
      "kal": 657,
      "##ter": 658,
      "aç": 659,
      "uz": 660,
      "tek": 661,
      "olm": 662,
      "sır": 663,
      "##id": 664,
      "##up": 665,
      "##leş": 666,
      "top": 667,
      "ya": 668,
      "alan": 669,
      "##sel": 670,
      "##üt": 671,
      "İs": 672,
      "gen": 673,
      "##ch": 674,
      "##esine": 675,
      "##lk": 676,
      "iş": 677,
      "es": 678,
      "##inden": 679,
      "##erk": 680,
      "on": 681,
      "karş": 682,
      "##larında": 683,
      "##ısı": 684,
      "##dür": 685,
      "##unun": 686,
      "##ara": 687,
      "dev": 688,
      "kat": 689,
      "##ade": 690,
      "##ret": 691,
      "arasında": 692,
      "çok": 693,
      "##rup": 694,
      "##if": 695,
      "##rı": 696,
      "##men": 697,
      "un": 698,
      "##ladı": 699,
      "##iyet": 700,
      "##tr": 701,
      "##eye": 702,
      "büyük": 703,
      "kadar": 704,
      "##lü": 705,
      "##ıldı": 706,
      "çal": 707,
      "##dü": 708,
      "takım": 709,
      "Am": 710,
      "##kin": 711,
      "##esinde": 712,
      "##ri": 713,
      "öl": 714,
      "kay": 715,
      "##larda": 716,
      "##ele": 717,
      "##si": 718,
      "pro": 719,
      "öz": 720,
      "##he": 721,
      "##çe": 722,
      "##usu": 723,
      "yak": 724,
      "##ildi": 725,
      "##uv": 726,
      "##iyon": 727,
      "##üs": 728,
      "iki": 729,
      "##ılı": 730,
      "var": 731,
      "zaman": 732,
      "veya": 733,
      "##lara": 734,
      "##ac": 735,
      "tan": 736,
      "##ing": 737,
      "bel": 738,
      "Av": 739,
      "Ay": 740,
      "##ran": 741,
      "##est": 742,
      "çalış": 743,
      "##ster": 744,
      "##larını": 745,
      "kaz": 746,
      "##bol": 747,
      "##liği": 748,
      "##ika": 749,
      "##avaş": 750,
      "##ede": 751,
      "##mas": 752,
      "##öz": 753,
      "##der": 754,
      "##erkez": 755,
      "yüz": 756,
      "ak": 757,
      "uy": 758,
      "##uy": 759,
      "bölg": 760,
      "##dur": 761,
      "İn": 762,
      "##por": 763,
      "dönem": 764,
      "##imi": 765,
      "##ub": 766,
      "görev": 767,
      "##anlı": 768,
      "##ale": 769,
      "yeni": 770,
      "yük": 771,
      "##ellik": 772,
      "birlik": 773,
      "##ayan": 774,
      "göre": 775,
      "##iğer": 776,
      "ara": 777,
      "##asyon": 778,
      "##üf": 779,
      "bağlı": 780,
      "##atı": 781,
      "şeh": 782,
      "as": 783,
      "##arak": 784,
      "adı": 785,
      "##raf": 786,
      "##ünde": 787,
      "##gi": 788,
      "##büm": 789,
      "##ley": 790,
      "hal": 791,
      "##gu": 792,
      "##nı": 793,
      "##amp": 794,
      "##üç": 795,
      "##tal": 796,
      "##ne": 797,
      "oyun": 798,
      "Türkiye": 799,
      "##oz": 800,
      "##met": 801,
      "sahip": 802,
      "mil": 803,
      "##istan": 804,
      "karşı": 805,
      "##tir": 806,
      "##larının": 807,
      "##olo": 808,
      "##mp": 809,
      "sağ": 810,
      "olduğu": 811,
      "##lerini": 812,
      "Er": 813,
      "##ındaki": 814,
      "göster": 815,
      "ilç": 816,
      "##ezon": 817,
      "kazan": 818,
      "##arkı": 819,
      "ger": 820,
      "alt": 821,
      "düz": 822,
      "km": 823,
      "par": 824,
      "gir": 825,
      "Amer": 826,
      "##una": 827,
      "##han": 828,
      "şek": 829,
      "düş": 830,
      "##ram": 831,
      "seç": 832,
      "Or": 833,
      "kiş": 834,
      "##ağı": 835,
      "##rans": 836,
      "##ust": 837,
      "ev": 838,
      "kap": 839,
      "yönet": 840,
      "##larına": 841,
      "##ep": 842,
      "tarihinde": 843,
      "##ren": 844,
      "##çek": 845,
      "nde": 846,
      "##maya": 847,
      "##ünya": 848,
      "##ğini": 849,
      "deği": 850,
      "##diği": 851,
      "En": 852,
      "Kar": 853,
      "dur": 854,
      "etti": 855,
      "maç": 856,
      "geli": 857,
      "birlikte": 858,
      "diğer": 859,
      "say": 860,
      "##gil": 861,
      "##azı": 862,
      "tem": 863,
      "##lem": 864,
      "##lerinde": 865,
      "ort": 866,
      "merkez": 867,
      "##lama": 868,
      "Ro": 869,
      "bulunan": 870,
      "##leştir": 871,
      "##ef": 872,
      "ek": 873,
      "tür": 874,
      "sezon": 875,
      "##tır": 876,
      "yayın": 877,
      "oyn": 878,
      "neden": 879,
      "san": 880,
      "##lek": 881,
      "##san": 882,
      "##rıca": 883,
      "el": 884,
      "##alık": 885,
      "##ştı": 886,
      "##yan": 887,
      "##lus": 888,
      "at": 889,
      "üç": 890,
      "ülk": 891,
      "kıs": 892,
      "Rus": 893,
      "##ten": 894,
      "Alman": 895,
      "kurul": 896,
      "önem": 897,
      "tam": 898,
      "der": 899,
      "##ka": 900,
      "##lerinin": 901,
      "##stan": 902,
      "her": 903,
      "albüm": 904,
      "belir": 905,
      "yan": 906,
      "##ça": 907,
      "##og": 908,
      "##mesi": 909,
      "##uh": 910,
      "nüf": 911,
      "yaptı": 912,
      "##iç": 913,
      "hay": 914,
      "##cü": 915,
      "##od": 916,
      "##niv": 917,
      "Gen": 918,
      "har": 919,
      "##tik": 920,
      "ser": 921,
      "##ımı": 922,
      "hak": 923,
      "##nivers": 924,
      "##oli": 925,
      "##ama": 926,
      "film": 927,
      "Os": 928,
      "boy": 929,
      "önce": 930,
      "##utbol": 931,
      "Ch": 932,
      "aldı": 933,
      "##sa": 934,
      "##üp": 935,
      "##oloj": 936,
      "nda": 937,
      "##lerde": 938,
      "##ordu": 939,
      "Dev": 940,
      "St": 941,
      "##ünü": 942,
      "sonu": 943,
      "kab": 944,
      "##iyas": 945,
      "gerçek": 946,
      "yol": 947,
      "##ılır": 948,
      "çek": 949,
      "##hur": 950,
      "##dül": 951,
      "aynı": 952,
      "##ket": 953,
      "##sek": 954,
      "##istem": 955,
      "##dar": 956,
      "##ile": 957,
      "öğ": 958,
      "##niversit": 959,
      "er": 960,
      "##lardan": 961,
      "##ellikle": 962,
      "adlı": 963,
      "##ge": 964,
      "##iyat": 965,
      "##orm": 966,
      "##ilmiştir": 967,
      "kend": 968,
      "taş": 969,
      "müz": 970,
      "dan": 971,
      "##eyi": 972,
      "köy": 973,
      "##lerinden": 974,
      "başladı": 975,
      "ada": 976,
      "Kon": 977,
      "İngil": 978,
      "gelen": 979,
      "Ak": 980,
      "ye": 981,
      "##ileri": 982,
      "##lab": 983,
      "##eki": 984,
      "Baş": 985,
      "bölüm": 986,
      "Tar": 987,
      "oluş": 988,
      "##ob": 989,
      "##ğunu": 990,
      "##se": 991,
      "##ğını": 992,
      "Ek": 993,
      "bilin": 994,
      "##larından": 995,
      "##lat": 996,
      "##lere": 997,
      "mah": 998,
      "açık": 999,
      "##ard": 1000,
      "##enin": 1001,
      "##bul": 1002,
      "önemli": 1003,
      "ama": 1004,
      "ilçesine": 1005,
      "##yi": 1006,
      "Frans": 1007,
      "##üşt": 1008,
      "Avrup": 1009,
      "sistem": 1010,
      "##ılmıştır": 1011,
      "##uzey": 1012,
      "fark": 1013,
      "söz": 1014,
      "düzen": 1015,
      "ok": 1016,
      "##ral": 1017,
      "met": 1018,
      "##ulu": 1019,
      "##ıy": 1020,
      "##umhur": 1021,
      "##landı": 1022,
      "##oğu": 1023,
      "##ent": 1024,
      "şarkı": 1025,
      "Osman": 1026,
      "etk": 1027,
      "ko": 1028,
      "##ült": 1029,
      "##luk": 1030,
      "##stanbul": 1031,
      "kö": 1032,
      "##van": 1033,
      "içinde": 1034,
      "bas": 1035,
      "İstanbul": 1036,
      "içer": 1037,
      "su": 1038,
      "##rub": 1039,
      "do": 1040,
      "##ag": 1041,
      "##ampiyon": 1042,
      "Dünya": 1043,
      "##rak": 1044,
      "##landır": 1045,
      "##kinci": 1046,
      "aş": 1047,
      "Avrupa": 1048,
      "Mar": 1049,
      "üret": 1050,
      "hem": 1051,
      "Ağ": 1052,
      "eğ": 1053,
      "üy": 1054,
      "##liğ": 1055,
      "Gün": 1056,
      "The": 1057,
      "kom": 1058,
      "oluştur": 1059,
      "##lerine": 1060,
      "eski": 1061,
      "yapılan": 1062,
      "##mes": 1063,
      "yet": 1064,
      "şekil": 1065,
      "##lanan": 1066,
      "tur": 1067,
      "##vet": 1068,
      "gerek": 1069,
      "##ck": 1070,
      "biri": 1071,
      "dir": 1072,
      "##ast": 1073,
      "nun": 1074,
      "San": 1075,
      "##ilik": 1076,
      "##les": 1077,
      "##çok": 1078,
      "mo": 1079,
      "##leme": 1080,
      "olmuştur": 1081,
      "##inal": 1082,
      "değiş": 1083,
      "az": 1084,
      "Mart": 1085,
      "ağ": 1086,
      "futbol": 1087,
      "kor": 1088,
      "##çi": 1089,
      "daki": 1090,
      "##ide": 1091,
      "##öyle": 1092,
      "##ia": 1093,
      "yüksek": 1094,
      "##tib": 1095,
      "##oğraf": 1096,
      "##amı": 1097,
      "##ow": 1098,
      "çev": 1099,
      "ta": 1100,
      "üst": 1101,
      "ayr": 1102,
      "##muştur": 1103,
      "Üniversit": 1104,
      "faz": 1105,
      "##tar": 1106,
      "##arat": 1107,
      "bazı": 1108,
      "tüm": 1109,
      "ancak": 1110,
      "diz": 1111,
      "dış": 1112,
      "##ocu": 1113,
      "ör": 1114,
      "As": 1115,
      "ist": 1116,
      "May": 1117,
      "AB": 1118,
      "##lığı": 1119,
      "##olu": 1120,
      "üzerinde": 1121,
      "üzere": 1122,
      "Ey": 1123,
      "##eşit": 1124,
      "##etir": 1125,
      "grup": 1126,
      "Ayrıca": 1127,
      "Mil": 1128,
      "ben": 1129,
      "sal": 1130,
      "uzak": 1131,
      "getir": 1132,
      "mü": 1133,
      "##yet": 1134,
      "durum": 1135,
      "savaş": 1136,
      "##şk": 1137,
      "Osmanlı": 1138,
      "##na": 1139,
      "Kur": 1140,
      "itib": 1141,
      "##las": 1142,
      "birçok": 1143,
      "Haz": 1144,
      "##üne": 1145,
      "##adı": 1146,
      "olmak": 1147,
      "Cumhur": 1148,
      "res": 1149,
      "##sız": 1150,
      "##bir": 1151,
      "Tarih": 1152,
      "iz": 1153,
      "Tem": 1154,
      "##asına": 1155,
      "şekilde": 1156,
      "ot": 1157,
      "Pro": 1158,
      "tamam": 1159,
      "##ılık": 1160,
      "Savaş": 1161,
      "sat": 1162,
      "Amerik": 1163,
      "##lendir": 1164,
      "##meye": 1165,
      "##aret": 1166,
      "##nak": 1167,
      "vardır": 1168,
      "kez": 1169,
      "Lig": 1170,
      "##kan": 1171,
      "ik": 1172,
      "##dından": 1173,
      "##alan": 1174,
      "##ecek": 1175,
      "##ber": 1176,
      "çıkar": 1177,
      "ili": 1178,
      "##iran": 1179,
      "kit": 1180,
      "##siyon": 1181,
      "bit": 1182,
      "##asar": 1183,
      "devam": 1184,
      "fazla": 1185,
      "üzerine": 1186,
      "##ınır": 1187,
      "Par": 1188,
      "kan": 1189,
      "##ehir": 1190,
      "yüzy": 1191,
      "##sal": 1192,
      "eş": 1193,
      "grub": 1194,
      "uzun": 1195,
      "Es": 1196,
      "çeşit": 1197,
      "kabul": 1198,
      "çalışma": 1199,
      "tut": 1200,
      "Öz": 1201,
      "insan": 1202,
      "başar": 1203,
      "Üniversitesi": 1204,
      "Ne": 1205,
      "Mayıs": 1206,
      "##isinde": 1207,
      "İlk": 1208,
      "##gan": 1209,
      "##ort": 1210,
      "##ava": 1211,
      "ABD": 1212,
      "##alle": 1213,
      "olduğunu": 1214,
      "göz": 1215,
      "##üçük": 1216,
      "##layan": 1217,
      "sanat": 1218,
      "bin": 1219,
      "Bil": 1220,
      "##ğü": 1221,
      "##luğu": 1222,
      "##esinin": 1223,
      "İngiliz": 1224,
      "##eled": 1225,
      "##ece": 1226,
      "bak": 1227,
      "##lül": 1228,
      "isim": 1229,
      "##larla": 1230,
      "##ion": 1231,
      "##ant": 1232,
      "##ılmış": 1233,
      "ikinci": 1234,
      "II": 1235,
      "gü": 1236,
      "##ekt": 1237,
      "##mparat": 1238,
      "##mparator": 1239,
      "şehir": 1240,
      "ilg": 1241,
      "sonr": 1242,
      "ask": 1243,
      "yüzyıl": 1244,
      "##itim": 1245,
      "ün": 1246,
      "eden": 1247,
      "##end": 1248,
      "olup": 1249,
      "yaklaş": 1250,
      "##asım": 1251,
      "değ": 1252,
      "Son": 1253,
      "##arası": 1254,
      "##okt": 1255,
      "##rin": 1256,
      "##aha": 1257,
      "bulunmaktadır": 1258,
      "ilinin": 1259,
      "Ekim": 1260,
      "of": 1261,
      "kendi": 1262,
      "Nis": 1263,
      "çocu": 1264,
      "##tü": 1265,
      "Haziran": 1266,
      "alın": 1267,
      "farklı": 1268,
      "##irket": 1269,
      "##anlığı": 1270,
      "##eg": 1271,
      "##elen": 1272,
      "Eylül": 1273,
      "güç": 1274,
      "##şti": 1275,
      "sor": 1276,
      "##ustos": 1277,
      "Birleş": 1278,
      "##ven": 1279,
      "##üştür": 1280,
      "##kı": 1281,
      "##duğu": 1282,
      "Devlet": 1283,
      "Kasım": 1284,
      "##undan": 1285,
      "Ağustos": 1286,
      "##det": 1287,
      "kariy": 1288,
      "yakın": 1289,
      "Br": 1290,
      "##emi": 1291,
      "dör": 1292,
      "##sı": 1293,
      "ardından": 1294,
      "Bey": 1295,
      "##eleri": 1296,
      "doğru": 1297,
      "##dım": 1298,
      "Bur": 1299,
      "##eket": 1300,
      "##atik": 1301,
      "Ocak": 1302,
      "##tif": 1303,
      "Aralık": 1304,
      "##çı": 1305,
      "genel": 1306,
      "dil": 1307,
      "##hil": 1308,
      "im": 1309,
      "geçir": 1310,
      "iyi": 1311,
      "Nisan": 1312,
      "##can": 1313,
      "devlet": 1314,
      "Cumhuriyet": 1315,
      "##ünün": 1316,
      "##layı": 1317,
      "nüfus": 1318,
      "Hal": 1319,
      "##muz": 1320,
      "##akat": 1321,
      "sırasında": 1322,
      "na": 1323,
      "##aat": 1324,
      "##nik": 1325,
      "geliştir": 1326,
      "##uvvet": 1327,
      "ortaya": 1328,
      "##ök": 1329,
      "tah": 1330,
      "hük": 1331,
      "siyas": 1332,
      "##yal": 1333,
      "uygu": 1334,
      "Daha": 1335,
      "##unca": 1336,
      "Amerika": 1337,
      "kuru": 1338,
      "##gı": 1339,
      "Böl": 1340,
      "oyuncu": 1341,
      "tes": 1342,
      "##ilerin": 1343,
      "##ışma": 1344,
      "##sil": 1345,
      "##ültür": 1346,
      "##of": 1347,
      "##gram": 1348,
      "##oğun": 1349,
      "mahalle": 1350,
      "Bak": 1351,
      "ter": 1352,
      "##unan": 1353,
      "süre": 1354,
      "duy": 1355,
      "##ştırma": 1356,
      "##aber": 1357,
      "##üb": 1358,
      "Kan": 1359,
      "##lerden": 1360,
      "##ısında": 1361,
      "Temmuz": 1362,
      "çeşitli": 1363,
      "uç": 1364,
      "##fes": 1365,
      "##ou": 1366,
      "rol": 1367,
      "In": 1368,
      "##ros": 1369,
      "öğren": 1370,
      "##oh": 1371,
      "##adece": 1372,
      "##ht": 1373,
      "hat": 1374,
      "##ğin": 1375,
      "##ali": 1376,
      "yen": 1377,
      "yılı": 1378,
      "özel": 1379,
      "Ancak": 1380,
      "for": 1381,
      "##ebilir": 1382,
      "tab": 1383,
      "##lî": 1384,
      "Birleşik": 1385,
      "##labilir": 1386,
      "kız": 1387,
      "Le": 1388,
      "##fer": 1389,
      "##bi": 1390,
      "görül": 1391,
      "##rar": 1392,
      "##ron": 1393,
      "düşün": 1394,
      "yılları": 1395,
      "##kanı": 1396,
      "At": 1397,
      "geri": 1398,
      "##lin": 1399,
      "yapı": 1400,
      "müzik": 1401,
      "Ulus": 1402,
      "##ğında": 1403,
      "##asının": 1404,
      "kişi": 1405,
      "Sov": 1406,
      "##lararası": 1407,
      "sayı": 1408,
      "##yo": 1409,
      "Sovyet": 1410,
      "eder": 1411,
      "zamanda": 1412,
      "##esini": 1413,
      "nedeniyle": 1414,
      "Ab": 1415,
      "##indeki": 1416,
      "anlam": 1417,
      "geliş": 1418,
      "##onya": 1419,
      "sınır": 1420,
      "Şub": 1421,
      "##zı": 1422,
      "olma": 1423,
      "##siz": 1424,
      "kes": 1425,
      "##inci": 1426,
      "##ilmiş": 1427,
      "sı": 1428,
      "##ılması": 1429,
      "küçük": 1430,
      "eser": 1431,
      "##iya": 1432,
      "Kom": 1433,
      "##lenen": 1434,
      "kaynak": 1435,
      "git": 1436,
      "yeniden": 1437,
      "İtal": 1438,
      "##anın": 1439,
      "boyunca": 1440,
      "Af": 1441,
      "giy": 1442,
      "##oğrafya": 1443,
      "##ümü": 1444,
      "##muş": 1445,
      "##müştür": 1446,
      "##deki": 1447,
      "kadın": 1448,
      "yaşam": 1449,
      "##mir": 1450,
      "Büyük": 1451,
      "Kral": 1452,
      "##masına": 1453,
      "yas": 1454,
      "##iyor": 1455,
      "##izmet": 1456,
      "hareket": 1457,
      "Co": 1458,
      "##lerle": 1459,
      "##aşa": 1460,
      "yaklaşık": 1461,
      "uzaklık": 1462,
      "##dik": 1463,
      "##lev": 1464,
      "##kek": 1465,
      "##asındaki": 1466,
      "ark": 1467,
      "sadece": 1468,
      "kuzey": 1469,
      "##ümüz": 1470,
      "Savaşı": 1471,
      "sen": 1472,
      "zor": 1473,
      "şirket": 1474,
      "##ina": 1475,
      "##üncü": 1476,
      "##lanmıştır": 1477,
      "##masını": 1478,
      "Yeni": 1479,
      "ulus": 1480,
      "##ari": 1481,
      "parç": 1482,
      "Han": 1483,
      "##üsü": 1484,
      "hayat": 1485,
      "Yar": 1486,
      "tanım": 1487,
      "##ly": 1488,
      "##estek": 1489,
      "##lak": 1490,
      "Şubat": 1491,
      "Har": 1492,
      "##ver": 1493,
      "fil": 1494,
      "Her": 1495,
      "##ton": 1496,
      "##lardır": 1497,
      "önc": 1498,
      "karar": 1499,
      "##ici": 1500,
      "ait": 1501,
      "sev": 1502,
      "##asını": 1503,
      "poli": 1504,
      "##bay": 1505,
      "##eniz": 1506,
      "Ank": 1507,
      "yı": 1508,
      "##pan": 1509,
      "Kaz": 1510,
      "##son": 1511,
      "Genel": 1512,
      "program": 1513,
      "kısa": 1514,
      "Oy": 1515,
      "Köy": 1516,
      "Kup": 1517,
      "##ırak": 1518,
      "##ana": 1519,
      "bur": 1520,
      "lis": 1521,
      "##lük": 1522,
      "##lamıştır": 1523,
      "##isini": 1524,
      "edildi": 1525,
      "##ova": 1526,
      "Kat": 1527,
      "hız": 1528,
      "##tiv": 1529,
      "Fransa": 1530,
      "##abilir": 1531,
      "Man": 1532,
      "##ug": 1533,
      "Almanya": 1534,
      "destek": 1535,
      "bilg": 1536,
      "Rusya": 1537,
      "Tek": 1538,
      "mez": 1539,
      "deki": 1540,
      "bulunur": 1541,
      "nüfusu": 1542,
      "dik": 1543,
      "eğitim": 1544,
      "Ankara": 1545,
      "ede": 1546,
      "saldır": 1547,
      "bırak": 1548,
      "dün": 1549,
      "Film": 1550,
      "##kları": 1551,
      "Coğrafya": 1552,
      "##lo": 1553,
      "##ıp": 1554,
      "Yunan": 1555,
      "gön": 1556,
      "final": 1557,
      "inş": 1558,
      "geniş": 1559,
      "##ud": 1560,
      "art": 1561,
      "edilen": 1562,
      "##üc": 1563,
      "##pr": 1564,
      "Ödül": 1565,
      "##isinin": 1566,
      "Sh": 1567,
      "haz": 1568,
      "hizmet": 1569,
      "İl": 1570,
      "değil": 1571,
      "oğ": 1572,
      "dağ": 1573,
      "dört": 1574,
      "çevr": 1575,
      "görün": 1576,
      "ses": 1577,
      "orta": 1578,
      "##ye": 1579,
      "çıktı": 1580,
      "seçim": 1581,
      "if": 1582,
      "ödül": 1583,
      "kır": 1584,
      "##lığ": 1585,
      "kent": 1586,
      "##izm": 1587,
      "ro": 1588,
      "sık": 1589,
      "##ich": 1590,
      "milyon": 1591,
      "gol": 1592,
      "##ılım": 1593,
      "mev": 1594,
      "##ünden": 1595,
      "bab": 1596,
      "Bunun": 1597,
      "##usunda": 1598,
      "##ga": 1599,
      "bilim": 1600,
      "değer": 1601,
      "has": 1602,
      "İmparator": 1603,
      "dahil": 1604,
      "##med": 1605,
      "Kal": 1606,
      "rağ": 1607,
      "altında": 1608,
      "güney": 1609,
      "##pe": 1610,
      "##per": 1611,
      "yardım": 1612,
      "##şı": 1613,
      "ulaş": 1614,
      "##landa": 1615,
      "hakk": 1616,
      "Jap": 1617,
      "şampiyon": 1618,
      "ilgili": 1619,
      "##gün": 1620,
      "olması": 1621,
      "Güney": 1622,
      "tasar": 1623,
      "haf": 1624,
      "Muh": 1625,
      "##eder": 1626,
      "kayb": 1627,
      "##cek": 1628,
      "rağmen": 1629,
      "##deş": 1630,
      "##gın": 1631,
      "##ost": 1632,
      "yerleş": 1633,
      "New": 1634,
      "##eme": 1635,
      "##osyal": 1636,
      "belirt": 1637,
      "Ser": 1638,
      "karak": 1639,
      "##ord": 1640,
      "ilişk": 1641,
      "tip": 1642,
      "mak": 1643,
      "##üdür": 1644,
      "sıra": 1645,
      "##eti": 1646,
      "yür": 1647,
      "Şampiyon": 1648,
      "##lacak": 1649,
      "##yalet": 1650,
      "halk": 1651,
      "Fransız": 1652,
      "##leti": 1653,
      "##isine": 1654,
      "konu": 1655,
      "temsil": 1656,
      "El": 1657,
      "futbolcu": 1658,
      "Hol": 1659,
      "yerine": 1660,
      "##ij": 1661,
      "##ba": 1662,
      "Top": 1663,
      "gaz": 1664,
      "Tarihçe": 1665,
      "uzaklıktadır": 1666,
      "almıştır": 1667,
      "yüksel": 1668,
      "Kor": 1669,
      "kazandı": 1670,
      "yaptığı": 1671,
      "Doğu": 1672,
      "##mayı": 1673,
      "##baş": 1674,
      "##enk": 1675,
      "Part": 1676,
      "##kü": 1677,
      "##kaç": 1678,
      "genellikle": 1679,
      "Ok": 1680,
      "edilmiştir": 1681,
      "ana": 1682,
      "geldi": 1683,
      "merkezi": 1684,
      "Ada": 1685,
      "##isyon": 1686,
      "Alt": 1687,
      "sil": 1688,
      "söy": 1689,
      "list": 1690,
      "sav": 1691,
      "ele": 1692,
      "topl": 1693,
      "mode": 1694,
      "##eyen": 1695,
      "plan": 1696,
      "##adde": 1697,
      "##ütün": 1698,
      "ifade": 1699,
      "##ınıf": 1700,
      "kullanı": 1701,
      "yayım": 1702,
      "gerçekleştir": 1703,
      "tekrar": 1704,
      "başka": 1705,
      "Kır": 1706,
      "##alt": 1707,
      "Kupası": 1708,
      "Th": 1709,
      "onun": 1710,
      "Mah": 1711,
      "Bel": 1712,
      "ayrıca": 1713,
      "Çin": 1714,
      "##rist": 1715,
      "Tur": 1716,
      "per": 1717,
      "##oş": 1718,
      "##eng": 1719,
      "##ılmaktadır": 1720,
      "##umu": 1721,
      "asker": 1722,
      "##ilmesi": 1723,
      "kültür": 1724,
      "anlaş": 1725,
      "deniz": 1726,
      "the": 1727,
      "hazır": 1728,
      "Kuzey": 1729,
      "##elik": 1730,
      "Dem": 1731,
      "temel": 1732,
      "çalı": 1733,
      "toplam": 1734,
      "Der": 1735,
      "bey": 1736,
      "olay": 1737,
      "gönder": 1738,
      "##ider": 1739,
      "Wil": 1740,
      "##uluk": 1741,
      "sahiptir": 1742,
      "değiştir": 1743,
      "##ni": 1744,
      "##lim": 1745,
      "şark": 1746,
      "ölç": 1747,
      "Amerikan": 1748,
      "Cumhuriyeti": 1749,
      "##onom": 1750,
      "##cade": 1751,
      "Bar": 1752,
      "ber": 1753,
      "##co": 1754,
      "kil": 1755,
      "##ift": 1756,
      "##hi": 1757,
      "Tan": 1758,
      "ölüm": 1759,
      "##fa": 1760,
      "##lendi": 1761,
      "millî": 1762,
      "Ma": 1763,
      "form": 1764,
      "##orn": 1765,
      "ür": 1766,
      "kuvvet": 1767,
      "muh": 1768,
      "sin": 1769,
      "seb": 1770,
      "##cusu": 1771,
      "dünya": 1772,
      "mal": 1773,
      "##ğinde": 1774,
      "##ry": 1775,
      "itibarı": 1776,
      "Ko": 1777,
      "##ond": 1778,
      "öldür": 1779,
      "çocuk": 1780,
      "yarış": 1781,
      "##fi": 1782,
      "adıyla": 1783,
      "Paşa": 1784,
      "elek": 1785,
      "##tern": 1786,
      "##urt": 1787,
      "##emek": 1788,
      "tarihi": 1789,
      "ler": 1790,
      "çıkan": 1791,
      "özellikle": 1792,
      "Roma": 1793,
      "beş": 1794,
      "toprak": 1795,
      "dal": 1796,
      "sınıf": 1797,
      "##min": 1798,
      "olur": 1799,
      "araştırma": 1800,
      "ağır": 1801,
      "kullanılan": 1802,
      "bilinen": 1803,
      "##tem": 1804,
      "##lis": 1805,
      "##ation": 1806,
      "Ara": 1807,
      "eyalet": 1808,
      "sonuç": 1809,
      "##ıt": 1810,
      "##anda": 1811,
      "##anan": 1812,
      "birkaç": 1813,
      "##amak": 1814,
      "##osu": 1815,
      "beled": 1816,
      "Müz": 1817,
      "sun": 1818,
      "##azi": 1819,
      "##ılığı": 1820,
      "yapan": 1821,
      "ten": 1822,
      "arasındaki": 1823,
      "##gun": 1824,
      "##ktan": 1825,
      "##cısı": 1826,
      "##oloji": 1827,
      "mey": 1828,
      "##oğlu": 1829,
      "mes": 1830,
      "##larıyla": 1831,
      "##mıştı": 1832,
      "Birliği": 1833,
      "##ultan": 1834,
      "değişik": 1835,
      "imz": 1836,
      "keş": 1837,
      "##anıt": 1838,
      "dav": 1839,
      "##umlu": 1840,
      "yaşında": 1841,
      "Ali": 1842,
      "On": 1843,
      "din": 1844,
      "##dia": 1845,
      "öğret": 1846,
      "İz": 1847,
      "##ilmektedir": 1848,
      "gelir": 1849,
      "giriş": 1850,
      "##tiği": 1851,
      "##eden": 1852,
      "yazar": 1853,
      "##lamak": 1854,
      "kaç": 1855,
      "##nek": 1856,
      "##maz": 1857,
      "##br": 1858,
      "##azar": 1859,
      "##ektör": 1860,
      "Dan": 1861,
      "lig": 1862,
      "Fil": 1863,
      "##bo": 1864,
      "##ımsız": 1865,
      "Sal": 1866,
      "kim": 1867,
      "özellik": 1868,
      "##aren": 1869,
      "Oyun": 1870,
      "Gal": 1871,
      "##spor": 1872,
      "##izyon": 1873,
      "inşa": 1874,
      "kayı": 1875,
      "Ev": 1876,
      "Kad": 1877,
      "alır": 1878,
      "##ser": 1879,
      "beraber": 1880,
      "Hay": 1881,
      "proj": 1882,
      "Mal": 1883,
      "##ekli": 1884,
      "##este": 1885,
      "##ork": 1886,
      "karakter": 1887,
      "Azer": 1888,
      "biç": 1889,
      "##land": 1890,
      "günümüz": 1891,
      "##qu": 1892,
      "De": 1893,
      "gal": 1894,
      "kav": 1895,
      "##gel": 1896,
      "##ind": 1897,
      "##ısır": 1898,
      "takımı": 1899,
      "Deniz": 1900,
      "id": 1901,
      "kıy": 1902,
      "verdi": 1903,
      "man": 1904,
      "##bur": 1905,
      "##ime": 1906,
      "##ekiz": 1907,
      "adlandır": 1908,
      "##sik": 1909,
      "##lerdir": 1910,
      "elde": 1911,
      "##fesyon": 1912,
      "Joh": 1913,
      "##sam": 1914,
      "##to": 1915,
      "##FA": 1916,
      "##iyordu": 1917,
      "İspan": 1918,
      "##for": 1919,
      "idar": 1920,
      "##fesyonel": 1921,
      "Kı": 1922,
      "##ars": 1923,
      "kontr": 1924,
      "kitap": 1925,
      "Ber": 1926,
      "cin": 1927,
      "Gür": 1928,
      "##rat": 1929,
      "etmek": 1930,
      "genç": 1931,
      "##ûmet": 1932,
      "kariyer": 1933,
      "İsv": 1934,
      "##asyonu": 1935,
      "etmiştir": 1936,
      "erkek": 1937,
      "Yah": 1938,
      "##luğ": 1939,
      "##leyen": 1940,
      "amacı": 1941,
      "güven": 1942,
      "itibaren": 1943,
      "merkezine": 1944,
      "oğlu": 1945,
      "adını": 1946,
      "##tere": 1947,
      "sonucu": 1948,
      "Fran": 1949,
      "##manın": 1950,
      "sırada": 1951,
      "oluşan": 1952,
      "##eral": 1953,
      "##ıldığı": 1954,
      "İş": 1955,
      "John": 1956,
      "##ize": 1957,
      "##acak": 1958,
      "##nuv": 1959,
      "Orta": 1960,
      "yarı": 1961,
      "Şarkı": 1962,
      "bağlan": 1963,
      "Azerbay": 1964,
      "Ör": 1965,
      "Aynı": 1966,
      "sezonunda": 1967,
      "mücade": 1968,
      "fa": 1969,
      "kuş": 1970,
      "Mo": 1971,
      "sonunda": 1972,
      "yapmıştır": 1973,
      "mahalledir": 1974,
      "##rik": 1975,
      "yönetim": 1976,
      "şu": 1977,
      "Kız": 1978,
      "kem": 1979,
      "konuş": 1980,
      "komut": 1981,
      "çağ": 1982,
      "##lav": 1983,
      "Amerikalı": 1984,
      "çap": 1985,
      "olmayan": 1986,
      "Kazak": 1987,
      "hiç": 1988,
      "##iir": 1989,
      "##ji": 1990,
      "##esinden": 1991,
      "Has": 1992,
      "trans": 1993,
      "##rail": 1994,
      "ail": 1995,
      "##dana": 1996,
      "##olojik": 1997,
      "hav": 1998,
      "##gar": 1999,
      "##esel": 2000,
      "##ayas": 2001,
      "beri": 2002,
      "##tin": 2003,
      "av": 2004,
      "##amış": 2005,
      "##kat": 2006,
      "##ydı": 2007,
      "##leriyle": 2008,
      "döneminde": 2009,
      "bar": 2010,
      "##laştı": 2011,
      "##iyan": 2012,
      "arkada": 2013,
      "##cut": 2014,
      "##amıştır": 2015,
      "Go": 2016,
      "bah": 2017,
      "yi": 2018,
      "etkin": 2019,
      "Eski": 2020,
      "Kay": 2021,
      "dayan": 2022,
      "num": 2023,
      "ülke": 2024,
      "Bun": 2025,
      "yapım": 2026,
      "gazet": 2027,
      "eki": 2028,
      "##rim": 2029,
      "##bak": 2030,
      "onu": 2031,
      "##yor": 2032,
      "Meh": 2033,
      "Mısır": 2034,
      "uğ": 2035,
      "Partisi": 2036,
      "Sp": 2037,
      "##oks": 2038,
      "şekl": 2039,
      "Azerbaycan": 2040,
      "##tu": 2041,
      "##tral": 2042,
      "ülkeler": 2043,
      "##ilece": 2044,
      "mik": 2045,
      "##ens": 2046,
      "##teş": 2047,
      "ayrı": 2048,
      "##ire": 2049,
      "sürdür": 2050,
      "koy": 2051,
      "##mesine": 2052,
      "hakkında": 2053,
      "Eur": 2054,
      "pop": 2055,
      "Anad": 2056,
      "İtalya": 2057,
      "kardeş": 2058,
      "grubu": 2059,
      "##uma": 2060,
      "##lanır": 2061,
      "almaktadır": 2062,
      "Ben": 2063,
      "kol": 2064,
      "verilen": 2065,
      "Ah": 2066,
      "##üler": 2067,
      "İsrail": 2068,
      "çiz": 2069,
      "aday": 2070,
      "dolayı": 2071,
      "Devletleri": 2072,
      "filmi": 2073,
      "taşı": 2074,
      "Sa": 2075,
      "spor": 2076,
      "##tay": 2077,
      "##vek": 2078,
      "##aka": 2079,
      "##ula": 2080,
      "##inc": 2081,
      "##ami": 2082,
      "tic": 2083,
      "##ince": 2084,
      "##lanmış": 2085,
      "Batı": 2086,
      "Mon": 2087,
      "bağımsız": 2088,
      "Merkez": 2089,
      "Sch": 2090,
      "yanı": 2091,
      "##aj": 2092,
      "##mesini": 2093,
      "lar": 2094,
      "yarat": 2095,
      "üyesi": 2096,
      "silah": 2097,
      "Anadolu": 2098,
      "##asından": 2099,
      "kontrol": 2100,
      "organ": 2101,
      "hüküm": 2102,
      "##ang": 2103,
      "ortak": 2104,
      "İngiltere": 2105,
      "taki": 2106,
      "Be": 2107,
      "##suz": 2108,
      "##res": 2109,
      "##rika": 2110,
      "##medi": 2111,
      "Gök": 2112,
      "Sultan": 2113,
      "##atör": 2114,
      "##udi": 2115,
      "##meni": 2116,
      "##mişti": 2117,
      "kaldı": 2118,
      "##sk": 2119,
      "##ilecek": 2120,
      "Albüm": 2121,
      "##lüğ": 2122,
      "##ve": 2123,
      "alı": 2124,
      "st": 2125,
      "Bas": 2126,
      "Yer": 2127,
      "piyas": 2128,
      "sar": 2129,
      "dışında": 2130,
      "##ğine": 2131,
      "##limp": 2132,
      "dönemde": 2133,
      "kas": 2134,
      "##ank": 2135,
      "bütün": 2136,
      "Mat": 2137,
      "##imleri": 2138,
      "kr": 2139,
      "ilçe": 2140,
      "##yanın": 2141,
      "Ad": 2142,
      "bun": 2143,
      "##lah": 2144,
      "##yalı": 2145,
      "itibarıyla": 2146,
      "Kul": 2147,
      "kale": 2148,
      "saat": 2149,
      "Ant": 2150,
      "##letvek": 2151,
      "albümü": 2152,
      "bat": 2153,
      "##ong": 2154,
      "yaygın": 2155,
      "Ligi": 2156,
      "savun": 2157,
      "dır": 2158,
      "Spor": 2159,
      "##bilir": 2160,
      "##tur": 2161,
      "edilir": 2162,
      "gem": 2163,
      "##izik": 2164,
      "ekonom": 2165,
      "##iyatro": 2166,
      "##GC": 2167,
      "##liğini": 2168,
      "ord": 2169,
      "kulüb": 2170,
      "##adem": 2171,
      "Su": 2172,
      "yat": 2173,
      "okul": 2174,
      "model": 2175,
      "Car": 2176,
      "Pet": 2177,
      "Sam": 2178,
      "##aliyet": 2179,
      "##uştu": 2180,
      "elektr": 2181,
      "can": 2182,
      "##din": 2183,
      "##iydi": 2184,
      "##pit": 2185,
      "##yen": 2186,
      "yoğun": 2187,
      "##kenin": 2188,
      "İmparatorluğu": 2189,
      "Beled": 2190,
      "büy": 2191,
      "benzer": 2192,
      "siyasi": 2193,
      "keşf": 2194,
      "don": 2195,
      "##aw": 2196,
      "##ladığı": 2197,
      "yıllarında": 2198,
      "Se": 2199,
      "##lenmiştir": 2200,
      "kariyeri": 2201,
      "Dav": 2202,
      "renk": 2203,
      "Bay": 2204,
      "##gen": 2205,
      "##asıyla": 2206,
      "##otor": 2207,
      "##lor": 2208,
      "##meyi": 2209,
      "düny": 2210,
      "Bul": 2211,
      "bek": 2212,
      "##mer": 2213,
      "##ilere": 2214,
      "metre": 2215,
      "##mez": 2216,
      "##laştır": 2217,
      "##iyi": 2218,
      "##orum": 2219,
      "##efer": 2220,
      "yine": 2221,
      "##be": 2222,
      "içerisinde": 2223,
      "##leşme": 2224,
      "köydür": 2225,
      "##oktor": 2226,
      "mücadele": 2227,
      "Di": 2228,
      "tanın": 2229,
      "eleştir": 2230,
      "##lidir": 2231,
      "##aba": 2232,
      "kalan": 2233,
      "şehr": 2234,
      "ünlü": 2235,
      "keli": 2236,
      "İran": 2237,
      "Bölg": 2238,
      "kayıt": 2239,
      "biçim": 2240,
      "NGC": 2241,
      "Tak": 2242,
      "rek": 2243,
      "görüş": 2244,
      "bulundu": 2245,
      "şey": 2246,
      "##air": 2247,
      "##uan": 2248,
      "birbir": 2249,
      "##ell": 2250,
      "oynadı": 2251,
      "Bal": 2252,
      "##und": 2253,
      "##ayet": 2254,
      "##itler": 2255,
      "##tığı": 2256,
      "han": 2257,
      "hava": 2258,
      "Sanat": 2259,
      "çalıştı": 2260,
      "faaliyet": 2261,
      "Doğ": 2262,
      "söyle": 2263,
      "##ener": 2264,
      "##rop": 2265,
      "##forman": 2266,
      "Re": 2267,
      "##öylece": 2268,
      "Kit": 2269,
      "Sar": 2270,
      "dem": 2271,
      "idi": 2272,
      "üçüncü": 2273,
      "suç": 2274,
      "##yum": 2275,
      "aldığı": 2276,
      "##dern": 2277,
      "mevcut": 2278,
      "la": 2279,
      "##int": 2280,
      "kurulan": 2281,
      "##ışı": 2282,
      "##neğin": 2283,
      "Me": 2284,
      "Uz": 2285,
      "##her": 2286,
      "##aln": 2287,
      "##ikâ": 2288,
      "Uluslararası": 2289,
      "yürüt": 2290,
      "##evi": 2291,
      "yapımı": 2292,
      "turnuv": 2293,
      "roman": 2294,
      "inan": 2295,
      "York": 2296,
      "vur": 2297,
      "##tür": 2298,
      "olduğ": 2299,
      "isimli": 2300,
      "ürün": 2301,
      "fakat": 2302,
      "teknik": 2303,
      "Gir": 2304,
      "##kanlığı": 2305,
      "##sun": 2306,
      "##lüm": 2307,
      "##lkenin": 2308,
      "biridir": 2309,
      "##alnız": 2310,
      "Port": 2311,
      "çöz": 2312,
      "Şeh": 2313,
      "katıldı": 2314,
      "telev": 2315,
      "Bo": 2316,
      "hâ": 2317,
      "çar": 2318,
      "bulunduğu": 2319,
      "sahibi": 2320,
      "parçası": 2321,
      "dikkat": 2322,
      "futbolcudur": 2323,
      "##ideo": 2324,
      "televizyon": 2325,
      "##tör": 2326,
      "transfer": 2327,
      "##limpiyat": 2328,
      "kullanılır": 2329,
      "sırt": 2330,
      "kitab": 2331,
      "##ğın": 2332,
      "atan": 2333,
      "sem": 2334,
      "çift": 2335,
      "##aban": 2336,
      "sonuc": 2337,
      "Kıbr": 2338,
      "Lis": 2339,
      "##afa": 2340,
      "Halk": 2341,
      "Kıbrıs": 2342,
      "Mic": 2343,
      "##ris": 2344,
      "##and": 2345,
      "##iliği": 2346,
      "sistemi": 2347,
      "hemen": 2348,
      "para": 2349,
      "şiir": 2350,
      "##lemek": 2351,
      "Mor": 2352,
      "iste": 2353,
      "sonraki": 2354,
      "And": 2355,
      "Mac": 2356,
      "##ograf": 2357,
      "##imler": 2358,
      "başken": 2359,
      "iht": 2360,
      "Ön": 2361,
      "##bah": 2362,
      "olduk": 2363,
      "Kö": 2364,
      "boz": 2365,
      "##ansı": 2366,
      "geçen": 2367,
      "So": 2368,
      "Paris": 2369,
      "Fak": 2370,
      "##ledi": 2371,
      "Arap": 2372,
      "madde": 2373,
      "part": 2374,
      "##şta": 2375,
      "kaldır": 2376,
      "##lüğü": 2377,
      "##sin": 2378,
      "yaşayan": 2379,
      "##rek": 2380,
      "##isk": 2381,
      "##ilerek": 2382,
      "Yaş": 2383,
      "em": 2384,
      "hüc": 2385,
      "nden": 2386,
      "##ff": 2387,
      "##ema": 2388,
      "##düğü": 2389,
      "gelenek": 2390,
      "hükûmet": 2391,
      "##ğa": 2392,
      "göç": 2393,
      "cez": 2394,
      "##arlar": 2395,
      "Afrika": 2396,
      "Val": 2397,
      "dok": 2398,
      "##alar": 2399,
      "çoğun": 2400,
      "##dek": 2401,
      "##hangi": 2402,
      "amaç": 2403,
      "Pa": 2404,
      "Per": 2405,
      "Tüm": 2406,
      "##ray": 2407,
      "##ciler": 2408,
      "yılından": 2409,
      "derg": 2410,
      "hayvan": 2411,
      "##şehir": 2412,
      "##yordu": 2413,
      "##ick": 2414,
      "örnek": 2415,
      "şeklinde": 2416,
      "Yap": 2417,
      "yağ": 2418,
      "##one": 2419,
      "ayak": 2420,
      "tespit": 2421,
      "İyi": 2422,
      "uluslararası": 2423,
      "Pol": 2424,
      "rad": 2425,
      "##güt": 2426,
      "##ham": 2427,
      "##uyu": 2428,
      "parça": 2429,
      "##ketbol": 2430,
      "##go": 2431,
      "##müş": 2432,
      "yıllarda": 2433,
      "doğdu": 2434,
      "Tra": 2435,
      "##dığını": 2436,
      "##üzel": 2437,
      "kuruluş": 2438,
      "Ulusal": 2439,
      "burada": 2440,
      "Yaz": 2441,
      "##ate": 2442,
      "bölgeler": 2443,
      "##şık": 2444,
      "##cılığı": 2445,
      "##mada": 2446,
      "##lenir": 2447,
      "başarılı": 2448,
      "pek": 2449,
      "##ty": 2450,
      "Ter": 2451,
      "dönüş": 2452,
      "kaybet": 2453,
      "##ırı": 2454,
      "ettiği": 2455,
      "yolu": 2456,
      "iddia": 2457,
      "pat": 2458,
      "sosyal": 2459,
      "##diler": 2460,
      "##lac": 2461,
      "##uldu": 2462,
      "##ustral": 2463,
      "##masıyla": 2464,
      "Ge": 2465,
      "altı": 2466,
      "saldırı": 2467,
      "Yön": 2468,
      "##cisi": 2469,
      "ince": 2470,
      "bitir": 2471,
      "##burg": 2472,
      "Futbol": 2473,
      "İç": 2474,
      "##ner": 2475,
      "Ödülü": 2476,
      "Ed": 2477,
      "He": 2478,
      "##onu": 2479,
      "##izi": 2480,
      "Ste": 2481,
      "hede": 2482,
      "yıldı": 2483,
      "yerel": 2484,
      "yazı": 2485,
      "Yıl": 2486,
      "Yük": 2487,
      "##tor": 2488,
      "##iss": 2489,
      "derece": 2490,
      "sanatçı": 2491,
      "babası": 2492,
      "kah": 2493,
      "soy": 2494,
      "ismi": 2495,
      "##za": 2496,
      "kulüp": 2497,
      "##ukuk": 2498,
      "siyaset": 2499,
      "sayıda": 2500,
      "kam": 2501,
      "##ite": 2502,
      "anla": 2503,
      "##iforn": 2504,
      "kut": 2505,
      "##nesi": 2506,
      "##langı": 2507,
      "şehri": 2508,
      "Un": 2509,
      "olabilir": 2510,
      "##madan": 2511,
      "Türkçe": 2512,
      "yanında": 2513,
      "##kın": 2514,
      "##estiv": 2515,
      "##liam": 2516,
      "forma": 2517,
      "belediye": 2518,
      "##hat": 2519,
      "MÖ": 2520,
      "Pr": 2521,
      "##aması": 2522,
      "##str": 2523,
      "sezonu": 2524,
      "benz": 2525,
      "İngilizce": 2526,
      "Sır": 2527,
      "yalnız": 2528,
      "##kil": 2529,
      "##rol": 2530,
      "performan": 2531,
      "med": 2532,
      "##ala": 2533,
      "##ısını": 2534,
      "##uvar": 2535,
      "Kadın": 2536,
      "Kazakistan": 2537,
      "Diğer": 2538,
      "kral": 2539,
      "mim": 2540,
      "##kem": 2541,
      "yıllık": 2542,
      "İzmir": 2543,
      "bunun": 2544,
      "ilan": 2545,
      "çoğu": 2546,
      "Şehir": 2547,
      "Avustral": 2548,
      "Biz": 2549,
      "##ie": 2550,
      "##masının": 2551,
      "uygun": 2552,
      "##tık": 2553,
      "ona": 2554,
      "vardı": 2555,
      "anlamına": 2556,
      "Met": 2557,
      "mat": 2558,
      "##ity": 2559,
      "başarı": 2560,
      "işg": 2561,
      "herhangi": 2562,
      "resmi": 2563,
      "Dön": 2564,
      "uyar": 2565,
      "Do": 2566,
      "lider": 2567,
      "ni": 2568,
      "##gin": 2569,
      "##lisi": 2570,
      "başlayan": 2571,
      "Şampiyonası": 2572,
      "Ven": 2573,
      "##etim": 2574,
      "##ustur": 2575,
      "Japon": 2576,
      "iline": 2577,
      "başkanı": 2578,
      "anlat": 2579,
      "ayında": 2580,
      "##ehri": 2581,
      "Mek": 2582,
      "Yüz": 2583,
      "##esiyle": 2584,
      "and": 2585,
      "girdi": 2586,
      "askeri": 2587,
      "poz": 2588,
      "##va": 2589,
      "##els": 2590,
      "geçti": 2591,
      "edeb": 2592,
      "Küt": 2593,
      "amp": 2594,
      "##doğ": 2595,
      "##era": 2596,
      "tep": 2597,
      "öldü": 2598,
      "##taydı": 2599,
      "Fakült": 2600,
      "##enn": 2601,
      "##avi": 2602,
      "##üper": 2603,
      "amacıyla": 2604,
      "Beş": 2605,
      "Kara": 2606,
      "##amil": 2607,
      "sayım": 2608,
      "gerçekleş": 2609,
      "toplum": 2610,
      "Sur": 2611,
      "baz": 2612,
      "##ağını": 2613,
      "##istik": 2614,
      "##omet": 2615,
      "aşağı": 2616,
      "şarkısı": 2617,
      "Sin": 2618,
      "##rom": 2619,
      "##ision": 2620,
      "araç": 2621,
      "küt": 2622,
      "re": 2623,
      "##sh": 2624,
      "teor": 2625,
      "piyasaya": 2626,
      "sonucunda": 2627,
      "dak": 2628,
      "##meden": 2629,
      "##cılar": 2630,
      "düzenlenen": 2631,
      "##ise": 2632,
      "##ames": 2633,
      "##ore": 2634,
      "yılına": 2635,
      "veren": 2636,
      "##üyle": 2637,
      "##eşil": 2638,
      "Bab": 2639,
      "motor": 2640,
      "hiçbir": 2641,
      "Mus": 2642,
      "##mal": 2643,
      "yönünde": 2644,
      "katıl": 2645,
      "maçta": 2646,
      "Feder": 2647,
      "mer": 2648,
      "Genç": 2649,
      "Ap": 2650,
      "Müs": 2651,
      "ki": 2652,
      "##th": 2653,
      "tekn": 2654,
      "##ack": 2655,
      "Col": 2656,
      "ziy": 2657,
      "ülkenin": 2658,
      "##masında": 2659,
      "##etik": 2660,
      "engel": 2661,
      "güçlü": 2662,
      "uygulama": 2663,
      "Eğ": 2664,
      "Yak": 2665,
      "sol": 2666,
      "İkinci": 2667,
      "cm": 2668,
      "gele": 2669,
      "##dın": 2670,
      "Em": 2671,
      "nes": 2672,
      "Üç": 2673,
      "##ene": 2674,
      "##makta": 2675,
      "liste": 2676,
      "Hrist": 2677,
      "hale": 2678,
      "##our": 2679,
      "ism": 2680,
      "##siyonu": 2681,
      "sıcak": 2682,
      "sim": 2683,
      "##ğe": 2684,
      "##ras": 2685,
      "ener": 2686,
      "alanı": 2687,
      "yüzyılda": 2688,
      "##emen": 2689,
      "Grup": 2690,
      "Olimpiyat": 2691,
      "adet": 2692,
      "boş": 2693,
      "bildir": 2694,
      "##sidir": 2695,
      "Avustur": 2696,
      "değildir": 2697,
      "hafta": 2698,
      "teh": 2699,
      "Krallık": 2700,
      "Tat": 2701,
      "hikâ": 2702,
      "##ice": 2703,
      "haline": 2704,
      "dizi": 2705,
      "sorun": 2706,
      "çat": 2707,
      "##ören": 2708,
      "##taş": 2709,
      "deney": 2710,
      "koş": 2711,
      "##bert": 2712,
      "Mec": 2713,
      "##su": 2714,
      "milletvek": 2715,
      "imparator": 2716,
      "##stit": 2717,
      "başında": 2718,
      "Aş": 2719,
      "Fakat": 2720,
      "pay": 2721,
      "##çak": 2722,
      "başlamıştır": 2723,
      "günü": 2724,
      "##liğinde": 2725,
      "başına": 2726,
      "##üldü": 2727,
      "##talık": 2728,
      "Ef": 2729,
      "am": 2730,
      "##lığını": 2731,
      "dair": 2732,
      "##ısına": 2733,
      "konum": 2734,
      "İtalyan": 2735,
      "oldukça": 2736,
      "Com": 2737,
      "La": 2738,
      "edilmiş": 2739,
      "Hat": 2740,
      "kı": 2741,
      "sak": 2742,
      "##üle": 2743,
      "olmuş": 2744,
      "Hollanda": 2745,
      "keşfed": 2746,
      "Kem": 2747,
      "Kuvvet": 2748,
      "##ke": 2749,
      "çalışan": 2750,
      "kurulmuştur": 2751,
      "Kızıl": 2752,
      "Mad": 2753,
      "##iyesi": 2754,
      "doğal": 2755,
      "##ildiği": 2756,
      "Asya": 2757,
      "Kanada": 2758,
      "Altın": 2759,
      "Avustralya": 2760,
      "Göl": 2761,
      "Ha": 2762,
      "Sen": 2763,
      "mek": 2764,
      "##ısından": 2765,
      "etmektedir": 2766,
      "işlem": 2767,
      "taşın": 2768,
      "bilinir": 2769,
      "Mos": 2770,
      "##laşma": 2771,
      "yönetmen": 2772,
      "izin": 2773,
      "sonrasında": 2774,
      "canlandır": 2775,
      "sırtlan": 2776,
      "hedef": 2777,
      "Bah": 2778,
      "Van": 2779,
      "##laya": 2780,
      "dağı": 2781,
      "bölge": 2782,
      "Kaliforn": 2783,
      "Siv": 2784,
      "kir": 2785,
      "##lanması": 2786,
      "##ilerini": 2787,
      "Mak": 2788,
      "ateş": 2789,
      "##mit": 2790,
      "##isay": 2791,
      "yöntem": 2792,
      "bölgesinde": 2793,
      "Japonya": 2794,
      "Bazı": 2795,
      "iken": 2796,
      "anayas": 2797,
      "konusunda": 2798,
      "Bakanlığı": 2799,
      "yerleşim": 2800,
      "numar": 2801,
      "yıldız": 2802,
      "ndan": 2803,
      "İki": 2804,
      "##po": 2805,
      "##eph": 2806,
      "mezun": 2807,
      "Kaliforniya": 2808,
      "Az": 2809,
      "Qu": 2810,
      "##adığı": 2811,
      "##cil": 2812,
      "yayınlandı": 2813,
      "İsveç": 2814,
      "fır": 2815,
      "##lov": 2816,
      "##stron": 2817,
      "adam": 2818,
      "etkil": 2819,
      "William": 2820,
      "Fakültesi": 2821,
      "fizik": 2822,
      "##ho": 2823,
      "##ünkü": 2824,
      "Ho": 2825,
      "##best": 2826,
      "##esidir": 2827,
      "kurdu": 2828,
      "Lat": 2829,
      "Sil": 2830,
      "##tein": 2831,
      "##lamış": 2832,
      "önceki": 2833,
      "beyaz": 2834,
      "Ger": 2835,
      "mağ": 2836,
      "İspanya": 2837,
      "##ino": 2838,
      "profesyonel": 2839,
      "##masından": 2840,
      "##laması": 2841,
      "yok": 2842,
      "##ışması": 2843,
      "##tepe": 2844,
      "##manı": 2845,
      "müzi": 2846,
      "Dış": 2847,
      "Kr": 2848,
      "mec": 2849,
      "zar": 2850,
      "##uc": 2851,
      "##cel": 2852,
      "##areb": 2853,
      "##emiştir": 2854,
      "ulusal": 2855,
      "Don": 2856,
      "Maya": 2857,
      "olacak": 2858,
      "##dam": 2859,
      "düşük": 2860,
      "maçında": 2861,
      "terc": 2862,
      "hes": 2863,
      "##ulan": 2864,
      "##ill": 2865,
      "özg": 2866,
      "Kap": 2867,
      "nit": 2868,
      "norm": 2869,
      "İb": 2870,
      "##io": 2871,
      "##dem": 2872,
      "kuruldu": 2873,
      "Müzik": 2874,
      "oper": 2875,
      "verir": 2876,
      "Sty": 2877,
      "Sosyal": 2878,
      "ders": 2879,
      "sit": 2880,
      "##yn": 2881,
      "##itan": 2882,
      "altın": 2883,
      "Sovyetler": 2884,
      "Cem": 2885,
      "##leşti": 2886,
      "##lif": 2887,
      "sona": 2888,
      "kullanıl": 2889,
      "bilgi": 2890,
      "##ian": 2891,
      "##har": 2892,
      "nedenle": 2893,
      "Mur": 2894,
      "gez": 2895,
      "nı": 2896,
      "##sen": 2897,
      "##tika": 2898,
      "##yüz": 2899,
      "##iri": 2900,
      "Bizans": 2901,
      "Jo": 2902,
      "ila": 2903,
      "##ülen": 2904,
      "İslam": 2905,
      "##iyeti": 2906,
      "tamamen": 2907,
      "Yüksek": 2908,
      "##SC": 2909,
      "döndü": 2910,
      "yayınlanan": 2911,
      "meydana": 2912,
      "kariyerine": 2913,
      "Gran": 2914,
      "##culuk": 2915,
      "##ilerine": 2916,
      "doğu": 2917,
      "mut": 2918,
      "##ğına": 2919,
      "##ons": 2920,
      "Can": 2921,
      "fik": 2922,
      "kli": 2923,
      "tart": 2924,
      "sayısı": 2925,
      "Hristiyan": 2926,
      "Gu": 2927,
      "sunu": 2928,
      "##ai": 2929,
      "##ınca": 2930,
      "ederek": 2931,
      "dünyanın": 2932,
      "FI": 2933,
      "Nehri": 2934,
      "Yay": 2935,
      "fin": 2936,
      "mas": 2937,
      "üniversit": 2938,
      "##eth": 2939,
      "hızlı": 2940,
      "Lond": 2941,
      "##kün": 2942,
      "##edi": 2943,
      "##elç": 2944,
      "Ham": 2945,
      "Men": 2946,
      "nok": 2947,
      "sp": 2948,
      "##isidir": 2949,
      "##edik": 2950,
      "katkı": 2951,
      "şehrin": 2952,
      "##gue": 2953,
      "boyut": 2954,
      "Styles": 2955,
      "Te": 2956,
      "video": 2957,
      "##fik": 2958,
      "kayn": 2959,
      "otom": 2960,
      "uçak": 2961,
      "seslendir": 2962,
      "donan": 2963,
      "TV": 2964,
      "fot": 2965,
      "stan": 2966,
      "##dak": 2967,
      "yapıldı": 2968,
      "bile": 2969,
      "işlet": 2970,
      "türü": 2971,
      "yani": 2972,
      "Gör": 2973,
      "red": 2974,
      "##do": 2975,
      "##lilik": 2976,
      "##omi": 2977,
      "##yol": 2978,
      "verildi": 2979,
      "Ordu": 2980,
      "yana": 2981,
      "Fer": 2982,
      "Kol": 2983,
      "Rum": 2984,
      "tanı": 2985,
      "##arında": 2986,
      "##ilim": 2987,
      "##okal": 2988,
      "başlat": 2989,
      "##taj": 2990,
      "##uluğu": 2991,
      "modern": 2992,
      "##tüd": 2993,
      "ölçü": 2994,
      "yalnızca": 2995,
      "Hav": 2996,
      "batı": 2997,
      "##dük": 2998,
      "##vat": 2999,
      "##endi": 3000,
      "##ded": 3001,
      "##lanma": 3002,
      "##larındaki": 3003,
      "maçı": 3004,
      "oluşur": 3005,
      "Bro": 3006,
      "Nor": 3007,
      "aile": 3008,
      "##tiler": 3009,
      "öner": 3010,
      "sab": 3011,
      "stüd": 3012,
      "tük": 3013,
      "yık": 3014,
      "##cılık": 3015,
      "##dav": 3016,
      "satış": 3017,
      "Uk": 3018,
      "##au": 3019,
      "##mızı": 3020,
      "##lardı": 3021,
      "##ung": 3022,
      "açı": 3023,
      "köken": 3024,
      "sebeb": 3025,
      "imzal": 3026,
      "galak": 3027,
      "ekip": 3028,
      "çarp": 3029,
      "Ex": 3030,
      "Çek": 3031,
      "##ematik": 3032,
      "##arken": 3033,
      "bölgede": 3034,
      "kup": 3035,
      "##isyen": 3036,
      "başlangı": 3037,
      "geçer": 3038,
      "kısm": 3039,
      "Hen": 3040,
      "Hak": 3041,
      "Mer": 3042,
      "ileri": 3043,
      "klas": 3044,
      "sefer": 3045,
      "kendisine": 3046,
      "başkenti": 3047,
      "bes": 3048,
      "mem": 3049,
      "tat": 3050,
      "##anlar": 3051,
      "ülkede": 3052,
      "içeren": 3053,
      "Is": 3054,
      "Ku": 3055,
      "Mes": 3056,
      "lik": 3057,
      "tiyatro": 3058,
      "##ts": 3059,
      "##ucu": 3060,
      "kurum": 3061,
      "##layarak": 3062,
      "adına": 3063,
      "günümüzde": 3064,
      "arkadaş": 3065,
      "haber": 3066,
      "##ân": 3067,
      "##lef": 3068,
      "yazılım": 3069,
      "##mesiyle": 3070,
      "tasarım": 3071,
      "davran": 3072,
      "Avusturya": 3073,
      "Con": 3074,
      "Fener": 3075,
      "Gü": 3076,
      "James": 3077,
      "alarak": 3078,
      "defa": 3079,
      "##ısıyla": 3080,
      "Dar": 3081,
      "Gaz": 3082,
      "Kil": 3083,
      "##ker": 3084,
      "##red": 3085,
      "##hend": 3086,
      "##ısının": 3087,
      "##olog": 3088,
      "sebep": 3089,
      "kavram": 3090,
      "Hitler": 3091,
      "Mas": 3092,
      "Nüf": 3093,
      "##mî": 3094,
      "##all": 3095,
      "seçildi": 3096,
      "bölümü": 3097,
      "şarkıcı": 3098,
      "bilgisay": 3099,
      "Et": 3100,
      "tanıt": 3101,
      "yokt": 3102,
      "##NA": 3103,
      "olsa": 3104,
      "göl": 3105,
      "ordu": 3106,
      "Müslüm": 3107,
      "Buna": 3108,
      "Mü": 3109,
      "##kova": 3110,
      "##ruz": 3111,
      "Bor": 3112,
      "Müdür": 3113,
      "Sü": 3114,
      "Tim": 3115,
      "diş": 3116,
      "iler": 3117,
      "##urum": 3118,
      "yapmış": 3119,
      "Kariy": 3120,
      "komün": 3121,
      "Demir": 3122,
      "değişiklik": 3123,
      "Ukray": 3124,
      "UE": 3125,
      "Ver": 3126,
      "##ğinden": 3127,
      "##my": 3128,
      "##yas": 3129,
      "##anlık": 3130,
      "ortal": 3131,
      "##ıyor": 3132,
      "ticaret": 3133,
      "Grub": 3134,
      "Must": 3135,
      "vat": 3136,
      "##adi": 3137,
      "##rah": 3138,
      "başkan": 3139,
      "##maktaydı": 3140,
      "oran": 3141,
      "Devleti": 3142,
      "III": 3143,
      "##bahçe": 3144,
      "ziyaret": 3145,
      "Dr": 3146,
      "puan": 3147,
      "kalın": 3148,
      "##menin": 3149,
      "düzey": 3150,
      "Geç": 3151,
      "ih": 3152,
      "Şah": 3153,
      "##aları": 3154,
      "sonrası": 3155,
      "UEFA": 3156,
      "Festiv": 3157,
      "##yı": 3158,
      "##jen": 3159,
      "anda": 3160,
      "kapsam": 3161,
      "yüzyılın": 3162,
      "ekonomik": 3163,
      "işgal": 3164,
      "No": 3165,
      "mada": 3166,
      "##ilebilir": 3167,
      "##üme": 3168,
      "yazarı": 3169,
      "satın": 3170,
      "Moskova": 3171,
      "bay": 3172,
      "##ani": 3173,
      "##emiş": 3174,
      "##old": 3175,
      "Char": 3176,
      "yardımcı": 3177,
      "Kültür": 3178,
      "Mc": 3179,
      "giz": 3180,
      "İk": 3181,
      "##ny": 3182,
      "##ola": 3183,
      "##meleri": 3184,
      "##amaktadır": 3185,
      "Örneğin": 3186,
      "Kam": 3187,
      "Pas": 3188,
      "##gr": 3189,
      "##ere": 3190,
      "birey": 3191,
      "##ingle": 3192,
      "Yunanistan": 3193,
      "Bağ": 3194,
      "Dağ": 3195,
      "Sc": 3196,
      "etmiş": 3197,
      "uzay": 3198,
      "üretim": 3199,
      "Parti": 3200,
      "geleneksel": 3201,
      "eg": 3202,
      "Ülk": 3203,
      "##are": 3204,
      "##ilmek": 3205,
      "##maları": 3206,
      "##ümkün": 3207,
      "bugün": 3208,
      "Mehmet": 3209,
      "Fenerbahçe": 3210,
      "##rens": 3211,
      "eğit": 3212,
      "Eurov": 3213,
      "kardeşi": 3214,
      "Londra": 3215,
      "Lo": 3216,
      "yorum": 3217,
      "##ach": 3218,
      "##yken": 3219,
      "##altı": 3220,
      "oyunu": 3221,
      "kazanan": 3222,
      "kısmı": 3223,
      "Kırım": 3224,
      "performans": 3225,
      "Fo": 3226,
      "beste": 3227,
      "##ıcı": 3228,
      "##ital": 3229,
      "##obil": 3230,
      "örgüt": 3231,
      "Mu": 3232,
      "li": 3233,
      "##dart": 3234,
      "##des": 3235,
      "##isel": 3236,
      "metal": 3237,
      "malz": 3238,
      "galaksidir": 3239,
      "Eurovision": 3240,
      "Kür": 3241,
      "Uy": 3242,
      "##meyen": 3243,
      "##zon": 3244,
      "birinci": 3245,
      "ortam": 3246,
      "Roman": 3247,
      "bakım": 3248,
      "##engin": 3249,
      "Mustafa": 3250,
      "astron": 3251,
      "##uklu": 3252,
      "##ment": 3253,
      "içerir": 3254,
      "çevir": 3255,
      "nokta": 3256,
      "mümkün": 3257,
      "##üst": 3258,
      "##oya": 3259,
      "başlar": 3260,
      "##omb": 3261,
      "kullanım": 3262,
      "##dikten": 3263,
      "Polonya": 3264,
      "hey": 3265,
      "kamp": 3266,
      "mar": 3267,
      "rah": 3268,
      "##undaki": 3269,
      "##ilerinin": 3270,
      "duyur": 3271,
      "Coun": 3272,
      "Bununla": 3273,
      "popüler": 3274,
      "Portekiz": 3275,
      "Trab": 3276,
      "##ary": 3277,
      "##aktadır": 3278,
      "##liy": 3279,
      "yılının": 3280,
      "sağlar": 3281,
      "sayesinde": 3282,
      "nokt": 3283,
      "##malı": 3284,
      "##yıldı": 3285,
      "##atif": 3286,
      "yönelik": 3287,
      "serbest": 3288,
      "Başkanı": 3289,
      "civ": 3290,
      "hen": 3291,
      "sekiz": 3292,
      "##ger": 3293,
      "##iyah": 3294,
      "üzerinden": 3295,
      "kaps": 3296,
      "Hava": 3297,
      "Sav": 3298,
      "tas": 3299,
      "##adan": 3300,
      "olmasına": 3301,
      "zorunda": 3302,
      "tipi": 3303,
      "##ternet": 3304,
      "stüdyo": 3305,
      "cumhur": 3306,
      "##düncü": 3307,
      "##ze": 3308,
      "##ona": 3309,
      "edilmektedir": 3310,
      "kanal": 3311,
      "sinema": 3312,
      "kop": 3313,
      "##ier": 3314,
      "##ph": 3315,
      "##adır": 3316,
      "gök": 3317,
      "##üştü": 3318,
      "dünyaya": 3319,
      "Eb": 3320,
      "öy": 3321,
      "##ld": 3322,
      "##ölç": 3323,
      "takip": 3324,
      "Geor": 3325,
      "Res": 3326,
      "##ko": 3327,
      "##bat": 3328,
      "##neği": 3329,
      "karşılaş": 3330,
      "Erkek": 3331,
      "##ows": 3332,
      "İlç": 3333,
      "##işleri": 3334,
      "##ight": 3335,
      "Macar": 3336,
      "yaban": 3337,
      "##âr": 3338,
      "birleş": 3339,
      "##tılar": 3340,
      "sürüm": 3341,
      "dönemi": 3342,
      "Erz": 3343,
      "kızı": 3344,
      "eyaletinde": 3345,
      "dağıt": 3346,
      "hep": 3347,
      "##kop": 3348,
      "##sim": 3349,
      "kişinin": 3350,
      "Je": 3351,
      "Kut": 3352,
      "Sev": 3353,
      "##raz": 3354,
      "##arlı": 3355,
      "##ena": 3356,
      "##ame": 3357,
      "##eydi": 3358,
      "karış": 3359,
      "tarihli": 3360,
      "konser": 3361,
      "##uyor": 3362,
      "serg": 3363,
      "##üphan": 3364,
      "ikti": 3365,
      "Yahudi": 3366,
      "hikây": 3367,
      "milletvekili": 3368,
      "Tom": 3369,
      "##inler": 3370,
      "##tedir": 3371,
      "yapılmıştır": 3372,
      "Kons": 3373,
      "gözlem": 3374,
      "Eğitim": 3375,
      "Kuvvetleri": 3376,
      "Hük": 3377,
      "oda": 3378,
      "rap": 3379,
      "##mür": 3380,
      "Ort": 3381,
      "siyasetçi": 3382,
      "Sim": 3383,
      "##ague": 3384,
      "sürekli": 3385,
      "yazdı": 3386,
      "##elerinin": 3387,
      "eşit": 3388,
      "pozisyon": 3389,
      "##nes": 3390,
      "kazanmıştır": 3391,
      "şehirdir": 3392,
      "idari": 3393,
      "##ileceği": 3394,
      "kum": 3395,
      "ner": 3396,
      "##II": 3397,
      "##ırlar": 3398,
      "toplan": 3399,
      "Ord": 3400,
      "oynanan": 3401,
      "kurulmuş": 3402,
      "Yarışması": 3403,
      "single": 3404,
      "##yası": 3405,
      "##itesi": 3406,
      "çıkmıştır": 3407,
      "Fin": 3408,
      "olab": 3409,
      "İr": 3410,
      "##kar": 3411,
      "##idi": 3412,
      "##form": 3413,
      "##enek": 3414,
      "##izasyon": 3415,
      "oyuncusu": 3416,
      "kesin": 3417,
      "Del": 3418,
      "ışık": 3419,
      "##emin": 3420,
      "##ülü": 3421,
      "Ang": 3422,
      "çıkış": 3423,
      "direktör": 3424,
      "hesap": 3425,
      "Bat": 3426,
      "Ot": 3427,
      "test": 3428,
      "##tiş": 3429,
      "yazdığı": 3430,
      "ilçesinde": 3431,
      "bölümünde": 3432,
      "Süper": 3433,
      "dar": 3434,
      "##lenmiş": 3435,
      "verdiği": 3436,
      "bileş": 3437,
      "kişilik": 3438,
      "##oft": 3439,
      "ihtiy": 3440,
      "Jos": 3441,
      "##edan": 3442,
      "##ike": 3443,
      "##uyordu": 3444,
      "Enstit": 3445,
      "Göz": 3446,
      "Yarı": 3447,
      "diye": 3448,
      "fon": 3449,
      "##yap": 3450,
      "Ödülleri": 3451,
      "##hendis": 3452,
      "##öv": 3453,
      "##uli": 3454,
      "##car": 3455,
      "##lıca": 3456,
      "tarz": 3457,
      "kara": 3458,
      "sahn": 3459,
      "asıl": 3460,
      "##liğe": 3461,
      "miktar": 3462,
      "yör": 3463,
      "##fek": 3464,
      "##imini": 3465,
      "tedav": 3466,
      "##lamaya": 3467,
      "yönetic": 3468,
      "Akadem": 3469,
      "Millî": 3470,
      "Okulu": 3471,
      "mimar": 3472,
      "dek": 3473,
      "##apın": 3474,
      "sahne": 3475,
      "ayrıldı": 3476,
      "ordusu": 3477,
      "hücre": 3478,
      "Trabzon": 3479,
      "hap": 3480,
      "##ilya": 3481,
      "##alog": 3482,
      "teki": 3483,
      "alanında": 3484,
      "görevi": 3485,
      "üzerindeki": 3486,
      "şirketi": 3487,
      "Bulgar": 3488,
      "FIFA": 3489,
      "##ida": 3490,
      "##uç": 3491,
      "Ermeni": 3492,
      "gösterir": 3493,
      "Profesyonel": 3494,
      "Köyün": 3495,
      "FC": 3496,
      "##abet": 3497,
      "takımyıldı": 3498,
      "korum": 3499,
      "ey": 3500,
      "lim": 3501,
      "##alığı": 3502,
      "karşısında": 3503,
      "kolay": 3504,
      "Kurulu": 3505,
      "taşıyan": 3506,
      "çoğunluk": 3507,
      "##ata": 3508,
      "kaydet": 3509,
      "derin": 3510,
      "kötü": 3511,
      "durumda": 3512,
      "resmî": 3513,
      "iliş": 3514,
      "lisans": 3515,
      "İspanyol": 3516,
      "Yahud": 3517,
      "kemer": 3518,
      "Ukrayna": 3519,
      "Küçük": 3520,
      "Tor": 3521,
      "bunu": 3522,
      "##ücü": 3523,
      "##ratik": 3524,
      "##onik": 3525,
      "verilmiştir": 3526,
      "##lament": 3527,
      "##olis": 3528,
      "üye": 3529,
      "azal": 3530,
      "Millet": 3531,
      "Brez": 3532,
      "kurucu": 3533,
      "tercih": 3534,
      "vatanda": 3535,
      "Yas": 3536,
      "vokal": 3537,
      "arası": 3538,
      "yeri": 3539,
      "Tarihi": 3540,
      "elektrik": 3541,
      "yoktur": 3542,
      "Mez": 3543,
      "Tay": 3544,
      "yum": 3545,
      "##ıda": 3546,
      "##ash": 3547,
      "##meler": 3548,
      "Günümüz": 3549,
      "Kütah": 3550,
      "bilgisayar": 3551,
      "Aç": 3552,
      "mu": 3553,
      "##taki": 3554,
      "##ura": 3555,
      "inç": 3556,
      "##iber": 3557,
      "##lıkla": 3558,
      "konusu": 3559,
      "gelmiştir": 3560,
      "adında": 3561,
      "grubun": 3562,
      "politik": 3563,
      "Müslüman": 3564,
      "Cen": 3565,
      "Say": 3566,
      "canlı": 3567,
      "le": 3568,
      "##uru": 3569,
      "##madı": 3570,
      "General": 3571,
      "kök": 3572,
      "##mesinden": 3573,
      "çalışmaları": 3574,
      "Final": 3575,
      "Kim": 3576,
      "##amb": 3577,
      "teş": 3578,
      "karşılık": 3579,
      "süren": 3580,
      "katı": 3581,
      "üretilen": 3582,
      "sayımına": 3583,
      "terk": 3584,
      "##may": 3585,
      "çevre": 3586,
      "##başkanı": 3587,
      "söyledi": 3588,
      "Sah": 3589,
      "Seç": 3590,
      "##bin": 3591,
      "öne": 3592,
      "bilimsel": 3593,
      "Samsun": 3594,
      "Şehrin": 3595,
      "astronom": 3596,
      "Doktor": 3597,
      "Gar": 3598,
      "doktor": 3599,
      "hast": 3600,
      "zengin": 3601,
      "##ney": 3602,
      "tarım": 3603,
      "##laşması": 3604,
      "hakim": 3605,
      "Burada": 3606,
      "Tok": 3607,
      "Var": 3608,
      "plat": 3609,
      "vir": 3610,
      "##sine": 3611,
      "##tul": 3612,
      "##ğinin": 3613,
      "birim": 3614,
      "altına": 3615,
      "##rosu": 3616,
      "##dikleri": 3617,
      "İsviç": 3618,
      "Merkezi": 3619,
      "fotoğraf": 3620,
      "Böylece": 3621,
      "Wind": 3622,
      "ba": 3623,
      "gid": 3624,
      "mark": 3625,
      "pazar": 3626,
      "sok": 3627,
      "##ling": 3628,
      "##BA": 3629,
      "halinde": 3630,
      "alındı": 3631,
      "artık": 3632,
      "Hind": 3633,
      "çünkü": 3634,
      "şair": 3635,
      "##oda": 3636,
      "##ırken": 3637,
      "##eyn": 3638,
      "##ayıf": 3639,
      "##egor": 3640,
      "Demok": 3641,
      "Kulüp": 3642,
      "Kah": 3643,
      "Liv": 3644,
      "psik": 3645,
      "Çal": 3646,
      "##bek": 3647,
      "##iyel": 3648,
      "##usal": 3649,
      "etme": 3650,
      "sırasıyla": 3651,
      "dolay": 3652,
      "üyeleri": 3653,
      "listesi": 3654,
      "Hayatı": 3655,
      "şehrinde": 3656,
      "normal": 3657,
      "deste": 3658,
      "tale": 3659,
      "##mar": 3660,
      "##ass": 3661,
      "##iyar": 3662,
      "Lu": 3663,
      "##lediği": 3664,
      "##ısız": 3665,
      "bulunmuştur": 3666,
      "tanrı": 3667,
      "sözleşme": 3668,
      "basketbol": 3669,
      "tamamladı": 3670,
      "##berg": 3671,
      "politika": 3672,
      "kırmızı": 3673,
      "David": 3674,
      "Aşağı": 3675,
      "takımyıldızı": 3676,
      "Ker": 3677,
      "##sch": 3678,
      "##iden": 3679,
      "##engi": 3680,
      "süreç": 3681,
      "yüzey": 3682,
      "kısım": 3683,
      "etkisi": 3684,
      "arkadaşı": 3685,
      "Bölgesi": 3686,
      "Pat": 3687,
      "siv": 3688,
      "##bon": 3689,
      "##ilme": 3690,
      "##oru": 3691,
      "yapmak": 3692,
      "tahmin": 3693,
      "uçuş": 3694,
      "ölçüde": 3695,
      "Tele": 3696,
      "böylece": 3697,
      "İst": 3698,
      "##olik": 3699,
      "##ette": 3700,
      "##deniz": 3701,
      "takımında": 3702,
      "Milli": 3703,
      "koşul": 3704,
      "Kütahya": 3705,
      "My": 3706,
      "Pan": 3707,
      "ip": 3708,
      "Karad": 3709,
      "etkili": 3710,
      "durumu": 3711,
      "Belediye": 3712,
      "Hüs": 3713,
      "Lou": 3714,
      "##çiler": 3715,
      "##ılımı": 3716,
      "##orld": 3717,
      "##abı": 3718,
      "aracılığı": 3719,
      "Bill": 3720,
      "yasa": 3721,
      "Oyuncu": 3722,
      "kıyı": 3723,
      "Festivali": 3724,
      "Tr": 3725,
      "##kel": 3726,
      "##lında": 3727,
      "##lılık": 3728,
      "##ümüş": 3729,
      "##elerde": 3730,
      "eriş": 3731,
      "##mesinin": 3732,
      "Beyaz": 3733,
      "keşfedilmiştir": 3734,
      "Vol": 3735,
      "eleme": 3736,
      "raki": 3737,
      "sap": 3738,
      "İdar": 3739,
      "##gor": 3740,
      "##bey": 3741,
      "ayır": 3742,
      "kullanılmaktadır": 3743,
      "kendini": 3744,
      "doğrudan": 3745,
      "değerlendir": 3746,
      "Kitap": 3747,
      "ortalama": 3748,
      "Taş": 3749,
      "day": 3750,
      "men": 3751,
      "soğ": 3752,
      "##ğından": 3753,
      "##lenme": 3754,
      "gelmektedir": 3755,
      "aktif": 3756,
      "kendisini": 3757,
      "Muham": 3758,
      "stat": 3759,
      "Yönet": 3760,
      "Tatar": 3761,
      "standart": 3762,
      "CO": 3763,
      "be": 3764,
      "dili": 3765,
      "fir": 3766,
      "kış": 3767,
      "##lesi": 3768,
      "birleştir": 3769,
      "##ult": 3770,
      "annesi": 3771,
      "##ihaz": 3772,
      "##ukarı": 3773,
      "##ott": 3774,
      "##ündeki": 3775,
      "Star": 3776,
      "kendisi": 3777,
      "bilinmektedir": 3778,
      "teslim": 3779,
      "Yardım": 3780,
      "Topl": 3781,
      "yükseldi": 3782,
      "Kore": 3783,
      "Mehmed": 3784,
      "Ahmet": 3785,
      "City": 3786,
      "Gazi": 3787,
      "##ood": 3788,
      "##alim": 3789,
      "buz": 3790,
      "yarışma": 3791,
      "açısından": 3792,
      "komp": 3793,
      "düşünül": 3794,
      "Araştırma": 3795,
      "Filip": 3796,
      "Nur": 3797,
      "Tun": 3798,
      "Tah": 3799,
      "rast": 3800,
      "veri": 3801,
      "yu": 3802,
      "Çağ": 3803,
      "Şirket": 3804,
      "yılındaki": 3805,
      "endü": 3806,
      "geçmiş": 3807,
      "işaret": 3808,
      "devr": 3809,
      "parti": 3810,
      "yönetimi": 3811,
      "güc": 3812,
      "çocuğu": 3813,
      "Teknik": 3814,
      "Paul": 3815,
      "Güven": 3816,
      "Stad": 3817,
      "Siyas": 3818,
      "mad": 3819,
      "ruh": 3820,
      "##bistan": 3821,
      "##oni": 3822,
      "##elt": 3823,
      "##üny": 3824,
      "yıllar": 3825,
      "İnsan": 3826,
      "yeti": 3827,
      "Muhareb": 3828,
      "güvenlik": 3829,
      "etkinlik": 3830,
      "Suriye": 3831,
      "nerede": 3832,
      "Hindistan": 3833,
      "Cor": 3834,
      "Gr": 3835,
      "siyah": 3836,
      "##oc": 3837,
      "##pa": 3838,
      "başk": 3839,
      "antik": 3840,
      "##esindeki": 3841,
      "görevini": 3842,
      "Gürcü": 3843,
      "Cal": 3844,
      "For": 3845,
      "Net": 3846,
      "di": 3847,
      "nas": 3848,
      "çoğ": 3849,
      "##köy": 3850,
      "##arruz": 3851,
      "yapılmış": 3852,
      "artır": 3853,
      "doğum": 3854,
      "##leyman": 3855,
      "gece": 3856,
      "##lanmaktadır": 3857,
      "yapıl": 3858,
      "yerleştir": 3859,
      "kurtar": 3860,
      "gösteren": 3861,
      "dördüncü": 3862,
      "yenil": 3863,
      "öncesi": 3864,
      "hastalık": 3865,
      "egemen": 3866,
      "Boy": 3867,
      "fak": 3868,
      "famil": 3869,
      "##mayan": 3870,
      "oynan": 3871,
      "##ıyordu": 3872,
      "Berlin": 3873,
      "ticari": 3874,
      "##ografi": 3875,
      "Nüfus": 3876,
      "Lit": 3877,
      "se": 3878,
      "yemek": 3879,
      "##lya": 3880,
      "##amaya": 3881,
      "oluştu": 3882,
      "##adaki": 3883,
      "teles": 3884,
      "belirli": 3885,
      "gitti": 3886,
      "kullanıcı": 3887,
      "radyo": 3888,
      "matematik": 3889,
      "Süleyman": 3890,
      "Ac": 3891,
      "Ale": 3892,
      "Ama": 3893,
      "Söz": 3894,
      "meş": 3895,
      "pil": 3896,
      "zir": 3897,
      "##we": 3898,
      "##ulmuştur": 3899,
      "##diğini": 3900,
      "etmeye": 3901,
      "gördü": 3902,
      "Akdeniz": 3903,
      "yedi": 3904,
      "sanatç": 3905,
      "Tanrı": 3906,
      "çaplı": 3907,
      "Karadeniz": 3908,
      "Saf": 3909,
      "ettir": 3910,
      "orman": 3911,
      "##araj": 3912,
      "belg": 3913,
      "resim": 3914,
      "hâl": 3915,
      "tehlik": 3916,
      "Ol": 3917,
      "Ros": 3918,
      "yanlı": 3919,
      "##liler": 3920,
      "##tion": 3921,
      "hayatı": 3922,
      "gitar": 3923,
      "kuzeyinde": 3924,
      "finalde": 3925,
      "##lığına": 3926,
      "bahs": 3927,
      "enerji": 3928,
      "Kir": 3929,
      "World": 3930,
      "güzel": 3931,
      "ku": 3932,
      "sek": 3933,
      "##yse": 3934,
      "##ban": 3935,
      "##ith": 3936,
      "takımın": 3937,
      "giren": 3938,
      "biçimde": 3939,
      "mekan": 3940,
      "Windows": 3941,
      "Sak": 3942,
      "##nalı": 3943,
      "##çesi": 3944,
      "##şi": 3945,
      "##rada": 3946,
      "yerini": 3947,
      "orij": 3948,
      "##erson": 3949,
      "katılım": 3950,
      "kategor": 3951,
      "Başkanlığı": 3952,
      "görülür": 3953,
      "polis": 3954,
      "özellikleri": 3955,
      "##doğan": 3956,
      "Gö": 3957,
      "cev": 3958,
      "kür": 3959,
      "mm": 3960,
      "tören": 3961,
      "Çok": 3962,
      "##ail": 3963,
      "##ela": 3964,
      "##ğret": 3965,
      "##mur": 3966,
      "##yar": 3967,
      "##isinden": 3968,
      "def": 3969,
      "ant": 3970,
      "##lıklı": 3971,
      "##ational": 3972,
      "orijinal": 3973,
      "hukuk": 3974,
      "sey": 3975,
      "Çocu": 3976,
      "##dat": 3977,
      "dönemin": 3978,
      "erken": 3979,
      "oluşturur": 3980,
      "##fesör": 3981,
      "edebiyat": 3982,
      "teknoloj": 3983,
      "yabancı": 3984,
      "Maç": 3985,
      "Nik": 3986,
      "dol": 3987,
      "ef": 3988,
      "zayıf": 3989,
      "şar": 3990,
      "##kim": 3991,
      "##tesi": 3992,
      "##ayi": 3993,
      "Birinci": 3994,
      "akadem": 3995,
      "taşım": 3996,
      "Başbak": 3997,
      "Güneş": 3998,
      "kork": 3999,
      "Bakanı": 4000,
      "mevcuttur": 4001,
      "County": 4002,
      "Enstitüsü": 4003,
      "Geli": 4004,
      "Gre": 4005,
      "emek": 4006,
      "##ındır": 4007,
      "##ekâ": 4008,
      "indir": 4009,
      "bölgesi": 4010,
      "##liğin": 4011,
      "formula": 4012,
      "kasab": 4013,
      "kulübünde": 4014,
      "çatışma": 4015,
      "eğitimi": 4016,
      "Muhammed": 4017,
      "teleskop": 4018,
      "Fat": 4019,
      "##ward": 4020,
      "##onomi": 4021,
      "##lamaktadır": 4022,
      "##elli": 4023,
      "##itasyon": 4024,
      "başrol": 4025,
      "##likle": 4026,
      "tarihleri": 4027,
      "yaşadı": 4028,
      "vak": 4029,
      "##sas": 4030,
      "##rit": 4031,
      "##TA": 4032,
      "Art": 4033,
      "##liğine": 4034,
      "Los": 4035,
      "Moğ": 4036,
      "iy": 4037,
      "kanıt": 4038,
      "ton": 4039,
      "üs": 4040,
      "##SA": 4041,
      "##işi": 4042,
      "ağaç": 4043,
      "##emektedir": 4044,
      "Kariyeri": 4045,
      "si": 4046,
      "to": 4047,
      "##teki": 4048,
      "##raman": 4049,
      "##MM": 4050,
      "##isar": 4051,
      "##tih": 4052,
      "##istin": 4053,
      "##elerini": 4054,
      "unvan": 4055,
      "##own": 4056,
      "Özel": 4057,
      "kesim": 4058,
      "Galat": 4059,
      "yoluyla": 4060,
      "bazen": 4061,
      "Mark": 4062,
      "Prin": 4063,
      "balık": 4064,
      "pen": 4065,
      "von": 4066,
      "##doğu": 4067,
      "##illa": 4068,
      "götür": 4069,
      "etraf": 4070,
      "işlev": 4071,
      "dışı": 4072,
      "makale": 4073,
      "Sağ": 4074,
      "Sup": 4075,
      "TB": 4076,
      "dini": 4077,
      "şid": 4078,
      "kullanarak": 4079,
      "kapat": 4080,
      "açıkladı": 4081,
      "Bursa": 4082,
      "Peter": 4083,
      "Dönem": 4084,
      "Olimpiyatları": 4085,
      "Kemal": 4086,
      "##udu": 4087,
      "##uncu": 4088,
      "arka": 4089,
      "teklif": 4090,
      "basın": 4091,
      "##asaray": 4092,
      "girişim": 4093,
      "Venedik": 4094,
      "İsviçre": 4095,
      "yetiştir": 4096,
      "Lev": 4097,
      "Mir": 4098,
      "Si": 4099,
      "yurt": 4100,
      "##tro": 4101,
      "almış": 4102,
      "ilgi": 4103,
      "##açlı": 4104,
      "günlük": 4105,
      "harf": 4106,
      "oluşmaktadır": 4107,
      "Lisesi": 4108,
      "kaynağı": 4109,
      "aracılığıyla": 4110,
      "Dör": 4111,
      "Sür": 4112,
      "Yıldı": 4113,
      "ham": 4114,
      "kod": 4115,
      "##uel": 4116,
      "##bas": 4117,
      "##ilerde": 4118,
      "vermiştir": 4119,
      "sağlamak": 4120,
      "Rock": 4121,
      "dizisi": 4122,
      "çıkardı": 4123,
      "##başı": 4124,
      "kökenli": 4125,
      "##teri": 4126,
      "##teydi": 4127,
      "##ius": 4128,
      "##lon": 4129,
      "##nan": 4130,
      "##dağ": 4131,
      "yapmaktadır": 4132,
      "yapılır": 4133,
      "##zerk": 4134,
      "Başkan": 4135,
      "etkilen": 4136,
      "yetk": 4137,
      "benim": 4138,
      "##rosoft": 4139,
      "hayatını": 4140,
      "çapında": 4141,
      "aşağıdaki": 4142,
      "çoğunlukla": 4143,
      "Galatasaray": 4144,
      "Mag": 4145,
      "Sy": 4146,
      "web": 4147,
      "şun": 4148,
      "şöyle": 4149,
      "kararı": 4150,
      "##eliği": 4151,
      "kullanılmıştır": 4152,
      "içindeki": 4153,
      "Özellikle": 4154,
      "olmadığı": 4155,
      "Micha": 4156,
      "Microsoft": 4157,
      "dakik": 4158,
      "Ordusu": 4159,
      "Dağı": 4160,
      "Min": 4161,
      "sub": 4162,
      "ulaştı": 4163,
      "##ato": 4164,
      "kons": 4165,
      "onay": 4166,
      "korun": 4167,
      "Britan": 4168,
      "demir": 4169,
      "klasik": 4170,
      "ihtiyaç": 4171,
      "Med": 4172,
      "Sab": 4173,
      "Sezon": 4174,
      "ah": 4175,
      "##çu": 4176,
      "##veç": 4177,
      "filmin": 4178,
      "adamı": 4179,
      "##birliği": 4180,
      "alınan": 4181,
      "yasak": 4182,
      "Beşik": 4183,
      "##yüzünde": 4184,
      "Kilis": 4185,
      "Wal": 4186,
      "Zaman": 4187,
      "başlarında": 4188,
      "güneş": 4189,
      "kapas": 4190,
      "mahk": 4191,
      "sorumlu": 4192,
      "rock": 4193,
      "##ileceğini": 4194,
      "Uzun": 4195,
      "kaybetti": 4196,
      "it": 4197,
      "##ınar": 4198,
      "##ille": 4199,
      "##iklet": 4200,
      "almak": 4201,
      "çalışmaya": 4202,
      "mezar": 4203,
      "##lığa": 4204,
      "lerde": 4205,
      "##board": 4206,
      "Sivas": 4207,
      "Ka": 4208,
      "Mem": 4209,
      "Yeşil": 4210,
      "##ete": 4211,
      "yerde": 4212,
      "Arn": 4213,
      "Aydın": 4214,
      "yayınladı": 4215,
      "eşi": 4216,
      "nüfusunun": 4217,
      "hastan": 4218,
      "özgür": 4219,
      "Akademisi": 4220,
      "nasıl": 4221,
      "Adana": 4222,
      "Ve": 4223,
      "buna": 4224,
      "edi": 4225,
      "rüt": 4226,
      "sektör": 4227,
      "##iel": 4228,
      "##akya": 4229,
      "##ogle": 4230,
      "bitki": 4231,
      "kanat": 4232,
      "kilomet": 4233,
      "atandı": 4234,
      "Grand": 4235,
      "başlangıç": 4236,
      "Aug": 4237,
      "Play": 4238,
      "mon": 4239,
      "nün": 4240,
      "str": 4241,
      "##fab": 4242,
      "##ple": 4243,
      "##VI": 4244,
      "##ırım": 4245,
      "##şte": 4246,
      "##eyh": 4247,
      "##eyin": 4248,
      "##lenmesi": 4249,
      "kullanımı": 4250,
      "##elerinde": 4251,
      "##eles": 4252,
      "##stantin": 4253,
      "fiziksel": 4254,
      "Norveç": 4255,
      "##üstü": 4256,
      "rahat": 4257,
      "Hers": 4258,
      "biy": 4259,
      "kalı": 4260,
      "##cat": 4261,
      "##iyade": 4262,
      "kural": 4263,
      "sürec": 4264,
      "denir": 4265,
      "açtı": 4266,
      "geçirdi": 4267,
      "sınırları": 4268,
      "Derneği": 4269,
      "mesaf": 4270,
      "Google": 4271,
      "uğr": 4272,
      "##elsef": 4273,
      "##ülebilir": 4274,
      "neredeyse": 4275,
      "Ken": 4276,
      "You": 4277,
      "##ıma": 4278,
      "##ırh": 4279,
      "##emesi": 4280,
      "##ruk": 4281,
      "##ecik": 4282,
      "düşman": 4283,
      "##eff": 4284,
      "attı": 4285,
      "taarruz": 4286,
      "Sonr": 4287,
      "hafif": 4288,
      "kilis": 4289,
      "İrlanda": 4290,
      "Fars": 4291,
      "Hukuk": 4292,
      "IV": 4293,
      "Pe": 4294,
      "Tab": 4295,
      "gür": 4296,
      "lı": 4297,
      "tr": 4298,
      "##ano": 4299,
      "##ita": 4300,
      "##ağa": 4301,
      "##tip": 4302,
      "##luğunu": 4303,
      "Anayas": 4304,
      "doğr": 4305,
      "##uva": 4306,
      "Ermen": 4307,
      "Komut": 4308,
      "Basketbol": 4309,
      "Takım": 4310,
      "kamu": 4311,
      "Grubu": 4312,
      "Çocuk": 4313,
      "Bol": 4314,
      "ır": 4315,
      "##allen": 4316,
      "altyap": 4317,
      "Filistin": 4318,
      "cins": 4319,
      "çizg": 4320,
      "kelime": 4321,
      "fonk": 4322,
      "Beşiktaş": 4323,
      "Jan": 4324,
      "Kale": 4325,
      "Pap": 4326,
      "Vak": 4327,
      "kaf": 4328,
      "şart": 4329,
      "##lerce": 4330,
      "##ish": 4331,
      "##ited": 4332,
      "araya": 4333,
      "aktar": 4334,
      "##lemesi": 4335,
      "dalga": 4336,
      "belediy": 4337,
      "Muharebesi": 4338,
      "Öl": 4339,
      "ıs": 4340,
      "şim": 4341,
      "##lili": 4342,
      "##pek": 4343,
      "##cağı": 4344,
      "##landığı": 4345,
      "edilmesi": 4346,
      "yaşan": 4347,
      "Belç": 4348,
      "proje": 4349,
      "ceza": 4350,
      "Gölü": 4351,
      "sebebiyle": 4352,
      "Dil": 4353,
      "Vic": 4354,
      "diy": 4355,
      "min": 4356,
      "##gre": 4357,
      "##iro": 4358,
      "##ipl": 4359,
      "alanda": 4360,
      "sağladı": 4361,
      "sağlayan": 4362,
      "ayrıl": 4363,
      "otur": 4364,
      "vatandaş": 4365,
      "TBMM": 4366,
      "Kıs": 4367,
      "Kast": 4368,
      "Ra": 4369,
      "gider": 4370,
      "stad": 4371,
      "tav": 4372,
      "##don": 4373,
      "##low": 4374,
      "##cılı": 4375,
      "##yumu": 4376,
      "##isti": 4377,
      "##ima": 4378,
      "##asıdır": 4379,
      "##afer": 4380,
      "edin": 4381,
      "sonradan": 4382,
      "yargı": 4383,
      "yüzden": 4384,
      "derec": 4385,
      "yeter": 4386,
      "gücü": 4387,
      "Frank": 4388,
      "müziği": 4389,
      "meclis": 4390,
      "civarında": 4391,
      "Alek": 4392,
      "Slov": 4393,
      "Yine": 4394,
      "Ze": 4395,
      "küm": 4396,
      "ndaki": 4397,
      "yeşil": 4398,
      "##so": 4399,
      "##daş": 4400,
      "##ori": 4401,
      "##emez": 4402,
      "##adir": 4403,
      "yılda": 4404,
      "Antal": 4405,
      "başardı": 4406,
      "Bölüm": 4407,
      "seviye": 4408,
      "lerin": 4409,
      "öğretmen": 4410,
      "gazete": 4411,
      "Açık": 4412,
      "Michael": 4413,
      "Yo": 4414,
      "cam": 4415,
      "nehir": 4416,
      "yavaş": 4417,
      "Çev": 4418,
      "çi": 4419,
      "##tis": 4420,
      "##lemi": 4421,
      "##atistik": 4422,
      "##uth": 4423,
      "anal": 4424,
      "kayded": 4425,
      "gösterdi": 4426,
      "Proj": 4427,
      "çalışmalar": 4428,
      "Bunlar": 4429,
      "fikir": 4430,
      "Div": 4431,
      "Emir": 4432,
      "Kent": 4433,
      "Po": 4434,
      "des": 4435,
      "pas": 4436,
      "ısı": 4437,
      "##kale": 4438,
      "##dim": 4439,
      "##cının": 4440,
      "##unma": 4441,
      "##ester": 4442,
      "##ever": 4443,
      "internet": 4444,
      "esn": 4445,
      "Bilim": 4446,
      "Katalog": 4447,
      "Yunanca": 4448,
      "öğretim": 4449,
      "rapor": 4450,
      "şiddet": 4451,
      "Irak": 4452,
      "Kaf": 4453,
      "val": 4454,
      "##ax": 4455,
      "##pt": 4456,
      "##liye": 4457,
      "##malar": 4458,
      "##ülmüştür": 4459,
      "versiyon": 4460,
      "##elere": 4461,
      "belli": 4462,
      "araştır": 4463,
      "oluşturan": 4464,
      "programı": 4465,
      "listesinde": 4466,
      "Denizi": 4467,
      "imzaladı": 4468,
      "madalya": 4469,
      "Louis": 4470,
      "teleskopla": 4471,
      "Jack": 4472,
      "Kas": 4473,
      "duvar": 4474,
      "##sur": 4475,
      "##iter": 4476,
      "inc": 4477,
      "##elerine": 4478,
      "ölmüştür": 4479,
      "sert": 4480,
      "kentinde": 4481,
      "Mahkem": 4482,
      "barış": 4483,
      "Gökyüzünde": 4484,
      "Macaristan": 4485,
      "Yıldız": 4486,
      "Kend": 4487,
      "Naz": 4488,
      "cihaz": 4489,
      "##fat": 4490,
      "##ayla": 4491,
      "##larıdır": 4492,
      "##mann": 4493,
      "yaşadığı": 4494,
      "bölgeye": 4495,
      "kendine": 4496,
      "yetiş": 4497,
      "##alandı": 4498,
      "hatta": 4499,
      "seçimleri": 4500,
      "yayımlanan": 4501,
      "kültürel": 4502,
      "kuşat": 4503,
      "ordus": 4504,
      "Sosyalist": 4505,
      "davranış": 4506,
      "Erzurum": 4507,
      "eylem": 4508,
      "Selç": 4509,
      "##aket": 4510,
      "##ullah": 4511,
      "##olf": 4512,
      "kullanıldı": 4513,
      "bölün": 4514,
      "baskı": 4515,
      "değişken": 4516,
      "kitabı": 4517,
      "Köpr": 4518,
      "Babası": 4519,
      "başta": 4520,
      "Boz": 4521,
      "Sat": 4522,
      "UV": 4523,
      "may": 4524,
      "mit": 4525,
      "süt": 4526,
      "##nu": 4527,
      "##üyor": 4528,
      "geçmektedir": 4529,
      "kişiler": 4530,
      "aşırı": 4531,
      "bitk": 4532,
      "ilgilen": 4533,
      "League": 4534,
      "##osta": 4535,
      "olduğundan": 4536,
      "Müdürlüğü": 4537,
      "sivil": 4538,
      "nü": 4539,
      "##kas": 4540,
      "##çev": 4541,
      "##mon": 4542,
      "##ılg": 4543,
      "buldu": 4544,
      "##mişlerdir": 4545,
      "katılan": 4546,
      "Konstantin": 4547,
      "gerekti": 4548,
      "insanların": 4549,
      "##antin": 4550,
      "görüntü": 4551,
      "Brezilya": 4552,
      "platform": 4553,
      "Cam": 4554,
      "Dur": 4555,
      "hid": 4556,
      "ref": 4557,
      "çök": 4558,
      "üz": 4559,
      "##cret": 4560,
      "##cilik": 4561,
      "##ati": 4562,
      "##use": 4563,
      "etmesi": 4564,
      "doğan": 4565,
      "İsa": 4566,
      "##acık": 4567,
      "##leyerek": 4568,
      "üstün": 4569,
      "tutuk": 4570,
      "Charles": 4571,
      "Billboard": 4572,
      "Cez": 4573,
      "NA": 4574,
      "Str": 4575,
      "Wh": 4576,
      "plak": 4577,
      "seri": 4578,
      "##deb": 4579,
      "depo": 4580,
      "kapı": 4581,
      "maçına": 4582,
      "temiz": 4583,
      "##lemeye": 4584,
      "Efendi": 4585,
      "Alex": 4586,
      "Pal": 4587,
      "West": 4588,
      "olac": 4589,
      "rö": 4590,
      "##fet": 4591,
      "telef": 4592,
      "##otik": 4593,
      "akım": 4594,
      "ndeki": 4595,
      "aşam": 4596,
      "Kaynak": 4597,
      "savunma": 4598,
      "Yaşamı": 4599,
      "##rahim": 4600,
      "endüstr": 4601,
      "Da": 4602,
      "Na": 4603,
      "Rey": 4604,
      "Tic": 4605,
      "nak": 4606,
      "vaz": 4607,
      "##geç": 4608,
      "uzman": 4609,
      "milli": 4610,
      "Kurul": 4611,
      "düşünce": 4612,
      "olmadığını": 4613,
      "belirtti": 4614,
      "zarar": 4615,
      "##ölçümü": 4616,
      "Mey": 4617,
      "böyle": 4618,
      "dans": 4619,
      "ters": 4620,
      "##cık": 4621,
      "##isiyle": 4622,
      "içine": 4623,
      "##abil": 4624,
      "iletiş": 4625,
      "istif": 4626,
      "geçiş": 4627,
      "##ideri": 4628,
      "prot": 4629,
      "gerekir": 4630,
      "şampiyonu": 4631,
      "henüz": 4632,
      "Boğ": 4633,
      "Güzel": 4634,
      "##eği": 4635,
      "##oley": 4636,
      "##zi": 4637,
      "##ante": 4638,
      "##ştan": 4639,
      "##ulur": 4640,
      "##ulmuş": 4641,
      "##lıdır": 4642,
      "##imli": 4643,
      "prob": 4644,
      "Bölümü": 4645,
      "##lüğünü": 4646,
      "Kadınlar": 4647,
      "Bla": 4648,
      "Fa": 4649,
      "Gılg": 4650,
      "Rec": 4651,
      "Rich": 4652,
      "Sarı": 4653,
      "We": 4654,
      "hiss": 4655,
      "ücret": 4656,
      "##sika": 4657,
      "##âh": 4658,
      "##ikal": 4659,
      "davet": 4660,
      "##danın": 4661,
      "yaparak": 4662,
      "##lub": 4663,
      "##lendiği": 4664,
      "yarar": 4665,
      "adım": 4666,
      "sözcü": 4667,
      "getirdi": 4668,
      "Sonuç": 4669,
      "iktidar": 4670,
      "oluştuğu": 4671,
      "Gılgamış": 4672,
      "War": 4673,
      "saç": 4674,
      "Çan": 4675,
      "##rid": 4676,
      "##ğünü": 4677,
      "##mut": 4678,
      "##erv": 4679,
      "##lardaki": 4680,
      "##del": 4681,
      "##ılış": 4682,
      "##yaleti": 4683,
      "başlamış": 4684,
      "versiyonu": 4685,
      "##ütte": 4686,
      "onları": 4687,
      "karşın": 4688,
      "sağlık": 4689,
      "durdur": 4690,
      "filmde": 4691,
      "benzeri": 4692,
      "Meksika": 4693,
      "Kralı": 4694,
      "Ray": 4695,
      "Tiyatro": 4696,
      "fab": 4697,
      "leh": 4698,
      "##say": 4699,
      "##batı": 4700,
      "yapar": 4701,
      "takımının": 4702,
      "dolar": 4703,
      "ayrılır": 4704,
      "uzunluğ": 4705,
      "söyler": 4706,
      "çağr": 4707,
      "paylaş": 4708,
      "Hot": 4709,
      "Ram": 4710,
      "dök": 4711,
      "saf": 4712,
      "zırh": 4713,
      "##ern": 4714,
      "##illi": 4715,
      "sürdü": 4716,
      "çıkart": 4717,
      "Robert": 4718,
      "müzisyen": 4719,
      "gizli": 4720,
      "Jean": 4721,
      "Balık": 4722,
      "Mün": 4723,
      "büny": 4724,
      "del": 4725,
      "Ür": 4726,
      "##los": 4727,
      "##asa": 4728,
      "##yahat": 4729,
      "##lıkları": 4730,
      "hakkı": 4731,
      "köpr": 4732,
      "United": 4733,
      "dakika": 4734,
      "dolayısıyla": 4735,
      "Flor": 4736,
      "sur": 4737,
      "sava": 4738,
      "##gon": 4739,
      "##mo": 4740,
      "##bet": 4741,
      "##way": 4742,
      "##aklı": 4743,
      "##lanabilir": 4744,
      "alfab": 4745,
      "##umb": 4746,
      "ilinde": 4747,
      "başbak": 4748,
      "oranı": 4749,
      "eseri": 4750,
      "arada": 4751,
      "ödülü": 4752,
      "Gürc": 4753,
      "Yayın": 4754,
      "giderek": 4755,
      "family": 4756,
      "Dal": 4757,
      "Fe": 4758,
      "Üy": 4759,
      "##tılı": 4760,
      "##mamış": 4761,
      "##larca": 4762,
      "##ath": 4763,
      "##imark": 4764,
      "##ezi": 4765,
      "ins": 4766,
      "isyan": 4767,
      "##lıklar": 4768,
      "saha": 4769,
      "##iddi": 4770,
      "##hane": 4771,
      "sayılı": 4772,
      "ekran": 4773,
      "mahkem": 4774,
      "Danimark": 4775,
      "ailesi": 4776,
      "Günümüzde": 4777,
      "başkanlı": 4778,
      "rütb": 4779,
      "##üttefik": 4780,
      "Bank": 4781,
      "Plan": 4782,
      "bal": 4783,
      "##ica": 4784,
      "##ence": 4785,
      "##ükle": 4786,
      "Arj": 4787,
      "##oth": 4788,
      "##ilenin": 4789,
      "esas": 4790,
      "aslında": 4791,
      "müdür": 4792,
      "##isyonu": 4793,
      "topluluk": 4794,
      "reddet": 4795,
      "pozisyonunda": 4796,
      "##oleybol": 4797,
      "Gürcistan": 4798,
      "Sol": 4799,
      "coğraf": 4800,
      "lideri": 4801,
      "mor": 4802,
      "müs": 4803,
      "odak": 4804,
      "park": 4805,
      "prens": 4806,
      "##ese": 4807,
      "yaptır": 4808,
      "etnik": 4809,
      "##örf": 4810,
      "dönüştür": 4811,
      "yakal": 4812,
      "halkı": 4813,
      "Orhan": 4814,
      "oynadığı": 4815,
      "azalt": 4816,
      "##lastik": 4817,
      "güneyinde": 4818,
      "Latin": 4819,
      "tüket": 4820,
      "yanlış": 4821,
      "kilometre": 4822,
      "Fu": 4823,
      "gıda": 4824,
      "##dy": 4825,
      "##maş": 4826,
      "##TV": 4827,
      "##erçev": 4828,
      "##oyu": 4829,
      "açıklama": 4830,
      "kolek": 4831,
      "ört": 4832,
      "Eser": 4833,
      "sene": 4834,
      "kuvvetleri": 4835,
      "gelecek": 4836,
      "klip": 4837,
      "Prince": 4838,
      "Rad": 4839,
      "cer": 4840,
      "rak": 4841,
      "ışı": 4842,
      "##unlu": 4843,
      "##esiz": 4844,
      "##ulları": 4845,
      "##mail": 4846,
      "anah": 4847,
      "##lenmektedir": 4848,
      "kullanan": 4849,
      "Birçok": 4850,
      "##ife": 4851,
      "taht": 4852,
      "İbrahim": 4853,
      "İlçenin": 4854,
      "dü": 4855,
      "felsef": 4856,
      "tor": 4857,
      "##ole": 4858,
      "##mam": 4859,
      "##BC": 4860,
      "##lemiştir": 4861,
      "##etz": 4862,
      "##ikat": 4863,
      "ann": 4864,
      "##cıları": 4865,
      "doğumlu": 4866,
      "hala": 4867,
      "##liğinden": 4868,
      "bazıları": 4869,
      "Belediyesi": 4870,
      "Meclisi": 4871,
      "finans": 4872,
      "malzem": 4873,
      "bakımından": 4874,
      "heykel": 4875,
      "Arjantin": 4876,
      "Cami": 4877,
      "Din": 4878,
      "Den": 4879,
      "Hard": 4880,
      "Jon": 4881,
      "Nil": 4882,
      "Pin": 4883,
      "Seri": 4884,
      "dram": 4885,
      "##süz": 4886,
      "##ıb": 4887,
      "##wn": 4888,
      "##anus": 4889,
      "##ins": 4890,
      "##dal": 4891,
      "##ayda": 4892,
      "dedi": 4893,
      "sonlarında": 4894,
      "Ana": 4895,
      "##alıdır": 4896,
      "doğusunda": 4897,
      "tane": 4898,
      "türleri": 4899,
      "gerekli": 4900,
      "Abd": 4901,
      "senar": 4902,
      "adlandırılan": 4903,
      "Franc": 4904,
      "ların": 4905,
      "Federasyonu": 4906,
      "sabit": 4907,
      "Sey": 4908,
      "Stan": 4909,
      "Ta": 4910,
      "mür": 4911,
      "##gat": 4912,
      "##amet": 4913,
      "teşk": 4914,
      "kullandı": 4915,
      "kalmıştır": 4916,
      "aktiv": 4917,
      "##amadı": 4918,
      "filminde": 4919,
      "ortadan": 4920,
      "babasının": 4921,
      "Fransızca": 4922,
      "Yarımada": 4923,
      "Air": 4924,
      "Lad": 4925,
      "Mut": 4926,
      "Sem": 4927,
      "Tal": 4928,
      "Tam": 4929,
      "mekt": 4930,
      "##sak": 4931,
      "##mos": 4932,
      "##vir": 4933,
      "yaptık": 4934,
      "başv": 4935,
      "yere": 4936,
      "##uluğ": 4937,
      "gereken": 4938,
      "diren": 4939,
      "terim": 4940,
      "Krallığı": 4941,
      "Katolik": 4942,
      "Adası": 4943,
      "Altay": 4944,
      "cinsel": 4945,
      "kütüphan": 4946,
      "tartışma": 4947,
      "Lov": 4948,
      "ban": 4949,
      "##rad": 4950,
      "##şah": 4951,
      "##wood": 4952,
      "##ira": 4953,
      "##isiklet": 4954,
      "##amik": 4955,
      "olas": 4956,
      "##uşu": 4957,
      "Ardından": 4958,
      "güncel": 4959,
      "Chris": 4960,
      "köş": 4961,
      "Thom": 4962,
      "barındır": 4963,
      "ismini": 4964,
      "George": 4965,
      "Milletler": 4966,
      "teşkil": 4967,
      "Alan": 4968,
      "Dep": 4969,
      "Diyar": 4970,
      "Nazi": 4971,
      "Park": 4972,
      "sarı": 4973,
      "##ix": 4974,
      "##ess": 4975,
      "biraz": 4976,
      "##etti": 4977,
      "araz": 4978,
      "önünde": 4979,
      "enfek": 4980,
      "günde": 4981,
      "bölgesine": 4982,
      "göstermektedir": 4983,
      "ilçesi": 4984,
      "oynayan": 4985,
      "başarısız": 4986,
      "taşındı": 4987,
      "Hükûmet": 4988,
      "Super": 4989,
      "Bit": 4990,
      "Mans": 4991,
      "ab": 4992,
      "pan": 4993,
      "tır": 4994,
      "vb": 4995,
      "##gur": 4996,
      "##şu": 4997,
      "almaya": 4998,
      "##umsuz": 4999,
      "başlandı": 5000,
      "##likleri": 5001,
      "kullanır": 5002,
      "##ukat": 5003,
      "bölgenin": 5004,
      "nedeni": 5005,
      "üretimi": 5006,
      "gerektir": 5007,
      "hasta": 5008,
      "elektro": 5009,
      "yaşındayken": 5010,
      "##que": 5011,
      "Ahmed": 5012,
      "Antlaşması": 5013,
      "enerj": 5014,
      "Konseyi": 5015,
      "beğ": 5016,
      "Britanya": 5017,
      "Kastam": 5018,
      "Des": 5019,
      "Eş": 5020,
      "Hor": 5021,
      "Tep": 5022,
      "net": 5023,
      "##OS": 5024,
      "##kur": 5025,
      "##erler": 5026,
      "##atürk": 5027,
      "##ulması": 5028,
      "yılın": 5029,
      "yaşanan": 5030,
      "profesör": 5031,
      "##ılıp": 5032,
      "tank": 5033,
      "seçilmiştir": 5034,
      "Martin": 5035,
      "Toplam": 5036,
      "Müzesi": 5037,
      "Eskişehir": 5038,
      "büyü": 5039,
      "##iplom": 5040,
      "Kafkas": 5041,
      "Ba": 5042,
      "bö": 5043,
      "ciddi": 5044,
      "Çar": 5045,
      "##ford": 5046,
      "##eld": 5047,
      "##avy": 5048,
      "##lup": 5049,
      "##lenebilir": 5050,
      "##ehr": 5051,
      "takımına": 5052,
      "sahipti": 5053,
      "elinde": 5054,
      "koruma": 5055,
      "örneğin": 5056,
      "Atatürk": 5057,
      "seviy": 5058,
      "##ijital": 5059,
      "muhtem": 5060,
      "Arapça": 5061,
      "simet": 5062,
      "Hüseyin": 5063,
      "Kilisesi": 5064,
      "##VID": 5065,
      "Record": 5066,
      "Ob": 5067,
      "Şu": 5068,
      "##ux": 5069,
      "##arta": 5070,
      "depr": 5071,
      "##eyle": 5072,
      "ilet": 5073,
      "yapmaya": 5074,
      "##ceği": 5075,
      "kadros": 5076,
      "geçmiştir": 5077,
      "takv": 5078,
      "Rusça": 5079,
      "görülmektedir": 5080,
      "İlçe": 5081,
      "dokuz": 5082,
      "Meclis": 5083,
      "etkileş": 5084,
      "Belçika": 5085,
      "BA": 5086,
      "Bos": 5087,
      "Hon": 5088,
      "Lim": 5089,
      "SSC": 5090,
      "Ur": 5091,
      "ikin": 5092,
      "##uda": 5093,
      "##ota": 5094,
      "##inen": 5095,
      "##lit": 5096,
      "##etin": 5097,
      "##ilerden": 5098,
      "##ebe": 5099,
      "geçerek": 5100,
      "##uvarı": 5101,
      "##acağı": 5102,
      "yetenek": 5103,
      "Evli": 5104,
      "galib": 5105,
      "Hasan": 5106,
      "##bakır": 5107,
      "organizasyon": 5108,
      "rekabet": 5109,
      "tartış": 5110,
      "katkıda": 5111,
      "Angeles": 5112,
      "telefon": 5113,
      "Aj": 5114,
      "Düz": 5115,
      "Far": 5116,
      "Phil": 5117,
      "Yan": 5118,
      "ağı": 5119,
      "biz": 5120,
      "şif": 5121,
      "##ıştır": 5122,
      "##pen": 5123,
      "##ılmasını": 5124,
      "##imiz": 5125,
      "##ağın": 5126,
      "ayı": 5127,
      "vermek": 5128,
      "kalp": 5129,
      "##ademi": 5130,
      "##leyici": 5131,
      "albümün": 5132,
      "Champ": 5133,
      "Cumhurbaşkanı": 5134,
      "öğrenc": 5135,
      "gelişmiş": 5136,
      "##lığının": 5137,
      "anlaşma": 5138,
      "batısında": 5139,
      "rej": 5140,
      "iletişim": 5141,
      "Elek": 5142,
      "Edeb": 5143,
      "MS": 5144,
      "Mih": 5145,
      "##day": 5146,
      "##ilerinde": 5147,
      "Türkmen": 5148,
      "yüzünden": 5149,
      "##rafik": 5150,
      "parlak": 5151,
      "türüdür": 5152,
      "Genellikle": 5153,
      "##tikten": 5154,
      "düzenli": 5155,
      "istasyon": 5156,
      "Program": 5157,
      "görülen": 5158,
      "çevresinde": 5159,
      "Max": 5160,
      "talep": 5161,
      "Richard": 5162,
      "Diyarbakır": 5163,
      "Gelen": 5164,
      "Ph": 5165,
      "Sw": 5166,
      "ib": 5167,
      "orada": 5168,
      "##gesi": 5169,
      "##cük": 5170,
      "##irler": 5171,
      "içeri": 5172,
      "gören": 5173,
      "org": 5174,
      "yayınlanmıştır": 5175,
      "##elendir": 5176,
      "tahta": 5177,
      "anlamda": 5178,
      "bağlantı": 5179,
      "Yönetim": 5180,
      "Stadyumu": 5181,
      "zirv": 5182,
      "August": 5183,
      "Haçlı": 5184,
      "döv": 5185,
      "feder": 5186,
      "gar": 5187,
      "##dit": 5188,
      "##lel": 5189,
      "##ünist": 5190,
      "başlıca": 5191,
      "aynalı": 5192,
      "onların": 5193,
      "katılmıştır": 5194,
      "çalışması": 5195,
      "kişisel": 5196,
      "kurulu": 5197,
      "dergi": 5198,
      "ikisi": 5199,
      "kurucusu": 5200,
      "çizgi": 5201,
      "finale": 5202,
      "COVID": 5203,
      "Dis": 5204,
      "Lan": 5205,
      "Ner": 5206,
      "Yol": 5207,
      "çerçev": 5208,
      "öde": 5209,
      "##uf": 5210,
      "##vik": 5211,
      "##ony": 5212,
      "birisi": 5213,
      "birinc": 5214,
      "anti": 5215,
      "ediyor": 5216,
      "vermektedir": 5217,
      "olmaya": 5218,
      "##ington": 5219,
      "##lamadı": 5220,
      "oynamıştır": 5221,
      "##iyatrosu": 5222,
      "basit": 5223,
      "özelliği": 5224,
      "yasal": 5225,
      "günümüze": 5226,
      "Matt": 5227,
      "##yasal": 5228,
      "kapsamında": 5229,
      "##maşık": 5230,
      "Yen": 5231,
      "dam": 5232,
      "##dün": 5233,
      "##gam": 5234,
      "##cy": 5235,
      "##cası": 5236,
      "dep": 5237,
      "anlay": 5238,
      "tec": 5239,
      "##oto": 5240,
      "yardı": 5241,
      "durumunda": 5242,
      "Leon": 5243,
      "seçimlerinde": 5244,
      "efsan": 5245,
      "Moğol": 5246,
      "Kastamonu": 5247,
      "Gro": 5248,
      "Hır": 5249,
      "Hit": 5250,
      "Kn": 5251,
      "Kış": 5252,
      "Poli": 5253,
      "Sistem": 5254,
      "atı": 5255,
      "giden": 5256,
      "ide": 5257,
      "pr": 5258,
      "tıp": 5259,
      "##zan": 5260,
      "Antik": 5261,
      "getirildi": 5262,
      "##tifak": 5263,
      "Bölge": 5264,
      "giydi": 5265,
      "modeli": 5266,
      "ölümünden": 5267,
      "mikro": 5268,
      "Hacı": 5269,
      "operasyon": 5270,
      "problem": 5271,
      "Cer": 5272,
      "kov": 5273,
      "mir": 5274,
      "##tarı": 5275,
      "##ls": 5276,
      "##ue": 5277,
      "##mamıştır": 5278,
      "##yolu": 5279,
      "yerli": 5280,
      "##ilmesine": 5281,
      "yaşamı": 5282,
      "##chi": 5283,
      "asit": 5284,
      "##leyic": 5285,
      "insanlar": 5286,
      "Filmin": 5287,
      "çalıştır": 5288,
      "larda": 5289,
      "renkli": 5290,
      "olduğuna": 5291,
      "üniversite": 5292,
      "liman": 5293,
      "seyahat": 5294,
      "fonksiyon": 5295,
      "Veli": 5296,
      "cep": 5297,
      "hip": 5298,
      "##gusal": 5299,
      "##rip": 5300,
      "##nam": 5301,
      "##cus": 5302,
      "##vis": 5303,
      "##án": 5304,
      "##ush": 5305,
      "##sta": 5306,
      "kart": 5307,
      "verilir": 5308,
      "##uzu": 5309,
      "edilebilir": 5310,
      "bağış": 5311,
      "İsken": 5312,
      "##ıldığında": 5313,
      "bellek": 5314,
      "evren": 5315,
      "istem": 5316,
      "Milletvek": 5317,
      "##off": 5318,
      "toplamda": 5319,
      "sınıfı": 5320,
      "Savunma": 5321,
      "sergilen": 5322,
      "sokak": 5323,
      "Çalışma": 5324,
      "kapasit": 5325,
      "güreş": 5326,
      "Champion": 5327,
      "Juli": 5328,
      "bor": 5329,
      "du": 5330,
      "mül": 5331,
      "yir": 5332,
      "##ğının": 5333,
      "##ileb": 5334,
      "birden": 5335,
      "##ebek": 5336,
      "##ilmesini": 5337,
      "çalışır": 5338,
      "asist": 5339,
      "merkezli": 5340,
      "kişidir": 5341,
      "gerçekleştirilen": 5342,
      "sarmal": 5343,
      "##iskop": 5344,
      "numaraya": 5345,
      "Henry": 5346,
      "Kum": 5347,
      "Mich": 5348,
      "Nec": 5349,
      "Pak": 5350,
      "Vir": 5351,
      "ces": 5352,
      "hit": 5353,
      "ob": 5354,
      "##rimi": 5355,
      "##hal": 5356,
      "##isa": 5357,
      "##rav": 5358,
      "##ülür": 5359,
      "##tain": 5360,
      "kadro": 5361,
      "##ersiz": 5362,
      "##lerindeki": 5363,
      "kabil": 5364,
      "##ıyı": 5365,
      "müda": 5366,
      "kanun": 5367,
      "Bilg": 5368,
      "hattı": 5369,
      "giyen": 5370,
      "beşinci": 5371,
      "demok": 5372,
      "hükûmeti": 5373,
      "nesil": 5374,
      "kaydetti": 5375,
      "Victor": 5376,
      "stadyum": 5377,
      "Eğer": 5378,
      "Hint": 5379,
      "Mev": 5380,
      "güz": 5381,
      "mac": 5382,
      "##RI": 5383,
      "##emli": 5384,
      "göm": 5385,
      "yapısı": 5386,
      "oyunun": 5387,
      "yazılmış": 5388,
      "##düs": 5389,
      "zamanında": 5390,
      "düşür": 5391,
      "evlendi": 5392,
      "isteyen": 5393,
      "otob": 5394,
      "tesis": 5395,
      "hatt": 5396,
      "askerî": 5397,
      "kahver": 5398,
      "Sırbistan": 5399,
      "Yüzölçümü": 5400,
      "sıcaklık": 5401,
      "ihra": 5402,
      "sanatçısı": 5403,
      "Farsça": 5404,
      "Danimarka": 5405,
      "Records": 5406,
      "Cla": 5407,
      "dile": 5408,
      "ez": 5409,
      "kg": 5410,
      "mens": 5411,
      "şah": 5412,
      "##rem": 5413,
      "##cer": 5414,
      "##enler": 5415,
      "##laz": 5416,
      "##espor": 5417,
      "birimi": 5418,
      "##ılmasına": 5419,
      "bulundur": 5420,
      "İsmail": 5421,
      "aksine": 5422,
      "aracı": 5423,
      "kapalı": 5424,
      "##liğinin": 5425,
      "mühendis": 5426,
      "öğrenci": 5427,
      "taban": 5428,
      "hayatına": 5429,
      "##ücut": 5430,
      "##lığın": 5431,
      "Edward": 5432,
      "##ship": 5433,
      "Dışişleri": 5434,
      "ekiplerinden": 5435,
      "ilişkin": 5436,
      "Biy": 5437,
      "Bre": 5438,
      "Est": 5439,
      "Mim": 5440,
      "Nin": 5441,
      "Vil": 5442,
      "com": 5443,
      "emir": 5444,
      "gemi": 5445,
      "süs": 5446,
      "tir": 5447,
      "##ps": 5448,
      "##inç": 5449,
      "##lerdi": 5450,
      "##orat": 5451,
      "olanak": 5452,
      "geçici": 5453,
      "yazılan": 5454,
      "denk": 5455,
      "##elerden": 5456,
      "akıl": 5457,
      "aralarında": 5458,
      "halde": 5459,
      "eline": 5460,
      "yandan": 5461,
      "##ileştir": 5462,
      "iklim": 5463,
      "bina": 5464,
      "Intern": 5465,
      "muhaf": 5466,
      "Örgüt": 5467,
      "meditasyon": 5468,
      "İskender": 5469,
      "CE": 5470,
      "Dom": 5471,
      "Seb": 5472,
      "Tw": 5473,
      "pet": 5474,
      "pot": 5475,
      "yans": 5476,
      "Çele": 5477,
      "Şark": 5478,
      "##gisi": 5479,
      "##çisi": 5480,
      "##leridir": 5481,
      "alma": 5482,
      "##avut": 5483,
      "etki": 5484,
      "denet": 5485,
      "karşılı": 5486,
      "yayınlan": 5487,
      "Almanca": 5488,
      "önceleri": 5489,
      "çekildi": 5490,
      "##layıp": 5491,
      "hızla": 5492,
      "emr": 5493,
      "bitirdi": 5494,
      "kütle": 5495,
      "Nev": 5496,
      "To": 5497,
      "beden": 5498,
      "##tle": 5499,
      "##lok": 5500,
      "##çilik": 5501,
      "##mesinde": 5502,
      "##TO": 5503,
      "##ure": 5504,
      "##steri": 5505,
      "##mekteydi": 5506,
      "geldiği": 5507,
      "##ign": 5508,
      "milyar": 5509,
      "gösterildi": 5510,
      "danış": 5511,
      "##orth": 5512,
      "nüfusun": 5513,
      "tablo": 5514,
      "genişlet": 5515,
      "rekor": 5516,
      "çözüm": 5517,
      "otomatik": 5518,
      "tedavi": 5519,
      "Antalya": 5520,
      "Yarımadası": 5521,
      "Gül": 5522,
      "Kuş": 5523,
      "Sne": 5524,
      "##kır": 5525,
      "##ılma": 5526,
      "##eyrek": 5527,
      "başla": 5528,
      "kalk": 5529,
      "İskil": 5530,
      "takımları": 5531,
      "okun": 5532,
      "metin": 5533,
      "yetene": 5534,
      "molek": 5535,
      "Inter": 5536,
      "edecek": 5537,
      "bıraktı": 5538,
      "Modern": 5539,
      "Yerli": 5540,
      "Latince": 5541,
      "Silah": 5542,
      "hidro": 5543,
      "Ail": 5544,
      "Civ": 5545,
      "Pop": 5546,
      "Pri": 5547,
      "cem": 5548,
      "diplom": 5549,
      "dijital": 5550,
      "fe": 5551,
      "şer": 5552,
      "##tısı": 5553,
      "##gh": 5554,
      "##güne": 5555,
      "göv": 5556,
      "##mıyla": 5557,
      "oldukları": 5558,
      "##ersin": 5559,
      "##mışlardır": 5560,
      "##ings": 5561,
      "çekti": 5562,
      "köyü": 5563,
      "dost": 5564,
      "ressam": 5565,
      "Hanım": 5566,
      "dünyada": 5567,
      "sınıflandır": 5568,
      "kayıp": 5569,
      "otomobil": 5570,
      "Kudüs": 5571,
      "Vakf": 5572,
      "Kısa": 5573,
      "incelen": 5574,
      "Gram": 5575,
      "Kel": 5576,
      "NBA": 5577,
      "Sek": 5578,
      "co": 5579,
      "nadir": 5580,
      "tren": 5581,
      "İt": 5582,
      "Şeyh": 5583,
      "##sat": 5584,
      "##ski": 5585,
      "##mel": 5586,
      "##ys": 5587,
      "##PG": 5588,
      "##HP": 5589,
      "##ıntı": 5590,
      "##diğinde": 5591,
      "Türkç": 5592,
      "kenti": 5593,
      "##tren": 5594,
      "çekir": 5595,
      "##vanya": 5596,
      "bastır": 5597,
      "##layıcı": 5598,
      "##bayev": 5599,
      "yardımcısı": 5600,
      "halkın": 5601,
      "yayımlandı": 5602,
      "numara": 5603,
      "saray": 5604,
      "yatırım": 5605,
      "babasıdır": 5606,
      "Donan": 5607,
      "Topluluğu": 5608,
      "Sağlık": 5609,
      "Dört": 5610,
      "Çelebi": 5611,
      "Bon": 5612,
      "Bek": 5613,
      "Hel": 5614,
      "Hey": 5615,
      "Ki": 5616,
      "sad": 5617,
      "tay": 5618,
      "Çay": 5619,
      "##sar": 5620,
      "##ić": 5621,
      "##idir": 5622,
      "##fak": 5623,
      "Anton": 5624,
      "##erkes": 5625,
      "devrim": 5626,
      "##ifik": 5627,
      "unsur": 5628,
      "üretic": 5629,
      "yenerek": 5630,
      "Kole": 5631,
      "adayı": 5632,
      "bunların": 5633,
      "birbirine": 5634,
      "amaçlı": 5635,
      "Cas": 5636,
      "Ceph": 5637,
      "Hem": 5638,
      "Nazar": 5639,
      "Sor": 5640,
      "dos": 5641,
      "##ku": 5642,
      "##temi": 5643,
      "##lası": 5644,
      "##mey": 5645,
      "##memiş": 5646,
      "##RT": 5647,
      "##lağ": 5648,
      "##eten": 5649,
      "##amaz": 5650,
      "içi": 5651,
      "##hale": 5652,
      "##ive": 5653,
      "sıral": 5654,
      "##chel": 5655,
      "sergil": 5656,
      "##alandır": 5657,
      "forması": 5658,
      "olmadan": 5659,
      "ilişkiler": 5660,
      "kullanılabilir": 5661,
      "##ternatif": 5662,
      "Bunlardan": 5663,
      "derecede": 5664,
      "Romanya": 5665,
      "Güvenlik": 5666,
      "taşımaktadır": 5667,
      "Ban": 5668,
      "Dir": 5669,
      "Lav": 5670,
      "Ori": 5671,
      "Tiyatrosu": 5672,
      "kuy": 5673,
      "süper": 5674,
      "tapın": 5675,
      "Ölüm": 5676,
      "##net": 5677,
      "##uml": 5678,
      "##ısındaki": 5679,
      "ettiler": 5680,
      "##oslav": 5681,
      "##edeki": 5682,
      "parlament": 5683,
      "Enter": 5684,
      "sezonun": 5685,
      "sezonunun": 5686,
      "serisi": 5687,
      "dilinde": 5688,
      "yaşamaktadır": 5689,
      "makine": 5690,
      "Oyunları": 5691,
      "Euro": 5692,
      "hükümdar": 5693,
      "ürünleri": 5694,
      "gerçekleşen": 5695,
      "Gençlik": 5696,
      "özgü": 5697,
      "Kürt": 5698,
      "asıllı": 5699,
      "##tuluş": 5700,
      "İskilip": 5701,
      "Bundan": 5702,
      "Ciz": 5703,
      "Jac": 5704,
      "Kav": 5705,
      "Kiş": 5706,
      "Miss": 5707,
      "bomb": 5708,
      "çaba": 5709,
      "##itir": 5710,
      "##aborat": 5711,
      "##ceğini": 5712,
      "##osunu": 5713,
      "yaratı": 5714,
      "esir": 5715,
      "onur": 5716,
      "baskın": 5717,
      "üstlendi": 5718,
      "Abbas": 5719,
      "arttır": 5720,
      "dalında": 5721,
      "kralı": 5722,
      "##yaspor": 5723,
      "İdari": 5724,
      "Filipinler": 5725,
      "##allenin": 5726,
      "esnasında": 5727,
      "Black": 5728,
      "bünyesinde": 5729,
      "anahtar": 5730,
      "Ege": 5731,
      "Mada": 5732,
      "Prens": 5733,
      "yoks": 5734,
      "Çift": 5735,
      "##seri": 5736,
      "##ii": 5737,
      "##uğ": 5738,
      "##lılar": 5739,
      "##imin": 5740,
      "##itör": 5741,
      "##ısal": 5742,
      "aydın": 5743,
      "kullandığı": 5744,
      "sürede": 5745,
      "##over": 5746,
      "yöntemi": 5747,
      "uzan": 5748,
      "##ısıt": 5749,
      "ölümü": 5750,
      "görevlendir": 5751,
      "##gia": 5752,
      "halka": 5753,
      "kazandır": 5754,
      "##giller": 5755,
      "atom": 5756,
      "Christ": 5757,
      "##olojisi": 5758,
      "Akademi": 5759,
      "Birleşmiş": 5760,
      "karakteri": 5761,
      "öldürül": 5762,
      "idare": 5763,
      "ekibi": 5764,
      "beklen": 5765,
      "eleştirmen": 5766,
      "Apple": 5767,
      "Arnavut": 5768,
      "uğraş": 5769,
      "Körf": 5770,
      "ailenin": 5771,
      "##gör": 5772,
      "##no": 5773,
      "##yle": 5774,
      "##onun": 5775,
      "##ımız": 5776,
      "tarzı": 5777,
      "karmaşık": 5778,
      "etik": 5779,
      "##üyordu": 5780,
      "##igür": 5781,
      "##odoks": 5782,
      "##tikleri": 5783,
      "önceden": 5784,
      "isten": 5785,
      "Abdül": 5786,
      "kullanılarak": 5787,
      "semt": 5788,
      "vazgeç": 5789,
      "milliyet": 5790,
      "Mik": 5791,
      "Mit": 5792,
      "Mersin": 5793,
      "Oper": 5794,
      "Zey": 5795,
      "det": 5796,
      "##kol": 5797,
      "##vanı": 5798,
      "##arya": 5799,
      "##illiği": 5800,
      "##okulu": 5801,
      "##lence": 5802,
      "##caktır": 5803,
      "All": 5804,
      "##cia": 5805,
      "edildiği": 5806,
      "##ilmeye": 5807,
      "açıldı": 5808,
      "##portaj": 5809,
      "kapan": 5810,
      "yönettiği": 5811,
      "maça": 5812,
      "imk": 5813,
      "geliştirme": 5814,
      "ilişkili": 5815,
      "##ijder": 5816,
      "kahraman": 5817,
      "pilot": 5818,
      "unvanını": 5819,
      "Championship": 5820,
      "Sneijder": 5821,
      "Nazarbayev": 5822,
      "Fri": 5823,
      "Jeff": 5824,
      "düştü": 5825,
      "rest": 5826,
      "yitir": 5827,
      "##ky": 5828,
      "##darı": 5829,
      "##rich": 5830,
      "##dık": 5831,
      "olumsuz": 5832,
      "yaprak": 5833,
      "##elim": 5834,
      "süreli": 5835,
      "oyunc": 5836,
      "sahipliği": 5837,
      "sistemleri": 5838,
      "Parlament": 5839,
      "Sonra": 5840,
      "inşaat": 5841,
      "ödülünü": 5842,
      "kilise": 5843,
      "ailesinin": 5844,
      "uğra": 5845,
      "sürdürdü": 5846,
      "kulübü": 5847,
      "kayıtlarında": 5848,
      "başkent": 5849,
      "Madrid": 5850,
      "hapis": 5851,
      "teşvik": 5852,
      "virüs": 5853,
      "soğuk": 5854,
      "Sonraki": 5855,
      "Selçuklu": 5856,
      "gerektiğini": 5857,
      "istifa": 5858,
      "karşılığında": 5859,
      "Bütün": 5860,
      "Cat": 5861,
      "Por": 5862,
      "Sib": 5863,
      "tuz": 5864,
      "zafer": 5865,
      "İli": 5866,
      "##liliği": 5867,
      "##gü": 5868,
      "##zade": 5869,
      "##astır": 5870,
      "##imet": 5871,
      "##tihar": 5872,
      "sonuna": 5873,
      "başkanlığı": 5874,
      "##ilendir": 5875,
      "birlikleri": 5876,
      "sağlam": 5877,
      "Karab": 5878,
      "hakları": 5879,
      "farklılık": 5880,
      "##ecektir": 5881,
      "Komünist": 5882,
      "Hareket": 5883,
      "##başkanlığı": 5884,
      "Okyan": 5885,
      "Adaları": 5886,
      "Barış": 5887,
      "Tümeni": 5888,
      "toplumsal": 5889,
      "numaralı": 5890,
      "maruz": 5891,
      "Finland": 5892,
      "Ticaret": 5893,
      "Camii": 5894,
      "Kab": 5895,
      "Of": 5896,
      "Plat": 5897,
      "Ul": 5898,
      "Vi": 5899,
      "Yazar": 5900,
      "aj": 5901,
      "nu": 5902,
      "yiye": 5903,
      "yukarı": 5904,
      "##dun": 5905,
      "##öm": 5906,
      "##mun": 5907,
      "##led": 5908,
      "##lip": 5909,
      "##ayarak": 5910,
      "##aza": 5911,
      "##itik": 5912,
      "##ted": 5913,
      "##ağına": 5914,
      "işçi": 5915,
      "protein": 5916,
      "##deres": 5917,
      "eksik": 5918,
      "hayran": 5919,
      "düzenleme": 5920,
      "şarkıyı": 5921,
      "benekli": 5922,
      "gruba": 5923,
      "Bakü": 5924,
      "hatır": 5925,
      "çıktığı": 5926,
      "mesaj": 5927,
      "üyesidir": 5928,
      "Andre": 5929,
      "Mühendis": 5930,
      "##ğretim": 5931,
      "seyir": 5932,
      "strate": 5933,
      "röportaj": 5934,
      "Nap": 5935,
      "Rom": 5936,
      "Yal": 5937,
      "baraj": 5938,
      "şüp": 5939,
      "##var": 5940,
      "##bil": 5941,
      "##ja": 5942,
      "##unt": 5943,
      "##ılmaya": 5944,
      "##ezerv": 5945,
      "##üllü": 5946,
      "kalma": 5947,
      "##elek": 5948,
      "##esto": 5949,
      "yüks": 5950,
      "altındaki": 5951,
      "yönetmeni": 5952,
      "oynamaktadır": 5953,
      "##lerdeki": 5954,
      "sözcük": 5955,
      "rolü": 5956,
      "##ılmasıyla": 5957,
      "mezunu": 5958,
      "Adalet": 5959,
      "Onun": 5960,
      "Goetz": 5961,
      "vurgu": 5962,
      "Üçüncü": 5963,
      "anayasa": 5964,
      "ilaç": 5965,
      "##gresi": 5966,
      "mektup": 5967,
      "SSCB": 5968,
      "yirmi": 5969,
      "Balt": 5970,
      "Gi": 5971,
      "Nas": 5972,
      "Pier": 5973,
      "Stal": 5974,
      "ata": 5975,
      "büt": 5976,
      "fiyat": 5977,
      "fayda": 5978,
      "idam": 5979,
      "kuz": 5980,
      "müşt": 5981,
      "piyan": 5982,
      "##log": 5983,
      "önde": 5984,
      "süresi": 5985,
      "yazılı": 5986,
      "##ech": 5987,
      "katıldığı": 5988,
      "##trik": 5989,
      "köyün": 5990,
      "okudu": 5991,
      "oluşturdu": 5992,
      "ayrılmıştır": 5993,
      "##alanan": 5994,
      "ederken": 5995,
      "dağılım": 5996,
      "yükselt": 5997,
      "alış": 5998,
      "bunlar": 5999,
      "Music": 6000,
      "tasvir": 6001,
      "Kutsal": 6002,
      "düşünülmektedir": 6003,
      "Zelanda": 6004,
      "Çanak": 6005,
      "Li": 6006,
      "Rab": 6007,
      "Yug": 6008,
      "bür": 6009,
      "bisiklet": 6010,
      "feth": 6011,
      "mavi": 6012,
      "op": 6013,
      "refer": 6014,
      "##ücu": 6015,
      "##gılan": 6016,
      "##bor": 6017,
      "##lığında": 6018,
      "olumlu": 6019,
      "yapıldığı": 6020,
      "Bugün": 6021,
      "yanına": 6022,
      "sözleş": 6023,
      "oluşturduğu": 6024,
      "##eceği": 6025,
      "sıv": 6026,
      "olaylar": 6027,
      "kulüplerinde": 6028,
      "##doğusunda": 6029,
      "açıdan": 6030,
      "bugünkü": 6031,
      "cumhuriyet": 6032,
      "##koç": 6033,
      "yörün": 6034,
      "Fatih": 6035,
      "çiçek": 6036,
      "galibiyet": 6037,
      "Ag": 6038,
      "DS": 6039,
      "Diz": 6040,
      "Eyaleti": 6041,
      "Fır": 6042,
      "Lin": 6043,
      "Vat": 6044,
      "mod": 6045,
      "send": 6046,
      "ış": 6047,
      "##mat": 6048,
      "##pınar": 6049,
      "##bar": 6050,
      "##isiz": 6051,
      "##itif": 6052,
      "##diz": 6053,
      "##izy": 6054,
      "##edinci": 6055,
      "sürümü": 6056,
      "##ukur": 6057,
      "tekli": 6058,
      "sezonda": 6059,
      "alınmıştır": 6060,
      "aittir": 6061,
      "maliyet": 6062,
      "kıyısında": 6063,
      "adlandırılır": 6064,
      "Sırp": 6065,
      "kalıntı": 6066,
      "Bulgaristan": 6067,
      "Demokrat": 6068,
      "Başbakan": 6069,
      "Ölümü": 6070,
      "kahverengi": 6071,
      "Adı": 6072,
      "Ela": 6073,
      "Lib": 6074,
      "Nov": 6075,
      "Tut": 6076,
      "Wat": 6077,
      "dis": 6078,
      "##şam": 6079,
      "##şev": 6080,
      "##paşa": 6081,
      "##bilim": 6082,
      "##ekim": 6083,
      "##aff": 6084,
      "##avru": 6085,
      "##undadır": 6086,
      "deng": 6087,
      "devleti": 6088,
      "zamanlar": 6089,
      "akış": 6090,
      "karşılaştı": 6091,
      "kişilerin": 6092,
      "atış": 6093,
      "bakış": 6094,
      "Kraliyet": 6095,
      "Hanedan": 6096,
      "kimyasal": 6097,
      "##acaktır": 6098,
      "tanınan": 6099,
      "Balkan": 6100,
      "turnuva": 6101,
      "Önce": 6102,
      "##mith": 6103,
      "korumak": 6104,
      "emekli": 6105,
      "Gelenek": 6106,
      "Piyade": 6107,
      "Sez": 6108,
      "gay": 6109,
      "##ömür": 6110,
      "##uki": 6111,
      "##MS": 6112,
      "##aspor": 6113,
      "başladığı": 6114,
      "intihar": 6115,
      "Alp": 6116,
      "tarihinin": 6117,
      "gelmiş": 6118,
      "##acılık": 6119,
      "##dere": 6120,
      "evlen": 6121,
      "belirgin": 6122,
      "yetkil": 6123,
      "##zığ": 6124,
      "kadınlar": 6125,
      "Kayseri": 6126,
      "şehridir": 6127,
      "mimari": 6128,
      "duyurdu": 6129,
      "şunlardır": 6130,
      "edip": 6131,
      "Finlandiya": 6132,
      "Yugoslav": 6133,
      "Fre": 6134,
      "Il": 6135,
      "Ov": 6136,
      "Sun": 6137,
      "Video": 6138,
      "disk": 6139,
      "je": 6140,
      "kısıt": 6141,
      "##rest": 6142,
      "##ydi": 6143,
      "##ben": 6144,
      "##asal": 6145,
      "##rag": 6146,
      "##okul": 6147,
      "##likte": 6148,
      "##uke": 6149,
      "alanları": 6150,
      "Erdoğan": 6151,
      "Kardeş": 6152,
      "sanayi": 6153,
      "bask": 6154,
      "içermektedir": 6155,
      "rolünü": 6156,
      "bilgiler": 6157,
      "Turnuv": 6158,
      "muhareb": 6159,
      "konuşma": 6160,
      "istedi": 6161,
      "medya": 6162,
      "Kütüphan": 6163,
      "nitelendir": 6164,
      "Murat": 6165,
      "Görev": 6166,
      "##alimanı": 6167,
      "faktör": 6168,
      "reform": 6169,
      "muhtemelen": 6170,
      "Fizik": 6171,
      "Lar": 6172,
      "Vla": 6173,
      "hac": 6174,
      "lit": 6175,
      "nükle": 6176,
      "pir": 6177,
      "##ae": 6178,
      "##gür": 6179,
      "##ğiyle": 6180,
      "##cağını": 6181,
      "##ilmişti": 6182,
      "##etiyle": 6183,
      "##aze": 6184,
      "##ülük": 6185,
      "##ülasyon": 6186,
      "bulunm": 6187,
      "açılan": 6188,
      "onlara": 6189,
      "zamanlarda": 6190,
      "bağlıdır": 6191,
      "göstermiştir": 6192,
      "girmiştir": 6193,
      "moda": 6194,
      "geçirdiği": 6195,
      "geliştirilen": 6196,
      "Komitesi": 6197,
      "yaşamını": 6198,
      "kemeri": 6199,
      "elektronik": 6200,
      "hanedan": 6201,
      "bölgelerde": 6202,
      "kısmını": 6203,
      "öyk": 6204,
      "rakip": 6205,
      "Herschel": 6206,
      "Aşk": 6207,
      "Bin": 6208,
      "Cel": 6209,
      "Koz": 6210,
      "Sad": 6211,
      "sk": 6212,
      "vücut": 6213,
      "##çer": 6214,
      "##vin": 6215,
      "##jik": 6216,
      "##itz": 6217,
      "aralık": 6218,
      "önüne": 6219,
      "##alılar": 6220,
      "sahil": 6221,
      "saniye": 6222,
      "düzenlendi": 6223,
      "aşk": 6224,
      "olmakla": 6225,
      "Afrik": 6226,
      "parçacık": 6227,
      "İşçi": 6228,
      "bağlantılar": 6229,
      "sporcu": 6230,
      "sunucu": 6231,
      "kopya": 6232,
      "Ortodoks": 6233,
      "ilişki": 6234,
      "hastalığı": 6235,
      "Geliş": 6236,
      "Francis": 6237,
      "Çanakkale": 6238,
      "Dün": 6239,
      "Düş": 6240,
      "Ke": 6241,
      "King": 6242,
      "Sta": 6243,
      "Wash": 6244,
      "cami": 6245,
      "füz": 6246,
      "ister": 6247,
      "itir": 6248,
      "suyu": 6249,
      "##gir": 6250,
      "##ğren": 6251,
      "##memiştir": 6252,
      "##ander": 6253,
      "##urg": 6254,
      "##abilen": 6255,
      "arama": 6256,
      "yerleşti": 6257,
      "aylarında": 6258,
      "tarafında": 6259,
      "yazmıştır": 6260,
      "oyunları": 6261,
      "yönetilen": 6262,
      "boyu": 6263,
      "komşu": 6264,
      "oluşturulan": 6265,
      "otor": 6266,
      "##lendirme": 6267,
      "genelde": 6268,
      "iddi": 6269,
      "komutan": 6270,
      "Saint": 6271,
      "##sky": 6272,
      "hangi": 6273,
      "paralel": 6274,
      "Compan": 6275,
      "Menderes": 6276,
      "Hardy": 6277,
      "Cab": 6278,
      "Dub": 6279,
      "Ir": 6280,
      "Klas": 6281,
      "Mel": 6282,
      "Pen": 6283,
      "Tür": 6284,
      "WW": 6285,
      "lay": 6286,
      "nih": 6287,
      "oyla": 6288,
      "solo": 6289,
      "##ılabilir": 6290,
      "##ct": 6291,
      "##ake": 6292,
      "##rahi": 6293,
      "istih": 6294,
      "##ciğer": 6295,
      "çıkmış": 6296,
      "sağlamıştır": 6297,
      "kazanarak": 6298,
      "Konya": 6299,
      "köpek": 6300,
      "şehirde": 6301,
      "soruml": 6302,
      "olmadı": 6303,
      "öncesinde": 6304,
      "şarkının": 6305,
      "meydan": 6306,
      "ülkelerde": 6307,
      "tanınmış": 6308,
      "Uzay": 6309,
      "inceleme": 6310,
      "noktası": 6311,
      "Göztepe": 6312,
      "iptal": 6313,
      "bahsed": 6314,
      "Love": 6315,
      "International": 6316,
      "potans": 6317,
      "Washington": 6318,
      "Nat": 6319,
      "Red": 6320,
      "Tapın": 6321,
      "çub": 6322,
      "##tre": 6323,
      "##lanarak": 6324,
      "##orf": 6325,
      "olduktan": 6326,
      "tarihte": 6327,
      "adının": 6328,
      "tanınır": 6329,
      "##ube": 6330,
      "##eferi": 6331,
      "atlet": 6332,
      "kendisinin": 6333,
      "grubunun": 6334,
      "uzunluğu": 6335,
      "çalışmalarına": 6336,
      "kişiden": 6337,
      "ederler": 6338,
      "imza": 6339,
      "karakterini": 6340,
      "komutanı": 6341,
      "avukat": 6342,
      "dayanan": 6343,
      "##malıdır": 6344,
      "dayalı": 6345,
      "cevap": 6346,
      "subay": 6347,
      "Augustus": 6348,
      "Gil": 6349,
      "Nob": 6350,
      "Pot": 6351,
      "Ren": 6352,
      "Yazı": 6353,
      "gümüş": 6354,
      "kaya": 6355,
      "kıt": 6356,
      "paket": 6357,
      "Üs": 6358,
      "##sü": 6359,
      "##ois": 6360,
      "##ysa": 6361,
      "##NE": 6362,
      "##erken": 6363,
      "##ild": 6364,
      "##ald": 6365,
      "birik": 6366,
      "biriydi": 6367,
      "##abilecek": 6368,
      "##ilerinden": 6369,
      "yerlerde": 6370,
      "uzanan": 6371,
      "alanlarda": 6372,
      "gerçekleşti": 6373,
      "Özbek": 6374,
      "değildi": 6375,
      "off": 6376,
      "dilleri": 6377,
      "tabanlı": 6378,
      "sınırlı": 6379,
      "Mahalle": 6380,
      "gönderildi": 6381,
      "##bola": 6382,
      "##türü": 6383,
      "çoğunluğu": 6384,
      "reak": 6385,
      "kampan": 6386,
      "Joseph": 6387,
      "başvur": 6388,
      "mensup": 6389,
      "##şevik": 6390,
      "IS": 6391,
      "Karak": 6392,
      "Rol": 6393,
      "Tro": 6394,
      "Tıp": 6395,
      "fer": 6396,
      "frek": 6397,
      "sakat": 6398,
      "tüy": 6399,
      "tıb": 6400,
      "##ric": 6401,
      "##ılarak": 6402,
      "##memektedir": 6403,
      "##hak": 6404,
      "##ydu": 6405,
      "##ann": 6406,
      "##ase": 6407,
      "birliği": 6408,
      "##madığı": 6409,
      "##tic": 6410,
      "artan": 6411,
      "##opolis": 6412,
      "##tıcı": 6413,
      "konuk": 6414,
      "##igh": 6415,
      "denilen": 6416,
      "##chester": 6417,
      "prodük": 6418,
      "görevine": 6419,
      "yolcu": 6420,
      "oksi": 6421,
      "Maria": 6422,
      "değişim": 6423,
      "dışarı": 6424,
      "çocukları": 6425,
      "yakınlarında": 6426,
      "Komisyonu": 6427,
      "kemik": 6428,
      "Maked": 6429,
      "fırlat": 6430,
      "olacaktır": 6431,
      "gezeg": 6432,
      "satışa": 6433,
      "kupa": 6434,
      "Gazet": 6435,
      "başkanlık": 6436,
      "düzeyde": 6437,
      "küresel": 6438,
      "gövde": 6439,
      "şüph": 6440,
      "layık": 6441,
      "Cap": 6442,
      "Kos": 6443,
      "Pek": 6444,
      "Up": 6445,
      "Çam": 6446,
      "Çünkü": 6447,
      "##ğünde": 6448,
      "##cın": 6449,
      "##lemektedir": 6450,
      "##lie": 6451,
      "birinin": 6452,
      "##iti": 6453,
      "##ükem": 6454,
      "##avir": 6455,
      "antren": 6456,
      "Ark": 6457,
      "İsf": 6458,
      "takımlar": 6459,
      "özgün": 6460,
      "seçilen": 6461,
      "Devrimi": 6462,
      "sisteminin": 6463,
      "komedi": 6464,
      "çıkardığı": 6465,
      "görüldü": 6466,
      "##lins": 6467,
      "Tekn": 6468,
      "ligi": 6469,
      "Hastan": 6470,
      "Albümün": 6471,
      "##awa": 6472,
      "##uyucu": 6473,
      "tehdit": 6474,
      "Ebu": 6475,
      "Edebiyat": 6476,
      "Ninten": 6477,
      "Civic": 6478,
      "Dam": 6479,
      "Ele": 6480,
      "Ga": 6481,
      "Yukarı": 6482,
      "boğ": 6483,
      "eğer": 6484,
      "pap": 6485,
      "vol": 6486,
      "yansı": 6487,
      "özerk": 6488,
      "ötürü": 6489,
      "##sul": 6490,
      "##sem": 6491,
      "##DA": 6492,
      "ilham": 6493,
      "aray": 6494,
      "##tanı": 6495,
      "gelin": 6496,
      "yarım": 6497,
      "İskoç": 6498,
      "devre": 6499,
      "Erken": 6500,
      "tamamı": 6501,
      "eğlence": 6502,
      "##liğindeki": 6503,
      "savaşı": 6504,
      "değeri": 6505,
      "yapılacak": 6506,
      "Afgan": 6507,
      "kadınların": 6508,
      "kısaca": 6509,
      "Okul": 6510,
      "hazırlık": 6511,
      "Aziz": 6512,
      "Gerçek": 6513,
      "mümkündür": 6514,
      "karışık": 6515,
      "Gaziante": 6516,
      "akademik": 6517,
      "rahatsız": 6518,
      "zırhlı": 6519,
      "##tainment": 6520,
      "petrol": 6521,
      "Cephesi": 6522,
      "Gaziantep": 6523,
      "Big": 6524,
      "Gor": 6525,
      "Tour": 6526,
      "Univers": 6527,
      "kâ": 6528,
      "not": 6529,
      "rezerv": 6530,
      "tez": 6531,
      "##keri": 6532,
      "##çilerin": 6533,
      "##arş": 6534,
      "##ates": 6535,
      "##ağan": 6536,
      "iniş": 6537,
      "##makla": 6538,
      "önder": 6539,
      "Bud": 6540,
      "##uşturucu": 6541,
      "belde": 6542,
      "akars": 6543,
      "oyunculuk": 6544,
      "Karş": 6545,
      "ortasında": 6546,
      "mahal": 6547,
      "gruplar": 6548,
      "durumlarda": 6549,
      "düşünc": 6550,
      "hakkındaki": 6551,
      "cinayet": 6552,
      "##lüğe": 6553,
      "Kullan": 6554,
      "Real": 6555,
      "desteği": 6556,
      "maden": 6557,
      "Nintendo": 6558,
      "CD": 6559,
      "Dre": 6560,
      "It": 6561,
      "SA": 6562,
      "Tev": 6563,
      "ceph": 6564,
      "figür": 6565,
      "Çoğu": 6566,
      "çeş": 6567,
      "öv": 6568,
      "##tek": 6569,
      "##iği": 6570,
      "##çılık": 6571,
      "##mem": 6572,
      "##mara": 6573,
      "##VD": 6574,
      "##iller": 6575,
      "birisidir": 6576,
      "##aten": 6577,
      "##iyer": 6578,
      "##ahan": 6579,
      "##tian": 6580,
      "##kent": 6581,
      "##ayıp": 6582,
      "Arka": 6583,
      "##adet": 6584,
      "##ılıç": 6585,
      "zamanla": 6586,
      "şeker": 6587,
      "evrim": 6588,
      "Karl": 6589,
      "oluşturmaktadır": 6590,
      "dizisinde": 6591,
      "siyasal": 6592,
      "gelişme": 6593,
      "Show": 6594,
      "dağılımı": 6595,
      "kolon": 6596,
      "kaleme": 6597,
      "büyüm": 6598,
      "Saray": 6599,
      "sembol": 6600,
      "donanım": 6601,
      "malzeme": 6602,
      "##razam": 6603,
      "toplantı": 6604,
      "##lağan": 6605,
      "Entertainment": 6606,
      "Edir": 6607,
      "Hu": 6608,
      "Hab": 6609,
      "Nan": 6610,
      "Pir": 6611,
      "ap": 6612,
      "festiv": 6613,
      "hasar": 6614,
      "kıl": 6615,
      "plastik": 6616,
      "set": 6617,
      "çab": 6618,
      "çeyrek": 6619,
      "##çileri": 6620,
      "##yat": 6621,
      "##assal": 6622,
      "##ekk": 6623,
      "##ella": 6624,
      "##tez": 6625,
      "##kia": 6626,
      "##eddin": 6627,
      "esin": 6628,
      "takımlarından": 6629,
      "Konusu": 6630,
      "##ardin": 6631,
      "turizm": 6632,
      "istatistik": 6633,
      "Kurtuluş": 6634,
      "eşlik": 6635,
      "uzaklıkta": 6636,
      "ilişkileri": 6637,
      "tipik": 6638,
      "öldürüldü": 6639,
      "kaçır": 6640,
      "ülkelerin": 6641,
      "koyu": 6642,
      "Collins": 6643,
      "Hüküm": 6644,
      "sekret": 6645,
      "yeterli": 6646,
      "Aleksan": 6647,
      "Meydan": 6648,
      "Cadde": 6649,
      "Du": 6650,
      "DNA": 6651,
      "Gümüş": 6652,
      "Mol": 6653,
      "Sir": 6654,
      "Yeh": 6655,
      "mant": 6656,
      "play": 6657,
      "posta": 6658,
      "yanıt": 6659,
      "Üst": 6660,
      "##ses": 6661,
      "##ğün": 6662,
      "##con": 6663,
      "##ilip": 6664,
      "##onna": 6665,
      "##ayolu": 6666,
      "##eter": 6667,
      "##ştık": 6668,
      "arasına": 6669,
      "##meli": 6670,
      "yüzde": 6671,
      "uyan": 6672,
      "merkezinde": 6673,
      "ülkesi": 6674,
      "kısmen": 6675,
      "dolaş": 6676,
      "eşya": 6677,
      "oyuncular": 6678,
      "öğrenciler": 6679,
      "görülmüştür": 6680,
      "eserler": 6681,
      "eserleri": 6682,
      "yaşamış": 6683,
      "eğitimini": 6684,
      "sıklıkla": 6685,
      "golünü": 6686,
      "uğram": 6687,
      "mağlup": 6688,
      "Mayalar": 6689,
      "Uygur": 6690,
      "Telev": 6691,
      "şarap": 6692,
      "etrafında": 6693,
      "Kaynakça": 6694,
      "rakam": 6695,
      "Vakfı": 6696,
      "Nam": 6697,
      "Pic": 6698,
      "Sing": 6699,
      "Tes": 6700,
      "suy": 6701,
      "##kes": 6702,
      "##zo": 6703,
      "##TC": 6704,
      "##ange": 6705,
      "##insel": 6706,
      "##irya": 6707,
      "##ila": 6708,
      "##ilt": 6709,
      "##ileş": 6710,
      "##limi": 6711,
      "##ator": 6712,
      "##elle": 6713,
      "##rağı": 6714,
      "başı": 6715,
      "görür": 6716,
      "tarihlerinde": 6717,
      "yazılmıştır": 6718,
      "yaşlı": 6719,
      "kalır": 6720,
      "albümünde": 6721,
      "erdi": 6722,
      "bölümde": 6723,
      "Tarım": 6724,
      "açıklandı": 6725,
      "Özgür": 6726,
      "devletin": 6727,
      "tabak": 6728,
      "Şampiyonlar": 6729,
      "ölçüm": 6730,
      "Belediy": 6731,
      "reklam": 6732,
      "##kınma": 6733,
      "işletim": 6734,
      "aileden": 6735,
      "Dağları": 6736,
      "öykü": 6737,
      "Erkekler": 6738,
      "ittifak": 6739,
      "başlangıçta": 6740,
      "Mahkemesi": 6741,
      "beğen": 6742,
      "anlayış": 6743,
      "Company": 6744,
      "Hur": 6745,
      "Haf": 6746,
      "Oğu": 6747,
      "Sok": 6748,
      "Viy": 6749,
      "ic": 6750,
      "nis": 6751,
      "risk": 6752,
      "sömür": 6753,
      "##mini": 6754,
      "##hisar": 6755,
      "birini": 6756,
      "##atit": 6757,
      "alternatif": 6758,
      "karbon": 6759,
      "##omo": 6760,
      "##iba": 6761,
      "vergi": 6762,
      "##elerek": 6763,
      "##che": 6764,
      "evlilik": 6765,
      "ettiğini": 6766,
      "Konfer": 6767,
      "##ardo": 6768,
      "sözü": 6769,
      "kola": 6770,
      "Askeri": 6771,
      "Prof": 6772,
      "genelinde": 6773,
      "gelişim": 6774,
      "sığ": 6775,
      "kaynakları": 6776,
      "senesinde": 6777,
      "şampiyonluk": 6778,
      "yatak": 6779,
      "##dükten": 6780,
      "arkadaşları": 6781,
      "McC": 6782,
      "kapsayan": 6783,
      "Sayımı": 6784,
      "üste": 6785,
      "Thomas": 6786,
      "yiyecek": 6787,
      "Eyalet": 6788,
      "Fen": 6789,
      "tel": 6790,
      "##ks": 6791,
      "##sus": 6792,
      "##mond": 6793,
      "##eryal": 6794,
      "##irken": 6795,
      "##aşı": 6796,
      "##yafet": 6797,
      "##ston": 6798,
      "##likler": 6799,
      "anim": 6800,
      "anıt": 6801,
      "##osa": 6802,
      "##oslov": 6803,
      "taraftar": 6804,
      "kurtul": 6805,
      "##edildi": 6806,
      "##ović": 6807,
      "yaşındaki": 6808,
      "doğmuştur": 6809,
      "işbirliği": 6810,
      "Amir": 6811,
      "araba": 6812,
      "Başk": 6813,
      "gerekç": 6814,
      "duygu": 6815,
      "Atlan": 6816,
      "bırakıldı": 6817,
      "makam": 6818,
      "onunla": 6819,
      "Koca": 6820,
      "araştırmalar": 6821,
      "Hayat": 6822,
      "erkekler": 6823,
      "Kulüb": 6824,
      "inanç": 6825,
      "dergisi": 6826,
      "##lacağı": 6827,
      "anlatır": 6828,
      "pozitif": 6829,
      "Cemiyeti": 6830,
      "komünist": 6831,
      "Kamu": 6832,
      "Muğ": 6833,
      "hastalı": 6834,
      "Litvanya": 6835,
      "Anayasa": 6836,
      "Abdullah": 6837,
      "Hırvat": 6838,
      "molekül": 6839,
      "Kıp": 6840,
      "Tav": 6841,
      "Ulu": 6842,
      "bundan": 6843,
      "##dr": 6844,
      "##fred": 6845,
      "##gız": 6846,
      "##ua": 6847,
      "##cal": 6848,
      "##ón": 6849,
      "##iliyor": 6850,
      "##ora": 6851,
      "##azarı": 6852,
      "##diş": 6853,
      "##ilerle": 6854,
      "gördüğü": 6855,
      "##opol": 6856,
      "##lenerek": 6857,
      "##yonu": 6858,
      "sürüldü": 6859,
      "kenar": 6860,
      "yarısında": 6861,
      "arasındadır": 6862,
      "##ales": 6863,
      "albümleri": 6864,
      "Ekonom": 6865,
      "Ekonomi": 6866,
      "savaşa": 6867,
      "ikili": 6868,
      "arke": 6869,
      "oğl": 6870,
      "kırsal": 6871,
      "Kırgız": 6872,
      "sonuçları": 6873,
      "Yapım": 6874,
      "soylu": 6875,
      "Federal": 6876,
      "Madonna": 6877,
      "tatlı": 6878,
      "Grubun": 6879,
      "Trabzonspor": 6880,
      "analiz": 6881,
      "koleksiyon": 6882,
      "Bosna": 6883,
      "Oğuz": 6884,
      "Luc": 6885,
      "Not": 6886,
      "SS": 6887,
      "Sum": 6888,
      "ac": 6889,
      "cen": 6890,
      "had": 6891,
      "kolu": 6892,
      "sos": 6893,
      "Şir": 6894,
      "şef": 6895,
      "##üv": 6896,
      "##olar": 6897,
      "##ğunda": 6898,
      "##ûm": 6899,
      "yılların": 6900,
      "##ave": 6901,
      "##halef": 6902,
      "tarihsel": 6903,
      "uzat": 6904,
      "varlık": 6905,
      "akra": 6906,
      "bölgesinin": 6907,
      "arab": 6908,
      "albümünü": 6909,
      "savaşın": 6910,
      "##eceğini": 6911,
      "Büyükşehir": 6912,
      "hayata": 6913,
      "ulaşan": 6914,
      "meslek": 6915,
      "filmidir": 6916,
      "organiz": 6917,
      "##skaya": 6918,
      "gemisi": 6919,
      "performansı": 6920,
      "Çekoslov": 6921,
      "Pasifik": 6922,
      "hendek": 6923,
      "Mezar": 6924,
      "yumuş": 6925,
      "Ermenistan": 6926,
      "Komutanlığı": 6927,
      "Grammy": 6928,
      "Bra": 6929,
      "Blu": 6930,
      "Eli": 6931,
      "Rap": 6932,
      "vide": 6933,
      "zinc": 6934,
      "##tra": 6935,
      "##türk": 6936,
      "##lâ": 6937,
      "##ğeri": 6938,
      "##ağında": 6939,
      "##üman": 6940,
      "yapılmaktadır": 6941,
      "Altı": 6942,
      "olmasını": 6943,
      "aktör": 6944,
      "karşılaştır": 6945,
      "##hann": 6946,
      "sayf": 6947,
      "hariç": 6948,
      "süreci": 6949,
      "Kanun": 6950,
      "yenilen": 6951,
      "hareketi": 6952,
      "Manisa": 6953,
      "haft": 6954,
      "yürüy": 6955,
      "kimya": 6956,
      "hikâye": 6957,
      "sakin": 6958,
      "komündür": 6959,
      "dağıtım": 6960,
      "süreçte": 6961,
      "Bolşevik": 6962,
      "protesto": 6963,
      "Münih": 6964,
      "Ala": 6965,
      "Dair": 6966,
      "Mağ": 6967,
      "Wrest": 6968,
      "Zir": 6969,
      "piş": 6970,
      "yla": 6971,
      "°C": 6972,
      "Şam": 6973,
      "##ular": 6974,
      "##cili": 6975,
      "##ère": 6976,
      "olmaktadır": 6977,
      "##ağının": 6978,
      "##oksi": 6979,
      "görsel": 6980,
      "editör": 6981,
      "kullanılması": 6982,
      "devir": 6983,
      "göreve": 6984,
      "sağlaya": 6985,
      "Marmara": 6986,
      "kanalı": 6987,
      "yaklaşım": 6988,
      "##veriş": 6989,
      "tenis": 6990,
      "dava": 6991,
      "taşıma": 6992,
      "bozuk": 6993,
      "yönetmenliğini": 6994,
      "statüsü": 6995,
      "fabrik": 6996,
      "coğrafi": 6997,
      "##iskopos": 6998,
      "mezunudur": 6999,
      "Hill": 7000,
      "Pi": 7001,
      "Ses": 7002,
      "Sid": 7003,
      "Smith": 7004,
      "hab": 7005,
      "ka": 7006,
      "tüf": 7007,
      "vücu": 7008,
      "Özerk": 7009,
      "şov": 7010,
      "##val": 7011,
      "##aklar": 7012,
      "##urlar": 7013,
      "##amin": 7014,
      "##asız": 7015,
      "yapılması": 7016,
      "ente": 7017,
      "Angel": 7018,
      "##edral": 7019,
      "##lamaz": 7020,
      "takıma": 7021,
      "kalit": 7022,
      "##cher": 7023,
      "unvanı": 7024,
      "kaybol": 7025,
      "kazı": 7026,
      "bölgesel": 7027,
      "ekonomi": 7028,
      "sertif": 7029,
      "bölümünü": 7030,
      "düzenlen": 7031,
      "Mary": 7032,
      "turda": 7033,
      "##ower": 7034,
      "salon": 7035,
      "Bilimler": 7036,
      "hızı": 7037,
      "görünüm": 7038,
      "sinyal": 7039,
      "özellikler": 7040,
      "##luğa": 7041,
      "Sarayı": 7042,
      "sosyalist": 7043,
      "##langıç": 7044,
      "Premi": 7045,
      "imparatorluk": 7046,
      "Que": 7047,
      "tanıştı": 7048,
      "Kariyer": 7049,
      "dakikada": 7050,
      "ırk": 7051,
      "deprem": 7052,
      "Örgütü": 7053,
      "Koleji": 7054,
      "Pierre": 7055,
      "Edirne": 7056,
      "Viyana": 7057,
      "Bunu": 7058,
      "Gem": 7059,
      "Had": 7060,
      "Nar": 7061,
      "TNA": 7062,
      "Uç": 7063,
      "dolu": 7064,
      "gecik": 7065,
      "person": 7066,
      "rengi": 7067,
      "ölü": 7068,
      "##öğretim": 7069,
      "##ıf": 7070,
      "##pi": 7071,
      "##by": 7072,
      "##ont": 7073,
      "##esh": 7074,
      "##ory": 7075,
      "##ito": 7076,
      "##oka": 7077,
      "konfer": 7078,
      "tekni": 7079,
      "##cht": 7080,
      "Kars": 7081,
      "Konser": 7082,
      "oluşum": 7083,
      "çalışmalarını": 7084,
      "insanları": 7085,
      "sundu": 7086,
      "biçimi": 7087,
      "kıyas": 7088,
      "Carl": 7089,
      "tepki": 7090,
      "Havalimanı": 7091,
      "doldur": 7092,
      "Florida": 7093,
      "senaryo": 7094,
      "##mosfer": 7095,
      "şifre": 7096,
      "sıvı": 7097,
      "Iv": 7098,
      "Ni": 7099,
      "Soy": 7100,
      "Sec": 7101,
      "TÜ": 7102,
      "VI": 7103,
      "Vas": 7104,
      "ch": 7105,
      "dom": 7106,
      "ge": 7107,
      "ir": 7108,
      "müttefik": 7109,
      "yola": 7110,
      "yavru": 7111,
      "İd": 7112,
      "Şer": 7113,
      "şans": 7114,
      "##düz": 7115,
      "##rü": 7116,
      "##barat": 7117,
      "##imal": 7118,
      "dey": 7119,
      "gösteri": 7120,
      "##izmi": 7121,
      "##cıların": 7122,
      "kaldığı": 7123,
      "Ameri": 7124,
      "çalışmıştır": 7125,
      "gösterilmiştir": 7126,
      "maçları": 7127,
      "attığı": 7128,
      "suik": 7129,
      "kızıl": 7130,
      "yasama": 7131,
      "senary": 7132,
      "lise": 7133,
      "kaybed": 7134,
      "Adam": 7135,
      "listesine": 7136,
      "yayımladı": 7137,
      "Kırk": 7138,
      "toprakları": 7139,
      "kuruluşu": 7140,
      "tepk": 7141,
      "listelerinde": 7142,
      "sebebi": 7143,
      "Demokratik": 7144,
      "yenilg": 7145,
      "Sekret": 7146,
      "Sibirya": 7147,
      "Yugoslavya": 7148,
      "DVD": 7149,
      "Fab": 7150,
      "Hizmet": 7151,
      "Imp": 7152,
      "hoş": 7153,
      "ith": 7154,
      "Şim": 7155,
      "##çuk": 7156,
      "##dae": 7157,
      "##die": 7158,
      "konus": 7159,
      "yönlendir": 7160,
      "olmuştu": 7161,
      "Amatör": 7162,
      "##ept": 7163,
      "##lamaları": 7164,
      "albümde": 7165,
      "çekilen": 7166,
      "okum": 7167,
      "Ağır": 7168,
      "Kurumu": 7169,
      "isimleri": 7170,
      "Lee": 7171,
      "Komünün": 7172,
      "giymektedir": 7173,
      "hayatta": 7174,
      "Harry": 7175,
      "##abilirler": 7176,
      "artış": 7177,
      "Holmes": 7178,
      "keşif": 7179,
      "Bern": 7180,
      "##luğun": 7181,
      "Yerel": 7182,
      "Doğan": 7183,
      "romanı": 7184,
      "yağış": 7185,
      "rady": 7186,
      "anlatan": 7187,
      "##rasi": 7188,
      "amatör": 7189,
      "Lock": 7190,
      "cumhurbaşkanı": 7191,
      "bileşik": 7192,
      "Tokyo": 7193,
      "Aşağıdaki": 7194,
      "mekaniz": 7195,
      "cemaat": 7196,
      "Elazığ": 7197,
      "Bet": 7198,
      "Form": 7199,
      "Olay": 7200,
      "Ref": 7201,
      "Sus": 7202,
      "boya": 7203,
      "fos": 7204,
      "niş": 7205,
      "olayı": 7206,
      "sig": 7207,
      "Ömer": 7208,
      "çay": 7209,
      "Şar": 7210,
      "##sini": 7211,
      "##rısı": 7212,
      "##ıçak": 7213,
      "##hel": 7214,
      "##demir": 7215,
      "##unk": 7216,
      "##iki": 7217,
      "##stra": 7218,
      "başlayarak": 7219,
      "arz": 7220,
      "##row": 7221,
      "ayar": 7222,
      "öngör": 7223,
      "edilerek": 7224,
      "Anti": 7225,
      "##ref": 7226,
      "doğa": 7227,
      "kalmış": 7228,
      "varsay": 7229,
      "uydu": 7230,
      "kazandığı": 7231,
      "açıklamıştır": 7232,
      "sözleri": 7233,
      "getiren": 7234,
      "##lasman": 7235,
      "başarısı": 7236,
      "güçlendir": 7237,
      "Yargı": 7238,
      "Harekâ": 7239,
      "değiştirildi": 7240,
      "sinem": 7241,
      "##field": 7242,
      "Saldır": 7243,
      "projesi": 7244,
      "Beat": 7245,
      "biçiminde": 7246,
      "göçmen": 7247,
      "kutsal": 7248,
      "kıyafet": 7249,
      "redded": 7250,
      "Tokat": 7251,
      "kalıcı": 7252,
      "şimdi": 7253,
      "gazeteci": 7254,
      "Young": 7255,
      "Jones": 7256,
      "Pakistan": 7257,
      "Mimar": 7258,
      "Geleneksel": 7259,
      "Klasik": 7260,
      "Gel": 7261,
      "Hac": 7262,
      "Kadı": 7263,
      "Motor": 7264,
      "Para": 7265,
      "Riv": 7266,
      "XI": 7267,
      "Ziya": 7268,
      "acı": 7269,
      "demek": 7270,
      "est": 7271,
      "zih": 7272,
      "Çayı": 7273,
      "##soy": 7274,
      "##üğü": 7275,
      "##ding": 7276,
      "##muştu": 7277,
      "##zım": 7278,
      "##je": 7279,
      "##win": 7280,
      "##CA": 7281,
      "birer": 7282,
      "##iyatı": 7283,
      "##ope": 7284,
      "##omp": 7285,
      "verim": 7286,
      "##ecer": 7287,
      "yönel": 7288,
      "##adağ": 7289,
      "kalab": 7290,
      "##acağını": 7291,
      "##raft": 7292,
      "##leye": 7293,
      "##içi": 7294,
      "hayal": 7295,
      "taşır": 7296,
      "##ento": 7297,
      "üstünde": 7298,
      "Asker": 7299,
      "öğrencisi": 7300,
      "tabi": 7301,
      "##ronik": 7302,
      "Büyükelç": 7303,
      "zorunlu": 7304,
      "görünür": 7305,
      "ulaşım": 7306,
      "yarışması": 7307,
      "eyaletinin": 7308,
      "meyve": 7309,
      "değişikliğinden": 7310,
      "bölgelerinde": 7311,
      "sırtlanlar": 7312,
      "bölgedeki": 7313,
      "belgesel": 7314,
      "basınç": 7315,
      "doğrult": 7316,
      "Disney": 7317,
      "otobüs": 7318,
      "Ailesi": 7319,
      "Kıpçak": 7320,
      "Cup": 7321,
      "CHP": 7322,
      "Efes": 7323,
      "Kâ": 7324,
      "Leg": 7325,
      "Lyn": 7326,
      "Roy": 7327,
      "gr": 7328,
      "kans": 7329,
      "ray": 7330,
      "sip": 7331,
      "yedinci": 7332,
      "ölen": 7333,
      "##ace": 7334,
      "##gn": 7335,
      "##pat": 7336,
      "##ville": 7337,
      "##ball": 7338,
      "##esir": 7339,
      "##uri": 7340,
      "##urta": 7341,
      "yapma": 7342,
      "başlanmıştır": 7343,
      "##avar": 7344,
      "arazi": 7345,
      "##uto": 7346,
      "karanlık": 7347,
      "##osh": 7348,
      "kuram": 7349,
      "##chus": 7350,
      "düşen": 7351,
      "Başlangıç": 7352,
      "terör": 7353,
      "##ouch": 7354,
      "şirketin": 7355,
      "ölümüne": 7356,
      "yapımcı": 7357,
      "organize": 7358,
      "söylemiştir": 7359,
      "mercek": 7360,
      "##pool": 7361,
      "altıncı": 7362,
      "Ülke": 7363,
      "Cenev": 7364,
      "Tataristan": 7365,
      "Siyasi": 7366,
      "Papa": 7367,
      "Kafkasya": 7368,
      "güzellik": 7369,
      "Karşıy": 7370,
      "Bad": 7371,
      "God": 7372,
      "Lüb": 7373,
      "Law": 7374,
      "Sel": 7375,
      "Sadece": 7376,
      "Ten": 7377,
      "Zür": 7378,
      "avan": 7379,
      "cis": 7380,
      "dük": 7381,
      "ucu": 7382,
      "##lob": 7383,
      "##resi": 7384,
      "##akar": 7385,
      "##alia": 7386,
      "vefat": 7387,
      "##abi": 7388,
      "##uman": 7389,
      "##ezid": 7390,
      "Albert": 7391,
      "##arter": 7392,
      "takımda": 7393,
      "##edek": 7394,
      "uyuşturucu": 7395,
      "İnş": 7396,
      "karşıtı": 7397,
      "##ustin": 7398,
      "tarihindeki": 7399,
      "Oscar": 7400,
      "adas": 7401,
      "Kongresi": 7402,
      "turn": 7403,
      "##yetik": 7404,
      "kaynaklar": 7405,
      "##lywood": 7406,
      "##ugh": 7407,
      "sıkı": 7408,
      "yürür": 7409,
      "konuda": 7410,
      "temsilcisi": 7411,
      "söylen": 7412,
      "komutasındaki": 7413,
      "Kitab": 7414,
      "anlamı": 7415,
      "deneyim": 7416,
      "Nokia": 7417,
      "bayrak": 7418,
      "Liver": 7419,
      "iyileştir": 7420,
      "Kiev": 7421,
      "EP": 7422,
      "Let": 7423,
      "Oda": 7424,
      "Parkı": 7425,
      "Yağ": 7426,
      "best": 7427,
      "koz": 7428,
      "vit": 7429,
      "Çat": 7430,
      "Çorum": 7431,
      "##klarını": 7432,
      "##maması": 7433,
      "##his": 7434,
      "##DE": 7435,
      "##etler": 7436,
      "##abilmektedir": 7437,
      "alması": 7438,
      "anılan": 7439,
      "karısı": 7440,
      "etmeyi": 7441,
      "yerinde": 7442,
      "zamana": 7443,
      "yüzölç": 7444,
      "ülkeleri": 7445,
      "çekim": 7446,
      "kendilerine": 7447,
      "köyünde": 7448,
      "eğilim": 7449,
      "ağa": 7450,
      "satan": 7451,
      "bakan": 7452,
      "Atina": 7453,
      "sayılabilir": 7454,
      "##diklerini": 7455,
      "Köyü": 7456,
      "ortalarında": 7457,
      "olmasıdır": 7458,
      "yükselen": 7459,
      "manz": 7460,
      "alıp": 7461,
      "birbirinden": 7462,
      "Sanatçı": 7463,
      "Giro": 7464,
      "Williams": 7465,
      "Kolordu": 7466,
      "değişiklikler": 7467,
      "miktarda": 7468,
      "yöneticisi": 7469,
      "Seçim": 7470,
      "gücünü": 7471,
      "##cılığını": 7472,
      "Ladin": 7473,
      "yansıt": 7474,
      "nükleer": 7475,
      "Nobel": 7476,
      "##ükemmel": 7477,
      "volkan": 7478,
      "Berk": 7479,
      "Dol": 7480,
      "Eleştir": 7481,
      "Gol": 7482,
      "Güç": 7483,
      "Mi": 7484,
      "Win": 7485,
      "Yoz": 7486,
      "gidi": 7487,
      "kimi": 7488,
      "olimpiyat": 7489,
      "voleybol": 7490,
      "yam": 7491,
      "Ün": 7492,
      "vek": 7493,
      "##ılmasından": 7494,
      "##ımlı": 7495,
      "##ezya": 7496,
      "##opa": 7497,
      "bulunmuş": 7498,
      "##öyük": 7499,
      "bağlam": 7500,
      "##sion": 7501,
      "varlığı": 7502,
      "uyum": 7503,
      "Organ": 7504,
      "türlü": 7505,
      "Chi": 7506,
      "şarkıları": 7507,
      "turist": 7508,
      "dışındaki": 7509,
      "##ohum": 7510,
      "##pres": 7511,
      "değerli": 7512,
      "ilişkisi": 7513,
      "dayanmaktadır": 7514,
      "silahlı": 7515,
      "elektron": 7516,
      "şehrinin": 7517,
      "parçasıdır": 7518,
      "Yılın": 7519,
      "##onsor": 7520,
      "memur": 7521,
      "Timur": 7522,
      "kapsamlı": 7523,
      "Foot": 7524,
      "hakimiyet": 7525,
      "Yardımcısı": 7526,
      "familyasından": 7527,
      "olasılık": 7528,
      "Körfezi": 7529,
      "festival": 7530,
      "Bart": 7531,
      "Def": 7532,
      "Fred": 7533,
      "Hy": 7534,
      "Hür": 7535,
      "Hale": 7536,
      "Haw": 7537,
      "Nic": 7538,
      "National": 7539,
      "Rev": 7540,
      "Teş": 7541,
      "Yav": 7542,
      "huz": 7543,
      "jür": 7544,
      "küme": 7545,
      "lak": 7546,
      "van": 7547,
      "zam": 7548,
      "##tt": 7549,
      "##şak": 7550,
      "##ıla": 7551,
      "##ayeti": 7552,
      "##imb": 7553,
      "dahi": 7554,
      "##eyt": 7555,
      "##mede": 7556,
      "##oper": 7557,
      "endiş": 7558,
      "Türkler": 7559,
      "döner": 7560,
      "##igan": 7561,
      "denetim": 7562,
      "##elerle": 7563,
      "karşılan": 7564,
      "##tris": 7565,
      "##sia": 7566,
      "##act": 7567,
      "dönemlerde": 7568,
      "görevinden": 7569,
      "girdiği": 7570,
      "evinde": 7571,
      "duruma": 7572,
      "sayede": 7573,
      "kendilerini": 7574,
      "başladılar": 7575,
      "Özellik": 7576,
      "finalinde": 7577,
      "mevki": 7578,
      "Mahallenin": 7579,
      "güvenli": 7580,
      "çağır": 7581,
      "Benekli": 7582,
      "dikkate": 7583,
      "Gençler": 7584,
      "teknoloji": 7585,
      "nesne": 7586,
      "canlandırdığı": 7587,
      "nitelik": 7588,
      "mask": 7589,
      "başlattı": 7590,
      "kısmında": 7591,
      "Netaş": 7592,
      "yetişkin": 7593,
      "Alexander": 7594,
      "Balıkesir": 7595,
      "cerrahi": 7596,
      "Stalin": 7597,
      "Vladim": 7598,
      "antrenör": 7599,
      "Liverpool": 7600,
      "Bes": 7601,
      "Bis": 7602,
      "Deb": 7603,
      "Gön": 7604,
      "Gold": 7605,
      "Hız": 7606,
      "Mid": 7607,
      "Tri": 7608,
      "Tasar": 7609,
      "Vit": 7610,
      "Yür": 7611,
      "herkes": 7612,
      "iP": 7613,
      "lev": 7614,
      "mobil": 7615,
      "tör": 7616,
      "Çi": 7617,
      "Çeşit": 7618,
      "Ülkenin": 7619,
      "İm": 7620,
      "Şili": 7621,
      "##ril": 7622,
      "##rez": 7623,
      "##oma": 7624,
      "##ason": 7625,
      "##lami": 7626,
      "##urdu": 7627,
      "##aport": 7628,
      "yaparken": 7629,
      "##utin": 7630,
      "##mediği": 7631,
      "önlemek": 7632,
      "##ics": 7633,
      "Türkleri": 7634,
      "açılmıştır": 7635,
      "alana": 7636,
      "yakıt": 7637,
      "varlığını": 7638,
      "kısalt": 7639,
      "belirlenmiştir": 7640,
      "çekici": 7641,
      "bölümler": 7642,
      "okulu": 7643,
      "üstlenmiştir": 7644,
      "grupta": 7645,
      "Prot": 7646,
      "ikna": 7647,
      "binası": 7648,
      "yakınlarındaki": 7649,
      "uçağı": 7650,
      "eserinde": 7651,
      "edebilir": 7652,
      "tasarımı": 7653,
      "halkının": 7654,
      "silin": 7655,
      "olayları": 7656,
      "Bunların": 7657,
      "Soci": 7658,
      "Hein": 7659,
      "canlandırdı": 7660,
      "Nüfusu": 7661,
      "ilerleyen": 7662,
      "Siyasal": 7663,
      "Safev": 7664,
      "hâlâ": 7665,
      "akademisyen": 7666,
      "Jackson": 7667,
      "Ceza": 7668,
      "Boğaz": 7669,
      "böcek": 7670,
      "yardımıyla": 7671,
      "tayin": 7672,
      "WWE": 7673,
      "Muğla": 7674,
      "Baz": 7675,
      "Cy": 7676,
      "Eh": 7677,
      "Lor": 7678,
      "Nah": 7679,
      "One": 7680,
      "Yet": 7681,
      "bank": 7682,
      "ep": 7683,
      "ilerle": 7684,
      "rok": 7685,
      "Öğret": 7686,
      "##sinde": 7687,
      "##lal": 7688,
      "##mik": 7689,
      "##zat": 7690,
      "##ão": 7691,
      "##ılmaz": 7692,
      "anne": 7693,
      "bulgu": 7694,
      "aylık": 7695,
      "öncü": 7696,
      "##ıza": 7697,
      "vererek": 7698,
      "kurduğu": 7699,
      "##tanın": 7700,
      "toplu": 7701,
      "##change": 7702,
      "##try": 7703,
      "##asyonal": 7704,
      "halen": 7705,
      "saygı": 7706,
      "sayfa": 7707,
      "Ruslar": 7708,
      "albümünün": 7709,
      "albümüdür": 7710,
      "ertesi": 7711,
      "oluşturmak": 7712,
      "Teksas": 7713,
      "gerçekleştirildi": 7714,
      "format": 7715,
      "çağdaş": 7716,
      "##lüğünde": 7717,
      "kasaba": 7718,
      "kriz": 7719,
      "Yaşam": 7720,
      "parçaları": 7721,
      "dönüşüm": 7722,
      "İçişleri": 7723,
      "##mitt": 7724,
      "boyutlu": 7725,
      "Bağımsız": 7726,
      "Ortak": 7727,
      "mahkeme": 7728,
      "tavs": 7729,
      "##ptom": 7730,
      "Ürdün": 7731,
      "ağız": 7732,
      "miras": 7733,
      "restor": 7734,
      "frekans": 7735,
      "Afganistan": 7736,
      "Konservat": 7737,
      "But": 7738,
      "Cev": 7739,
      "Camp": 7740,
      "Sı": 7741,
      "Soğ": 7742,
      "Yani": 7743,
      "coğrafya": 7744,
      "dür": 7745,
      "fi": 7746,
      "nö": 7747,
      "pey": 7748,
      "soya": 7749,
      "vil": 7750,
      "vaka": 7751,
      "##gâh": 7752,
      "##nin": 7753,
      "##peten": 7754,
      "##én": 7755,
      "##TÜ": 7756,
      "##arda": 7757,
      "##itleri": 7758,
      "##stri": 7759,
      "##üye": 7760,
      "##ebir": 7761,
      "##ebilen": 7762,
      "##üşü": 7763,
      "##laşık": 7764,
      "sahte": 7765,
      "yaşar": 7766,
      "topladı": 7767,
      "dönemine": 7768,
      "türet": 7769,
      "yangın": 7770,
      "##ormal": 7771,
      "##astopol": 7772,
      "Asyalı": 7773,
      "yüzyıldan": 7774,
      "soruştur": 7775,
      "geliştirilmiş": 7776,
      "##oug": 7777,
      "yenilik": 7778,
      "Afyon": 7779,
      "##lyası": 7780,
      "hassas": 7781,
      "##emedi": 7782,
      "Demografi": 7783,
      "davul": 7784,
      "bağımsızlığını": 7785,
      "Mekte": 7786,
      "teorisi": 7787,
      "dersleri": 7788,
      "Exchange": 7789,
      "kemerini": 7790,
      "doktora": 7791,
      "İstatistik": 7792,
      "Starr": 7793,
      "NASA": 7794,
      "yaptıkları": 7795,
      "Milletvekilliği": 7796,
      "macera": 7797,
      "sendrom": 7798,
      "doğrultusunda": 7799,
      "Yozgat": 7800,
      "Bing": 7801,
      "Cav": 7802,
      "Dor": 7803,
      "Dik": 7804,
      "Kart": 7805,
      "Mike": 7806,
      "Sof": 7807,
      "Slav": 7808,
      "Ty": 7809,
      "Trak": 7810,
      "gelerek": 7811,
      "kere": 7812,
      "##kaya": 7813,
      "##ude": 7814,
      "##udur": 7815,
      "##ğun": 7816,
      "##wa": 7817,
      "##work": 7818,
      "##iyen": 7819,
      "##lıyor": 7820,
      "##apı": 7821,
      "yıldır": 7822,
      "##abaka": 7823,
      "alınır": 7824,
      "##rov": 7825,
      "##osunun": 7826,
      "Buda": 7827,
      "vermiş": 7828,
      "Annesi": 7829,
      "##ilmez": 7830,
      "##ılıyordu": 7831,
      "kazanmış": 7832,
      "maçın": 7833,
      "##lamalar": 7834,
      "sanay": 7835,
      "atmıştır": 7836,
      "gelene": 7837,
      "sistemine": 7838,
      "etkileri": 7839,
      "istik": 7840,
      "Eyy": 7841,
      "sattı": 7842,
      "uygulam": 7843,
      "bilgileri": 7844,
      "ödüllendir": 7845,
      "Muhaf": 7846,
      "sıradan": 7847,
      "kültürü": 7848,
      "ligde": 7849,
      "##luğunun": 7850,
      "bağlantılı": 7851,
      "Antakya": 7852,
      "Diana": 7853,
      "yürüttü": 7854,
      "kitabında": 7855,
      "##ografik": 7856,
      "ismiyle": 7857,
      "muhalef": 7858,
      "Live": 7859,
      "Sistemi": 7860,
      "danışman": 7861,
      "Rabin": 7862,
      "Caddesi": 7863,
      "gerekçesiyle": 7864,
      "Kulübü": 7865,
      "Club": 7866,
      "Ever": 7867,
      "Kaya": 7868,
      "Küb": 7869,
      "US": 7870,
      "deri": 7871,
      "fen": 7872,
      "laborat": 7873,
      "rüz": 7874,
      "um": 7875,
      "Çık": 7876,
      "##sed": 7877,
      "##uhan": 7878,
      "##ğim": 7879,
      "##ès": 7880,
      "##ilyalı": 7881,
      "##unum": 7882,
      "##ılmıştı": 7883,
      "##dılar": 7884,
      "olsun": 7885,
      "##okol": 7886,
      "##ınız": 7887,
      "yerleri": 7888,
      "verilerine": 7889,
      "##masıdır": 7890,
      "tarihine": 7891,
      "ölçek": 7892,
      "##estra": 7893,
      "oynamaya": 7894,
      "Studi": 7895,
      "ayrılan": 7896,
      "grupları": 7897,
      "yüzyıla": 7898,
      "forvet": 7899,
      "müzikal": 7900,
      "##sizlik": 7901,
      "kentin": 7902,
      "Server": 7903,
      "gerçekleştirdi": 7904,
      "gönderdi": 7905,
      "sonuçlar": 7906,
      "hükümet": 7907,
      "stil": 7908,
      "hâlen": 7909,
      "boşan": 7910,
      "sorunları": 7911,
      "anayasal": 7912,
      "İktis": 7913,
      "Yönetmen": 7914,
      "buzul": 7915,
      "ordusunun": 7916,
      "mitoloj": 7917,
      "Konstantinopolis": 7918,
      "müdahale": 7919,
      "dosya": 7920,
      "potansiyel": 7921,
      "Aile": 7922,
      "Bost": 7923,
      "Day": 7924,
      "Eki": 7925,
      "HB": 7926,
      "Hil": 7927,
      "SC": 7928,
      "Sub": 7929,
      "Selim": 7930,
      "Voleybol": 7931,
      "alet": 7932,
      "bo": 7933,
      "ira": 7934,
      "reh": 7935,
      "Çak": 7936,
      "##üce": 7937,
      "##besi": 7938,
      "##Le": 7939,
      "##ane": 7940,
      "##asi": 7941,
      "##esiydi": 7942,
      "##ünce": 7943,
      "##imine": 7944,
      "##mekle": 7945,
      "##omen": 7946,
      "bulunuyordu": 7947,
      "##ansiyon": 7948,
      "##ebilecek": 7949,
      "katılmış": 7950,
      "vary": 7951,
      "##uyan": 7952,
      "##port": 7953,
      "döneminin": 7954,
      "gösterdiği": 7955,
      "evli": 7956,
      "Endon": 7957,
      "servis": 7958,
      "filminin": 7959,
      "çeken": 7960,
      "oluşmuştur": 7961,
      "üyelerinin": 7962,
      "otel": 7963,
      "insanın": 7964,
      "binlerce": 7965,
      "geçiren": 7966,
      "Halil": 7967,
      "arkasında": 7968,
      "mevsim": 7969,
      "##ordin": 7970,
      "ağırlık": 7971,
      "##luğuna": 7972,
      "Hassam": 7973,
      "bunlardan": 7974,
      "çalıştığı": 7975,
      "dokun": 7976,
      "Yıldır": 7977,
      "Sivastopol": 7978,
      "besteci": 7979,
      "kökeni": 7980,
      "##odal": 7981,
      "meşhur": 7982,
      "mahkûm": 7983,
      "savaşta": 7984,
      "Bankası": 7985,
      "enfeksiyon": 7986,
      "Manstein": 7987,
      "cephe": 7988,
      "Silahlı": 7989,
      "Cizv": 7990,
      "ışın": 7991,
      "Hastanesi": 7992,
      "Televizyon": 7993,
      "konferans": 7994,
      "geomet": 7995,
      "Cin": 7996,
      "Fas": 7997,
      "HD": 7998,
      "Leh": 7999,
      "Liber": 8000,
      "Off": 8001,
      "PC": 8002,
      "Tib": 8003,
      "Trans": 8004,
      "Um": 8005,
      "Web": 8006,
      "XX": 8007,
      "bron": 8008,
      "gide": 8009,
      "grafik": 8010,
      "iyon": 8011,
      "çam": 8012,
      "##gele": 8013,
      "##çay": 8014,
      "##çısı": 8015,
      "##şiv": 8016,
      "##visi": 8017,
      "##yu": 8018,
      "##ju": 8019,
      "##PA": 8020,
      "##dez": 8021,
      "##etleri": 8022,
      "##emeye": 8023,
      "inf": 8024,
      "##oğulları": 8025,
      "##önü": 8026,
      "##utbola": 8027,
      "##lıktan": 8028,
      "yazılımı": 8029,
      "nef": 8030,
      "##ılıyor": 8031,
      "tanış": 8032,
      "oyuna": 8033,
      "girmiş": 8034,
      "girerek": 8035,
      "##ogen": 8036,
      "köle": 8037,
      "Mars": 8038,
      "azın": 8039,
      "üstüne": 8040,
      "Kurt": 8041,
      "Bilgi": 8042,
      "alınarak": 8043,
      "sorgu": 8044,
      "sığın": 8045,
      "yaşamak": 8046,
      "hizmeti": 8047,
      "çevrimi": 8048,
      "milyondan": 8049,
      "Toprak": 8050,
      "Turhan": 8051,
      "Araç": 8052,
      "sunuldu": 8053,
      "Malat": 8054,
      "İşlet": 8055,
      "etkinliğinde": 8056,
      "yapımcısı": 8057,
      "Scho": 8058,
      "kıta": 8059,
      "Kanadalı": 8060,
      "opera": 8061,
      "Rumen": 8062,
      "Hakk": 8063,
      "##III": 8064,
      "kolayca": 8065,
      "karşılıklı": 8066,
      "psikolojik": 8067,
      "saptan": 8068,
      "insanı": 8069,
      "tıbbi": 8070,
      "##kestr": 8071,
      "yumuşak": 8072,
      "Wrestling": 8073,
      "Vladimir": 8074,
      "Boston": 8075,
      "Dizi": 8076,
      "Hir": 8077,
      "Hanlığı": 8078,
      "IX": 8079,
      "Oğ": 8080,
      "Op": 8081,
      "Py": 8082,
      "Süm": 8083,
      "TRT": 8084,
      "Vah": 8085,
      "piyade": 8086,
      "uc": 8087,
      "usul": 8088,
      "yor": 8089,
      "##AS": 8090,
      "##hol": 8091,
      "##ero": 8092,
      "##lete": 8093,
      "##aly": 8094,
      "##indedir": 8095,
      "##dum": 8096,
      "##tev": 8097,
      "sonlarına": 8098,
      "##okrat": 8099,
      "##ülmesi": 8100,
      "olanlar": 8101,
      "Ann": 8102,
      "Birkaç": 8103,
      "açılış": 8104,
      "Ertesi": 8105,
      "girer": 8106,
      "Orman": 8107,
      "atmosfer": 8108,
      "harfi": 8109,
      "harekâ": 8110,
      "##olitik": 8111,
      "##aga": 8112,
      "aşı": 8113,
      "üyeliği": 8114,
      "Cumhurbaşkanlığı": 8115,
      "isimler": 8116,
      "Kanal": 8117,
      "buradan": 8118,
      "tasarlanmış": 8119,
      "koydu": 8120,
      "kelimesi": 8121,
      "Doğal": 8122,
      "Metin": 8123,
      "Yakın": 8124,
      "paylaştı": 8125,
      "##batısında": 8126,
      "hepsi": 8127,
      "Kahraman": 8128,
      "Sakarya": 8129,
      "BAL": 8130,
      "Bilgiler": 8131,
      "Şarkının": 8132,
      "piyano": 8133,
      "Bran": 8134,
      "Böyle": 8135,
      "BBC": 8136,
      "Gab": 8137,
      "List": 8138,
      "Life": 8139,
      "Mavi": 8140,
      "MTV": 8141,
      "Out": 8142,
      "Ti": 8143,
      "fet": 8144,
      "pist": 8145,
      "rassal": 8146,
      "çan": 8147,
      "çak": 8148,
      "##kov": 8149,
      "##sis": 8150,
      "##ft": 8151,
      "##ardı": 8152,
      "##alp": 8153,
      "##astik": 8154,
      "##lerken": 8155,
      "##ett": 8156,
      "##urken": 8157,
      "##iyaz": 8158,
      "olgun": 8159,
      "##usya": 8160,
      "##asıt": 8161,
      "sonsuz": 8162,
      "##aft": 8163,
      "etap": 8164,
      "bulunmaktaydı": 8165,
      "##rian": 8166,
      "kaydı": 8167,
      "##heim": 8168,
      "##guay": 8169,
      "karşıya": 8170,
      "sağlan": 8171,
      "##ody": 8172,
      "Devrim": 8173,
      "şarkılar": 8174,
      "dizide": 8175,
      "tamamlayan": 8176,
      "Devletler": 8177,
      "harekete": 8178,
      "belirtilen": 8179,
      "Hollywood": 8180,
      "sinir": 8181,
      "dalg": 8182,
      "kaçın": 8183,
      "Matematik": 8184,
      "Sanatlar": 8185,
      "Uzak": 8186,
      "Giray": 8187,
      "işgali": 8188,
      "Apol": 8189,
      "uygulamaları": 8190,
      "mutf": 8191,
      "sabah": 8192,
      "bileşen": 8193,
      "statüs": 8194,
      "Filipin": 8195,
      "korku": 8196,
      "Sloven": 8197,
      "tutuklandı": 8198,
      "köprü": 8199,
      "Üyeliği": 8200,
      "organı": 8201,
      "müşter": 8202,
      "##helm": 8203,
      "yüzölçüm": 8204,
      "Baba": 8205,
      "Baraj": 8206,
      "Fi": 8207,
      "Game": 8208,
      "Jim": 8209,
      "Lef": 8210,
      "Nij": 8211,
      "Pla": 8212,
      "Tel": 8213,
      "Vad": 8214,
      "Wes": 8215,
      "cilt": 8216,
      "kade": 8217,
      "lu": 8218,
      "ma": 8219,
      "riv": 8220,
      "sın": 8221,
      "yeme": 8222,
      "##ES": 8223,
      "##line": 8224,
      "##lamı": 8225,
      "##celi": 8226,
      "bulan": 8227,
      "esk": 8228,
      "belle": 8229,
      "bölgeleri": 8230,
      "döneme": 8231,
      "kişiye": 8232,
      "##ımıyla": 8233,
      "dizisinin": 8234,
      "Osmanlılar": 8235,
      "resmen": 8236,
      "Temsil": 8237,
      "tamamlandı": 8238,
      "##elenen": 8239,
      "tahliye": 8240,
      "terimi": 8241,
      "##linik": 8242,
      "destekleyen": 8243,
      "topluluğ": 8244,
      "perde": 8245,
      "çocuklar": 8246,
      "yarışı": 8247,
      "ağırlıklı": 8248,
      "Arabistan": 8249,
      "Daniel": 8250,
      "##ques": 8251,
      "Good": 8252,
      "bahç": 8253,
      "Adolf": 8254,
      "bunları": 8255,
      "yoğunluğu": 8256,
      "yürütme": 8257,
      "Murad": 8258,
      "Brown": 8259,
      "gökada": 8260,
      "darbe": 8261,
      "yumurta": 8262,
      "Hersek": 8263,
      "Proje": 8264,
      "şiddetli": 8265,
      "başkanlığını": 8266,
      "netic": 8267,
      "çekirdek": 8268,
      "imkân": 8269,
      "nispeten": 8270,
      "Ekonomik": 8271,
      "Dairesi": 8272,
      "bronz": 8273,
      "AC": 8274,
      "AT": 8275,
      "Ca": 8276,
      "Hep": 8277,
      "Hong": 8278,
      "Les": 8279,
      "Pes": 8280,
      "Ru": 8281,
      "Ton": 8282,
      "Yusu": 8283,
      "aya": 8284,
      "klav": 8285,
      "vad": 8286,
      "zehir": 8287,
      "şiş": 8288,
      "##kal": 8289,
      "##şe": 8290,
      "##ctor": 8291,
      "##vad": 8292,
      "##alif": 8293,
      "##atür": 8294,
      "##mack": 8295,
      "yapması": 8296,
      "ini": 8297,
      "görülebilir": 8298,
      "bugüne": 8299,
      "##osen": 8300,
      "buluş": 8301,
      "sonraları": 8302,
      "kurban": 8303,
      "##ediye": 8304,
      "çıkması": 8305,
      "çıkarak": 8306,
      "dönen": 8307,
      "yazında": 8308,
      "uzayı": 8309,
      "sıralan": 8310,
      "zamanlı": 8311,
      "tanesi": 8312,
      "uygar": 8313,
      "görevlisi": 8314,
      "gösterilen": 8315,
      "şekli": 8316,
      "temas": 8317,
      "kurulması": 8318,
      "##ago": 8319,
      "Song": 8320,
      "formasını": 8321,
      "Atlet": 8322,
      "sıf": 8323,
      "Kazan": 8324,
      "##tive": 8325,
      "Manchester": 8326,
      "hizmete": 8327,
      "Turizm": 8328,
      "meyv": 8329,
      "dinsel": 8330,
      "Dani": 8331,
      "Deği": 8332,
      "Mont": 8333,
      "krizi": 8334,
      "büyüy": 8335,
      "Hollandalı": 8336,
      "Hoca": 8337,
      "kullanılmaya": 8338,
      "klibi": 8339,
      "işletme": 8340,
      "tüken": 8341,
      "kavramı": 8342,
      "##grad": 8343,
      "erişim": 8344,
      "Siena": 8345,
      "pasaport": 8346,
      "olacağı": 8347,
      "sözcüğü": 8348,
      "Mihail": 8349,
      "federal": 8350,
      "##ignon": 8351,
      "oksijen": 8352,
      "Bi": 8353,
      "Fir": 8354,
      "Fal": 8355,
      "Müttefik": 8356,
      "Tug": 8357,
      "caz": 8358,
      "kok": 8359,
      "mis": 8360,
      "mün": 8361,
      "##lileri": 8362,
      "##gut": 8363,
      "##riye": 8364,
      "##AN": 8365,
      "##ert": 8366,
      "##unus": 8367,
      "##embe": 8368,
      "##ıklık": 8369,
      "içecek": 8370,
      "tarif": 8371,
      "karıştır": 8372,
      "buhar": 8373,
      "##ürken": 8374,
      "kullanıldığı": 8375,
      "##ilmesiyle": 8376,
      "sıraya": 8377,
      "İsis": 8378,
      "yakalan": 8379,
      "çalışmaktadır": 8380,
      "##ozof": 8381,
      "gereği": 8382,
      "düzelt": 8383,
      "maçını": 8384,
      "önemi": 8385,
      "köylü": 8386,
      "uzaklaştır": 8387,
      "getirir": 8388,
      "Temel": 8389,
      "##berto": 8390,
      "Harv": 8391,
      "Kalkınma": 8392,
      "ulaşmıştır": 8393,
      "kaybeden": 8394,
      "kullanılab": 8395,
      "anlaşmaz": 8396,
      "ürünü": 8397,
      "kimlik": 8398,
      "yönetiminde": 8399,
      "alıyor": 8400,
      "ilçedir": 8401,
      "Suudi": 8402,
      "Bayezid": 8403,
      "olduğunda": 8404,
      "nesn": 8405,
      "Azeri": 8406,
      "geçerli": 8407,
      "Scott": 8408,
      "demiryolu": 8409,
      "sürecinde": 8410,
      "üzüm": 8411,
      "NATO": 8412,
      "reddetti": 8413,
      "kütüphane": 8414,
      "atıf": 8415,
      "Victoria": 8416,
      "akıllı": 8417,
      "Premier": 8418,
      "Karşıyaka": 8419,
      "Blan": 8420,
      "Eleme": 8421,
      "Hik": 8422,
      "Jenn": 8423,
      "Ri": 8424,
      "alab": 8425,
      "by": 8426,
      "ex": 8427,
      "fesh": 8428,
      "mükemmel": 8429,
      "pul": 8430,
      "peş": 8431,
      "yel": 8432,
      "Şeri": 8433,
      "Şanlı": 8434,
      "şeyi": 8435,
      "##sey": 8436,
      "##riz": 8437,
      "##rum": 8438,
      "##reli": 8439,
      "##rick": 8440,
      "##zen": 8441,
      "##bal": 8442,
      "##irli": 8443,
      "##itt": 8444,
      "##radan": 8445,
      "##ahisar": 8446,
      "##tius": 8447,
      "##esia": 8448,
      "alkol": 8449,
      "##makam": 8450,
      "görmüştür": 8451,
      "##işsel": 8452,
      "önlem": 8453,
      "ork": 8454,
      "verimli": 8455,
      "sürgün": 8456,
      "olmayı": 8457,
      "İslami": 8458,
      "onar": 8459,
      "unut": 8460,
      "##ayanlar": 8461,
      "yönetici": 8462,
      "##rence": 8463,
      "Eng": 8464,
      "haric": 8465,
      "filmleri": 8466,
      "sistemini": 8467,
      "değişen": 8468,
      "örneği": 8469,
      "Indi": 8470,
      "yendi": 8471,
      "sayıları": 8472,
      "Hann": 8473,
      "Yarış": 8474,
      "çevrili": 8475,
      "görünt": 8476,
      "Maur": 8477,
      "Örnek": 8478,
      "kamera": 8479,
      "şarkısıyla": 8480,
      "katılma": 8481,
      "solunum": 8482,
      "Hatay": 8483,
      "Times": 8484,
      "Brezilyalı": 8485,
      "##gamber": 8486,
      "mülk": 8487,
      "gezegen": 8488,
      "akarsu": 8489,
      "Konferansı": 8490,
      "suikast": 8491,
      "Zürih": 8492,
      "Cey": 8493,
      "Kub": 8494,
      "Nak": 8495,
      "bol": 8496,
      "blok": 8497,
      "Çağı": 8498,
      "Çank": 8499,
      "Şiir": 8500,
      "##lılı": 8501,
      "##rüb": 8502,
      "##uya": 8503,
      "##ode": 8504,
      "##ote": 8505,
      "##ound": 8506,
      "##pag": 8507,
      "##cüsü": 8508,
      "##zim": 8509,
      "##aker": 8510,
      "##une": 8511,
      "birimleri": 8512,
      "olası": 8513,
      "##olk": 8514,
      "inde": 8515,
      "##avüz": 8516,
      "##ülmektedir": 8517,
      "##ülmüş": 8518,
      "##ista": 8519,
      "vermeye": 8520,
      "##ebilmektedir": 8521,
      "toplama": 8522,
      "işlemi": 8523,
      "##ifer": 8524,
      "##tron": 8525,
      "Amas": 8526,
      "Ayak": 8527,
      "uyumlu": 8528,
      "##oza": 8529,
      "sergi": 8530,
      "içerik": 8531,
      "##lesinde": 8532,
      "sorunu": 8533,
      "nüfuslu": 8534,
      "terfi": 8535,
      "hata": 8536,
      "sınırı": 8537,
      "kaynaklarda": 8538,
      "##lığından": 8539,
      "baba": 8540,
      "şampiyonluğu": 8541,
      "yayımlanmıştır": 8542,
      "kuvvetlerinin": 8543,
      "topraklarına": 8544,
      "mesle": 8545,
      "kariyerinin": 8546,
      "yarattığı": 8547,
      "Bölgesel": 8548,
      "Mora": 8549,
      "bozul": 8550,
      "##siniz": 8551,
      "Performan": 8552,
      "Heavy": 8553,
      "##tıktan": 8554,
      "standar": 8555,
      "Gazze": 8556,
      "bireysel": 8557,
      "Bağdat": 8558,
      "Milliyet": 8559,
      "katılımcı": 8560,
      "kategorisinde": 8561,
      "##liliğini": 8562,
      "fabrika": 8563,
      "dövüş": 8564,
      "Sezar": 8565,
      "Francisco": 8566,
      "nihayet": 8567,
      "##lağanüstü": 8568,
      "Belediyespor": 8569,
      "icra": 8570,
      "kolayla": 8571,
      "animasyon": 8572,
      "huzur": 8573,
      "Endonezya": 8574,
      "Yusuf": 8575,
      "Dok": 8576,
      "Ep": 8577,
      "Emek": 8578,
      "Fah": 8579,
      "Günü": 8580,
      "Hâ": 8581,
      "Helen": 8582,
      "Kes": 8583,
      "Kuv": 8584,
      "Meg": 8585,
      "Madde": 8586,
      "Nit": 8587,
      "Nep": 8588,
      "Pok": 8589,
      "Pazar": 8590,
      "Ric": 8591,
      "She": 8592,
      "bacak": 8593,
      "becer": 8594,
      "kesi": 8595,
      "sultan": 8596,
      "vah": 8597,
      "##sinin": 8598,
      "##çağ": 8599,
      "##ğday": 8600,
      "##ıh": 8601,
      "##cileri": 8602,
      "##ciliği": 8603,
      "##vaz": 8604,
      "##yurt": 8605,
      "##NS": 8606,
      "##eton": 8607,
      "##maktan": 8608,
      "anı": 8609,
      "görmüş": 8610,
      "oldular": 8611,
      "Buz": 8612,
      "##öly": 8613,
      "oranda": 8614,
      "kullanmaya": 8615,
      "Alfred": 8616,
      "sürmüştür": 8617,
      "##erse": 8618,
      "yaralan": 8619,
      "kaza": 8620,
      "bölgesinden": 8621,
      "İnternet": 8622,
      "karşılaşma": 8623,
      "Ergen": 8624,
      "ilçesinin": 8625,
      "##leştirme": 8626,
      "sanatı": 8627,
      "ülkeden": 8628,
      "##odos": 8629,
      "harit": 8630,
      "##tikçe": 8631,
      "kaba": 8632,
      "Konu": 8633,
      "sistemin": 8634,
      "ayrılmış": 8635,
      "nüfusa": 8636,
      "tanımlanır": 8637,
      "çevresindeki": 8638,
      "sessiz": 8639,
      "##izmin": 8640,
      "İmparatorluk": 8641,
      "belirtmiştir": 8642,
      "ilişkilendir": 8643,
      "##lacaktır": 8644,
      "söylenir": 8645,
      "Bella": 8646,
      "denize": 8647,
      "##tuğ": 8648,
      "Schmitt": 8649,
      "kontrolü": 8650,
      "##ropol": 8651,
      "Yapılan": 8652,
      "yağmur": 8653,
      "Şehirdeki": 8654,
      "materyal": 8655,
      "Sinema": 8656,
      "##shire": 8657,
      "ziyade": 8658,
      "sponsor": 8659,
      "noktada": 8660,
      "menz": 8661,
      "komplek": 8662,
      "diğeri": 8663,
      "defans": 8664,
      "mesafe": 8665,
      "olacağını": 8666,
      "sözcüğ": 8667,
      "Afrikan": 8668,
      "Makedonya": 8669,
      "Teknoloji": 8670,
      "Lübnan": 8671,
      "avantaj": 8672,
      "Yavuz": 8673,
      "Yıldırım": 8674,
      "Şanlıur": 8675,
      "Cro": 8676,
      "Cob": 8677,
      "Trom": 8678,
      "lık": 8679,
      "post": 8680,
      "şansı": 8681,
      "##sy": 8682,
      "##içe": 8683,
      "##not": 8684,
      "##ock": 8685,
      "##ía": 8686,
      "##larus": 8687,
      "##onia": 8688,
      "##amuk": 8689,
      "##ürt": 8690,
      "göğ": 8691,
      "ard": 8692,
      "bulut": 8693,
      "ediyordu": 8694,
      "Buff": 8695,
      "##ehrin": 8696,
      "##ibe": 8697,
      "verilmektedir": 8698,
      "Allah": 8699,
      "##anıyordu": 8700,
      "konak": 8701,
      "##ilmesinden": 8702,
      "yazma": 8703,
      "##ect": 8704,
      "yaşta": 8705,
      "##uvignon": 8706,
      "aktris": 8707,
      "##anlığın": 8708,
      "##ramanı": 8709,
      "evde": 8710,
      "Rod": 8711,
      "yayınlanmış": 8712,
      "serisinin": 8713,
      "haklarını": 8714,
      "Kong": 8715,
      "bilinç": 8716,
      "aşir": 8717,
      "aşama": 8718,
      "turu": 8719,
      "direkt": 8720,
      "Sant": 8721,
      "yüksekliği": 8722,
      "istek": 8723,
      "Hazar": 8724,
      "##ends": 8725,
      "##endik": 8726,
      "düşünülen": 8727,
      "programında": 8728,
      "##ordusu": 8729,
      "##bach": 8730,
      "Wilhelm": 8731,
      "şarkısını": 8732,
      "manastır": 8733,
      "ayrılarak": 8734,
      "Sauvignon": 8735,
      "turnuvaya": 8736,
      "Venüs": 8737,
      "fikr": 8738,
      "Conn": 8739,
      "Tunus": 8740,
      "Çevre": 8741,
      "simetri": 8742,
      "Donanması": 8743,
      "yörüng": 8744,
      "Hanedanı": 8745,
      "çubuklu": 8746,
      "Summer": 8747,
      "personel": 8748,
      "Kırklar": 8749,
      "kalabalık": 8750,
      "Atletizm": 8751,
      "Değiş": 8752,
      "AS": 8753,
      "Faz": 8754,
      "Gra": 8755,
      "Ky": 8756,
      "Muk": 8757,
      "Mardin": 8758,
      "North": 8759,
      "PT": 8760,
      "Som": 8761,
      "Uşak": 8762,
      "doz": 8763,
      "lib": 8764,
      "mali": 8765,
      "th": 8766,
      "##kut": 8767,
      "##sın": 8768,
      "##lop": 8769,
      "##nun": 8770,
      "##odi": 8771,
      "##wig": 8772,
      "##anna": 8773,
      "##lege": 8774,
      "##alli": 8775,
      "vez": 8776,
      "##uni": 8777,
      "##ater": 8778,
      "##azz": 8779,
      "olun": 8780,
      "yıldan": 8781,
      "##ağından": 8782,
      "##abileceği": 8783,
      "yerler": 8784,
      "verme": 8785,
      "Alas": 8786,
      "##lamasına": 8787,
      "yaralı": 8788,
      "olmasından": 8789,
      "işi": 8790,
      "prote": 8791,
      "gösterime": 8792,
      "Karaman": 8793,
      "eklen": 8794,
      "ülkeyi": 8795,
      "yeğ": 8796,
      "Başka": 8797,
      "yetersiz": 8798,
      "##amıştı": 8799,
      "üstlendiği": 8800,
      "##adık": 8801,
      "ikiye": 8802,
      "insanlara": 8803,
      "##ecep": 8804,
      "şehirler": 8805,
      "Beyler": 8806,
      "rolüyle": 8807,
      "Yarışma": 8808,
      "Kupa": 8809,
      "saldırgan": 8810,
      "Koreli": 8811,
      "Koruma": 8812,
      "Kırmızı": 8813,
      "dayanık": 8814,
      "bağımsızlık": 8815,
      "##general": 8816,
      "hücum": 8817,
      "Dolay": 8818,
      "Yaklaşık": 8819,
      "kiralık": 8820,
      "mutlak": 8821,
      "ülkedeki": 8822,
      "sanatçının": 8823,
      "valisi": 8824,
      "ücretsiz": 8825,
      "yararlan": 8826,
      "mürette": 8827,
      "kadrosuna": 8828,
      "teklifi": 8829,
      "gelindiğinde": 8830,
      "Amiral": 8831,
      "Mezarlığı": 8832,
      "Football": 8833,
      "School": 8834,
      "Bür": 8835,
      "Born": 8836,
      "Cre": 8837,
      "Deri": 8838,
      "Fark": 8839,
      "Keş": 8840,
      "Las": 8841,
      "Pav": 8842,
      "Polis": 8843,
      "Saat": 8844,
      "Ts": 8845,
      "Tol": 8846,
      "Time": 8847,
      "Yaban": 8848,
      "küç": 8849,
      "mi": 8850,
      "mag": 8851,
      "ufak": 8852,
      "yuvar": 8853,
      "Öğren": 8854,
      "şeri": 8855,
      "şub": 8856,
      "##EG": 8857,
      "##ED": 8858,
      "##stein": 8859,
      "##diy": 8860,
      "##lé": 8861,
      "##ges": 8862,
      "##miyor": 8863,
      "##hone": 8864,
      "##cas": 8865,
      "##CS": 8866,
      "##ín": 8867,
      "##incan": 8868,
      "##ayol": 8869,
      "##ety": 8870,
      "##üntü": 8871,
      "##denin": 8872,
      "##abilmek": 8873,
      "##örü": 8874,
      "kadının": 8875,
      "geçmi": 8876,
      "yayla": 8877,
      "##igo": 8878,
      "##igne": 8879,
      "takdir": 8880,
      "genetik": 8881,
      "yakından": 8882,
      "akın": 8883,
      "bölgeyi": 8884,
      "seçimi": 8885,
      "Rob": 8886,
      "ülkeye": 8887,
      "aldılar": 8888,
      "Stu": 8889,
      "Stro": 8890,
      "düzenlenmiştir": 8891,
      "##agan": 8892,
      "aşaması": 8893,
      "Ağrı": 8894,
      "değişir": 8895,
      "Aslan": 8896,
      "istis": 8897,
      "getirmiştir": 8898,
      "alınması": 8899,
      "güçleri": 8900,
      "geldiğinde": 8901,
      "askerleri": 8902,
      "formül": 8903,
      "dayanır": 8904,
      "uğrat": 8905,
      "ihtiya": 8906,
      "Federer": 8907,
      "milletvekil": 8908,
      "##üleb": 8909,
      "fırsat": 8910,
      "mağara": 8911,
      "İbran": 8912,
      "sitesinde": 8913,
      "besin": 8914,
      "Erzincan": 8915,
      "sahneye": 8916,
      "rakibi": 8917,
      "kalıp": 8918,
      "Köprüsü": 8919,
      "aşamasında": 8920,
      "endüstriyel": 8921,
      "banka": 8922,
      "kadrosunda": 8923,
      "etkileşim": 8924,
      "tecrüb": 8925,
      "Kuşat": 8926,
      "Christop": 8927,
      "Ziraat": 8928,
      "Başlangıçta": 8929,
      "yüzölçümüne": 8930,
      "Alaska": 8931,
      "Evan": 8932,
      "GS": 8933,
      "How": 8934,
      "Laz": 8935,
      "Lenin": 8936,
      "Ron": 8937,
      "Rek": 8938,
      "Sap": 8939,
      "Siri": 8940,
      "Tas": 8941,
      "adanın": 8942,
      "cüm": 8943,
      "fre": 8944,
      "pratik": 8945,
      "zaten": 8946,
      "##sama": 8947,
      "##lum": 8948,
      "##lot": 8949,
      "##memek": 8950,
      "##mund": 8951,
      "##das": 8952,
      "##unç": 8953,
      "##eta": 8954,
      "##ştay": 8955,
      "##ems": 8956,
      "delik": 8957,
      "##ition": 8958,
      "arasından": 8959,
      "##istler": 8960,
      "Alb": 8961,
      "##artman": 8962,
      "adres": 8963,
      "##ecilik": 8964,
      "açtığı": 8965,
      "olmasının": 8966,
      "topu": 8967,
      "topçu": 8968,
      "alanlar": 8969,
      "işleme": 8970,
      "prof": 8971,
      "belirtir": 8972,
      "##olistan": 8973,
      "düzenledi": 8974,
      "getirilmiştir": 8975,
      "tutan": 8976,
      "Kanunu": 8977,
      "##muşlardır": 8978,
      "zorluk": 8979,
      "gönüllü": 8980,
      "tasarlanan": 8981,
      "##nie": 8982,
      "olurken": 8983,
      "olursa": 8984,
      "Salon": 8985,
      "kavuş": 8986,
      "numarası": 8987,
      "##mediğini": 8988,
      "##lüğüne": 8989,
      "Sudan": 8990,
      "faaliyetleri": 8991,
      "turnuvada": 8992,
      "isteği": 8993,
      "Andro": 8994,
      "katılmaya": 8995,
      "Yakup": 8996,
      "listede": 8997,
      "House": 8998,
      "meclisi": 8999,
      "başlangıc": 9000,
      "oranında": 9001,
      "İspanyolca": 9002,
      "Kahire": 9003,
      "Toplum": 9004,
      "mekanik": 9005,
      "kesiminde": 9006,
      "edici": 9007,
      "Kalesi": 9008,
      "uzunluğunda": 9009,
      "başbakan": 9010,
      "finansal": 9011,
      "kapasiteli": 9012,
      "Kişisel": 9013,
      "kıyasla": 9014,
      "American": 9015,
      "rivayet": 9016,
      "##paganda": 9017,
      "Kayı": 9018,
      "Reg": 9019,
      "Tuna": 9020,
      "his": 9021,
      "log": 9022,
      "padi": 9023,
      "reng": 9024,
      "toz": 9025,
      "Üret": 9026,
      "ömür": 9027,
      "İvan": 9028,
      "Şev": 9029,
      "##rey": 9030,
      "##oj": 9031,
      "##par": 9032,
      "##pson": 9033,
      "##amasına": 9034,
      "##ors": 9035,
      "##apur": 9036,
      "##ado": 9037,
      "sonlandır": 9038,
      "##ülte": 9039,
      "##iplin": 9040,
      "verg": 9041,
      "kurmak": 9042,
      "Alm": 9043,
      "sürülen": 9044,
      "Arist": 9045,
      "yazısı": 9046,
      "olmaması": 9047,
      "toplanan": 9048,
      "alanına": 9049,
      "işe": 9050,
      "işleri": 9051,
      "##ria": 9052,
      "seçme": 9053,
      "kişiyi": 9054,
      "evi": 9055,
      "santral": 9056,
      "köyde": 9057,
      "önemlidir": 9058,
      "etkisini": 9059,
      "komed": 9060,
      "Kurucu": 9061,
      "tamamlamıştır": 9062,
      "kitle": 9063,
      "uzunluk": 9064,
      "tuttu": 9065,
      "geliştirdi": 9066,
      "uygulan": 9067,
      "uygulanan": 9068,
      "duygusal": 9069,
      "tabaka": 9070,
      "dağlık": 9071,
      "Serbest": 9072,
      "hazırlanan": 9073,
      "takımıyla": 9074,
      "gazetesi": 9075,
      "Anth": 9076,
      "tanındı": 9077,
      "hane": 9078,
      "hâkim": 9079,
      "istediği": 9080,
      "Karaca": 9081,
      "Sinan": 9082,
      "bildirdi": 9083,
      "çatış": 9084,
      "donanması": 9085,
      "İklim": 9086,
      "Foster": 9087,
      "##ness": 9088,
      "marka": 9089,
      "tehlikeli": 9090,
      "Başbakanı": 9091,
      "Moğolistan": 9092,
      "Cezay": 9093,
      "Kuruluş": 9094,
      "büyüdü": 9095,
      "ikincisi": 9096,
      "Lavigne": 9097,
      "Yehova": 9098,
      "töreni": 9099,
      "Çeşitli": 9100,
      "Öğretmen": 9101,
      "Soğuk": 9102,
      "BM": 9103,
      "Cha": 9104,
      "Fro": 9105,
      "Fort": 9106,
      "Gur": 9107,
      "Hin": 9108,
      "High": 9109,
      "Ital": 9110,
      "Işık": 9111,
      "Long": 9112,
      "Nick": 9113,
      "Pers": 9114,
      "Sn": 9115,
      "Tuva": 9116,
      "Yam": 9117,
      "Yok": 9118,
      "af": 9119,
      "eb": 9120,
      "htt": 9121,
      "port": 9122,
      "yem": 9123,
      "Öte": 9124,
      "çet": 9125,
      "ال": 9126,
      "##tuk": 9127,
      "##ré": 9128,
      "##ning": 9129,
      "##uar": 9130,
      "##jder": 9131,
      "##jinal": 9132,
      "##BS": 9133,
      "##enli": 9134,
      "##atan": 9135,
      "##etts": 9136,
      "##urus": 9137,
      "##amamıştır": 9138,
      "##organ": 9139,
      "##ürler": 9140,
      "##usus": 9141,
      "gölü": 9142,
      "kurt": 9143,
      "Türkçesi": 9144,
      "tarihten": 9145,
      "##ovan": 9146,
      "dönüştü": 9147,
      "Arke": 9148,
      "adındaki": 9149,
      "denem": 9150,
      "##idge": 9151,
      "##ubu": 9152,
      "sağlamaktadır": 9153,
      "ilçenin": 9154,
      "seçenek": 9155,
      "evden": 9156,
      "Karşı": 9157,
      "Robin": 9158,
      "eksen": 9159,
      "atıldı": 9160,
      "Stre": 9161,
      "##lerindendir": 9162,
      "açıkça": 9163,
      "Ağa": 9164,
      "Santa": 9165,
      "ayrım": 9166,
      "gruptan": 9167,
      "Miller": 9168,
      "##sızın": 9169,
      "ikamet": 9170,
      "Brit": 9171,
      "öğrenim": 9172,
      "geride": 9173,
      "yapıt": 9174,
      "anlamında": 9175,
      "seviyesi": 9176,
      "yerleşik": 9177,
      "yükselmiştir": 9178,
      "geldiğini": 9179,
      "Koç": 9180,
      "##ondo": 9181,
      "öldürdü": 9182,
      "Denizli": 9183,
      "Spike": 9184,
      "miktarı": 9185,
      "grubudur": 9186,
      "Belarus": 9187,
      "Sport": 9188,
      "keşfet": 9189,
      "beklenen": 9190,
      "birbirlerine": 9191,
      "Sarık": 9192,
      "Prusya": 9193,
      "Dönemi": 9194,
      "sorunlar": 9195,
      "İbn": 9196,
      "Kolordusu": 9197,
      "Massa": 9198,
      "Festival": 9199,
      "Yahudilerin": 9200,
      "##gorit": 9201,
      "Şirketi": 9202,
      "Network": 9203,
      "defn": 9204,
      "Arthur": 9205,
      "penaltı": 9206,
      "Levon": 9207,
      "Walker": 9208,
      "Sonuçlar": 9209,
      "müdürü": 9210,
      "Radyo": 9211,
      "drama": 9212,
      "Philip": 9213,
      "Swift": 9214,
      "deplasman": 9215,
      "borç": 9216,
      "detay": 9217,
      "Okyanusu": 9218,
      "referan": 9219,
      "Ovası": 9220,
      "otorit": 9221,
      "zincir": 9222,
      "estetik": 9223,
      "Daniels": 9224,
      "Bush": 9225,
      "Hans": 9226,
      "Lam": 9227,
      "Lamb": 9228,
      "Ruh": 9229,
      "SK": 9230,
      "Tot": 9231,
      "Tac": 9232,
      "UNE": 9233,
      "Who": 9234,
      "Ye": 9235,
      "Yör": 9236,
      "Zong": 9237,
      "bran": 9238,
      "hediye": 9239,
      "ilav": 9240,
      "tüc": 9241,
      "##kom": 9242,
      "##sburg": 9243,
      "##üh": 9244,
      "##tat": 9245,
      "##tim": 9246,
      "##gini": 9247,
      "##mod": 9248,
      "##hip": 9249,
      "##iner": 9250,
      "##ıntılı": 9251,
      "##alanı": 9252,
      "##lanmıştı": 9253,
      "##uldak": 9254,
      "##itlerin": 9255,
      "##oluş": 9256,
      "##mağı": 9257,
      "##stil": 9258,
      "yapay": 9259,
      "##oğlan": 9260,
      "bulur": 9261,
      "bulmak": 9262,
      "konumu": 9263,
      "açan": 9264,
      "##leşmesi": 9265,
      "İskan": 9266,
      "ondan": 9267,
      "görevinde": 9268,
      "asla": 9269,
      "gösterilir": 9270,
      "seçilir": 9271,
      "Chica": 9272,
      "kendisinden": 9273,
      "üyeli": 9274,
      "üyeler": 9275,
      "yapılandır": 9276,
      "gerekmektedir": 9277,
      "Sanayi": 9278,
      "istasyonu": 9279,
      "iklimi": 9280,
      "çıkarılan": 9281,
      "çıkarıldı": 9282,
      "##antum": 9283,
      "##çılar": 9284,
      "gelişimi": 9285,
      "keskin": 9286,
      "kuzeydoğusunda": 9287,
      "Harp": 9288,
      "sevgil": 9289,
      "makin": 9290,
      "halklardan": 9291,
      "merkezidir": 9292,
      "##onds": 9293,
      "girişimi": 9294,
      "kitaplar": 9295,
      "gençlik": 9296,
      "Johnson": 9297,
      "avcı": 9298,
      "sürdürmektedir": 9299,
      "doku": 9300,
      "şeklindedir": 9301,
      "##lacağını": 9302,
      "kutup": 9303,
      "başarıyla": 9304,
      "gerçekleşir": 9305,
      "Joe": 9306,
      "tatil": 9307,
      "sebeple": 9308,
      "civar": 9309,
      "siyasetçidir": 9310,
      "vatandaşı": 9311,
      "politikacı": 9312,
      "numaradan": 9313,
      "Napol": 9314,
      "tüfek": 9315,
      "##League": 9316,
      "Malatya": 9317,
      "Şanlıurfa": 9318,
      "padişah": 9319,
      "Zonguldak": 9320,
      "Ata": 9321,
      "Bob": 9322,
      "Emp": 9323,
      "Hes": 9324,
[...]
